a n 69519470
e n 64789578
e s</w> 64337403
i n 63114825
t h 56906260
o n 51759344
o u 48743196
e r 48689253
t i 45904967
a r 40274132
d e</w> 39089505
r e 37867505
o n</w> 36423909
a i 32975060
o r 32212551
e r</w> 31933305
th e</w> 31363761
l e</w> 29950807
q u 28820590
l i 26129866
t r 25770967
e d</w> 23120593
e s 22388982
i s 21409699
en t</w> 21380284
i t 20920994
p r 20407184
o m 19587032
in g</w> 19545741
e n</w> 19401309
a l 19283060
u r 19080254
a t 18364628
c h 18181655
t o</w> 17761639
l a</w> 17446153
i s</w> 17276532
an d</w> 17083552
e m 16957133
e l 16418422
e t</w> 16366261
i n</w> 15887334
o f</w> 15692971
c e</w> 15478686
a s</w> 15235852
a ti 14977438
u n 14728034
a s 14527458
i l 14521709
a v 13683251
a u 13578296
a c 13298930
s i 13175682
a t</w> 13164939
l es</w> 13104052
c on 12848758
d i 12657503
r e</w> 12212831
t s</w> 11992662
a n</w> 11910861
l '</w> 11875808
a l</w> 11860420
a m 11771459
s u 11368793
i c 11279182
s t 10983593
e u 10757215
d es</w> 10712734
a g 10665630
o r</w> 10446019
p l 10401201
s e</w> 10155255
e c 10074152
o l 9943937
d '</w> 9810299
qu e</w> 9785395
r i 9453391
t e</w> 9387297
r o 9134143
c om 8862049
p o 8837416
h e</w> 8833490
pr o 8554649
ou r</w> 8521028
a b 8218119
an s</w> 8214200
u n</w> 7947356
d é 7940832
m e</w> 7906869
d u</w> 7864161
ati on</w> 7777426
on s</w> 7763132
a r</w> 7740617
es t</w> 7710405
an t</w> 7376190
e t 7324682
a p 7198710
c i 7152615
er s</w> 7002734
p ar 6977115
ou r 6971031
e x 6926919
u s 6862141
w h 6798957
f f 6772809
un e</w> 6750849
i t</w> 6750110
l e 6736854
l o 6648957
a d 6582763
ai t</w> 6564678
' s</w> 6462289
o p 6437827
em ent</w> 6292125
tr e</w> 6225045
n o 6154086
v i 6142012
r é 6139541
ti on</w> 6119680
th at</w> 6117346
n e</w> 6086937
d e 6058075
en t 6030996
v er 6005343
f or</w> 5914522
on t</w> 5894723
a u</w> 5860684
l y</w> 5720959
a in 5705847
s e 5597183
a y</w> 5558580
é t 5298006
s ai 5228230
p our</w> 5213599
t er 5117586
m o 5029573
b e 5017176
f or 4934625
v e</w> 4866660
i r</w> 4851338
p or 4844117
i l</w> 4837069
i m 4798103
i g 4763825
T he</w> 4737161
p u 4733533
re s 4731925
p er 4729606
qu i</w> 4707158
d ans</w> 4591887
u s</w> 4533013
g r 4447027
i r 4417888
é e</w> 4351517
sai d</w> 4348100
it h</w> 4315682
en d 4300321
ou t</w> 4270717
t er</w> 4258696
th e 4237645
eu r</w> 4205217
s on</w> 4192153
b u 4168765
2 0 4154185
a y 4082539
w as</w> 4058486
s h 4040796
a li 4009945
w ith</w> 4001982
e ur 3981646
c o 3846440
m ent</w> 3799927
ou s</w> 3797283
n e 3738340
é s</w> 3720495
er e</w> 3712541
ou n 3678137
c l 3626888
t o 3597080
ar e</w> 3565049
su r</w> 3558713
u l 3553993
p e 3533893
ai s</w> 3515036
p ar</w> 3500683
n i 3427095
pr é 3383578
a d</w> 3382879
s er 3351844
s t</w> 3306924
en ts</w> 3298107
ou l 3255354
é r 3249598
s o 3203633
an ce</w> 3196857
p as</w> 3195761
b e</w> 3179674
av e</w> 3176884
m i 3169261
t e 3166852
au x</w> 3161725
a k 3160582
b y</w> 3157409
u c 3119631
ag e</w> 3085818
m in 3082858
v o 3082165
an d 3027134
qu '</w> 3021149
at e</w> 2998984
re c 2979398
t é</w> 2896648
h is</w> 2891369
p re 2886862
m ar 2884679
f ro 2879460
ai re</w> 2869954
d o 2866262
on n 2830865
f i 2801547
è s</w> 2795258
fro m</w> 2793781
ur e</w> 2790420
s p 2789712
t ed</w> 2783665
s es</w> 2770376
m on 2734019
r es</w> 2724241
or e</w> 2719452
h ave</w> 2709763
pl us</w> 2705382
el le</w> 2698592
g i 2676968
eu x</w> 2669771
u e</w> 2667543
L e</w> 2667298
m an 2660312
C h 2659067
o u</w> 2650266
en ce</w> 2644363
g e</w> 2633050
t h</w> 2624939
b i 2601841
20 0 2600144
ai n</w> 2587512
e l</w> 2576786
d is 2569551
o o 2566560
s s 2551805
d ay</w> 2549332
il li 2540463
t es</w> 2533896
v er</w> 2530206
em b 2516773
in e</w> 2516001
è re</w> 2514247
d er 2509149
h as</w> 2498278
as s 2473669
on e</w> 2466453
oul d</w> 2463265
e c</w> 2461191
il l</w> 2454080
d s</w> 2448407
tr i 2447687
ati ons</w> 2446548
h e 2445731
in g 2442815
th er</w> 2430665
t en 2422367
c es</w> 2387833
s '</w> 2386544
il l 2383167
an n 2343259
com m 2328501
a f 2308365
g h 2292959
y e 2287653
w e 2273846
it s</w> 2265871
c h</w> 2263907
ét é</w> 2255430
av ec</w> 2245402
0 0</w> 2244419
al l 2236978
ou v 2223825
or s</w> 2222503
a le</w> 2218207
r an 2212806
n '</w> 2196505
it e</w> 2183697
t u 2181630
f in 2178732
g o 2171360
al l</w> 2170111
d i</w> 2169415
no t</w> 2158686
c u 2139678
w or 2127698
eur s</w> 2118580
a ce</w> 2083472
bu t</w> 2045824
ab le</w> 2039112
b li 2036702
et te</w> 2036398
ar d</w> 2035758
o c 2034684
si d 2033377
com p 2031250
h i 2019040
ti ons</w> 1999917
o ff 1967155
w ill</w> 1966153
si on</w> 1952323
it y</w> 1915183
as t</w> 1912008
t - 1904628
L a</w> 1895792
I n 1889952
tr o 1880153
v en 1873203
in ter 1869548
m e 1861350
it é</w> 1857904
qu es</w> 1855114
ac c 1836621
ig h 1833282
for m 1829388
ay s</w> 1828583
h o 1825897
L es</w> 1818990
v is 1816750
wh o</w> 1793658
r a 1792717
t y</w> 1788723
s o</w> 1772229
m illi 1766705
é es</w> 1764289
po li 1759613
u m 1756984
ai l 1741667
t ing</w> 1741174
é l 1734646
an ts</w> 1731108
is e</w> 1725693
s tr 1700966
T h 1694518
h ad</w> 1685471
b o 1682699
M ar 1667090
ch e</w> 1665248
ol l 1659137
th is</w> 1652303
A n 1646185
s ont</w> 1645358
the y</w> 1642453
A l 1636222
ati on 1634857
om e</w> 1630179
e p 1626952
é n 1625149
the ir</w> 1624147
is t 1622589
po s 1613169
at t 1607785
m a 1600227
c r 1596128
e v 1584569
w ere</w> 1583013
pu bli 1577890
ic h</w> 1574185
k s</w> 1570542
w n</w> 1569998
an g 1568894
d er</w> 1563492
our s</w> 1558243
m es</w> 1556009
ic i 1553374
ar s</w> 1551466
es s</w> 1547796
l u 1546829
d ing</w> 1538615
p e</w> 1532678
m ore</w> 1531183
i on</w> 1530919
par ti 1526833
en s</w> 1523459
1 9 1504132
en c 1502226
s a</w> 1494043
c re 1489195
ex p 1471758
i e</w> 1467572
b l 1460430
es s 1458364
be en</w> 1457366
en ti 1452864
I l</w> 1451567
ver n 1450243
al ly</w> 1450169
f ir 1445329
e d 1440814
o b 1440035
g u 1439043
b r 1431487
é ri 1428470
i re</w> 1425260
i v 1419118
con t 1418973
an c 1416925
ai ent</w> 1411625
s ur 1411385
s ti 1410140
es ti 1403274
pr ès</w> 1400120
at ed</w> 1394722
s ou 1392340
es t 1383716
cl u 1376210
wh ich</w> 1372621
m er 1365306
c er 1364842
- - 1363384
u p</w> 1361553
el l 1360132
t ou 1357323
a ff 1352169
a m</w> 1347653
j u 1347520
m ais</w> 1334922
L '</w> 1327796
ur s</w> 1326800
por t 1325115
c ou 1322915
ab out</w> 1321045
in v 1316003
s c 1314039
in s</w> 1313815
é g 1313099
so ci 1306589
f o 1302646
S t 1302488
f e 1301490
ar y</w> 1299030
de v 1296875
p res 1294574
p s</w> 1293595
w ould</w> 1293435
d uc 1292220
am e</w> 1289661
f r 1277578
w e</w> 1272752
ac k</w> 1263787
' t</w> 1261585
p i 1260800
sid ent</w> 1254998
c ette</w> 1254391
ol d</w> 1246854
qu i 1240430
k e</w> 1235056
j us 1227607
d eux</w> 1227057
an y</w> 1226233
s ec 1225959
f ait</w> 1224436
e - 1222083
t ur 1220953
por t</w> 1217652
ap p 1211664
d u 1207707
r ou 1203047
f u 1200484
d em 1198502
s el 1195676
v ic 1195387
g h</w> 1194976
pre mi 1188189
on g</w> 1182476
s i</w> 1177895
0 00</w> 1174955
N e 1173742
t w 1173494
i es</w> 1173455
B u 1173262
c ar 1170169
ain e</w> 1170084
c an</w> 1167308
r en 1155760
p h 1154037
I t</w> 1150162
m is 1145332
Q u 1143227
e ff 1142951
in t 1142262
n ation 1141207
o ther</w> 1136506
av ait</w> 1132765
ai res</w> 1130356
m at 1129900
k ing</w> 1129185
v es</w> 1127739
as e</w> 1124468
a ch 1124125
di c 1124006
gh t</w> 1122370
th an</w> 1119900
il le</w> 1118052
h er</w> 1115152
t out</w> 1113912
s y 1112286
ak e</w> 1106775
y ou</w> 1101359
au t 1101008
b le</w> 1100568
l eur</w> 1097744
g n 1095774
tr es</w> 1093287
p on 1092480
ê tre</w> 1092215
m an</w> 1087010
r u 1086341
l a 1084110
ti me</w> 1083053
ye ar</w> 1078735
P ar 1077917
po in 1073834
ar g 1072131
en d</w> 1070992
i li 1070971
1 0</w> 1061421
af ter</w> 1061236
i d 1059403
ê me</w> 1057482
al s</w> 1057187
min is 1054715
pu is</w> 1049435
pl o 1046338
j ou 1041169
op le</w> 1038818
o s</w> 1038340
el y</w> 1038046
re m 1035451
der ni 1029491
oun d</w> 1028322
al so</w> 1024925
gr ou 1018156
C om 1018115
pr i 1015555
en tre</w> 1013633
a ur 1011673
con om 1009904
- -</w> 1008886
c ri 1008198
re d</w> 1006755
com me</w> 1005518
an ci 998410
av o 994164
re l 993840
c ent</w> 991160
le urs</w> 985798
e u</w> 981134
on g 980423
ti c 980413
n ouv 978722
b ec 978185
t ure</w> 977255
el l</w> 976430
per s 973422
ti es</w> 968978
M on 968711
at es</w> 965054
au ss 964463
at s</w> 964297
n ous</w> 963131
ét ait</w> 959179
il s</w> 958891
di ff 958448
R e 954110
pe ople</w> 952499
H e</w> 952161
tr av 949234
our n 948511
v e 946875
wh en</w> 944744
è me</w> 943525
re r</w> 942037
k ed</w> 941595
em ents</w> 939120
k e 931241
ing s</w> 929433
w i 928959
po si 926720
p our 923475
am p 919924
an s 919483
d ec 914823
su p 914442
o w 912750
ai s 909392
al es</w> 908279
di rec 906916
r is 906439
m ême</w> 905494
or d</w> 905197
sp ec 900171
I n</w> 899145
o ver</w> 897686
igh t</w> 896943
au se</w> 890488
ti ve</w> 889022
Bu t</w> 888662
st e</w> 884590
f ac 883899
U n 882428
auss i</w> 881729
pré s 880593
c '</w> 878049
no w</w> 876997
c oun 876926
ch o 876072
d ed</w> 875829
s he</w> 874987
re e</w> 873640
d es 872696
ain s</w> 871877
an t 868428
ne w</w> 865416
b er 864363
tw o</w> 863882
m é 863045
c ur 860508
or g 856603
F r 854926
i c</w> 853675
c our 853348
fir st</w> 853035
ch e 852927
c ap 851451
avo ir</w> 851069
el les</w> 851031
s om 850743
é v 850660
con tre</w> 850242
u si 849429
li t 845280
3 0</w> 844214
tr y</w> 842052
ol o 841344
f aire</w> 839967
in to</w> 839633
b an 839432
. . 833052
su l 832286
f er 830763
el s</w> 829969
w ay</w> 826021
h u 823573
lo c 823131
di t</w> 821118
f l 820549
con tr 815715
we e 815710
C on 815278
o f 813624
re t 811734
j o 808522
lo w 807387
E n 805325
en tr 805135
par t</w> 804555
th ere</w> 803786
ali s 801623
ran ç 801161
J o 798281
oo d</w> 797909
c or 795812
l ast</w> 794347
20 1 793161
h om 790689
A r 788976
a près</w> 787786
en ne</w> 787021
qu é</w> 786000
i ch 784071
in d 781991
pro f 781863
N o 781539
f am 779455
par t 779240
en s 779003
p ass 778852
ag es</w> 773325
ar i 773122
t on</w> 772234
p er</w> 771186
ver y</w> 770796
a i</w> 766970
.. .</w> 766172
e ar 757098
ac h</w> 756499
li c 756205
milli on</w> 755577
un i 755507
in clu 753470
re g 750909
or d 749905
R o 748787
O n</w> 747965
c ould</w> 745584
j e 744382
ye ars</w> 743748
a di 742731
de puis</w> 742575
s or 742280
C '</w> 741809
W e</w> 740455
on c 740424
pl ace</w> 738473
am a</w> 738225
c ro 737352
t em 734918
c an 734745
M o 733573
lo o 733497
s ol 729681
2 0</w> 729583
g e 728828
E n</w> 727811
om b 727602
h el 727305
fo is</w> 724225
s - 724084
d r 722931
en n 721047
ec t</w> 720641
al ement</w> 720224
or i 719694
is s 715894
g et</w> 715600
lu i</w> 715587
ai l</w> 714712
ver s 713416
è res</w> 712885
ac ti 711787
go vern 710769
s ome</w> 708894
D e 708542
t eur</w> 706102
bi en</w> 705220
p eu 704592
d ro 704176
j ours</w> 703904
en g 703400
Fr ance</w> 702874
e au</w> 702244
c ul 702147
S u 700993
m ent 699267
ar ds</w> 697743
dé c 697251
re pr 695971
d o</w> 695707
m et 695609
pro duc 694480
n o</w> 694275
mo st</w> 689975
or y</w> 687376
es e</w> 686410
the m</w> 686125
W h 685935
i f</w> 684168
wh at</w> 683372
m or 683339
j e</w> 682975
A mer 682253
f il 682241
O b 681224
st e 681175
c as 680907
tr ès</w> 677486
Amer ic 676041
nation al</w> 675855
end re</w> 675574
u t 675169
b as 674945
n er</w> 674142
in ce</w> 670517
w s</w> 669764
con n 669036
ci p 668788
n ing</w> 668604
s é 668041
i le</w> 667878
a î 666807
on d 666011
m y</w> 664851
U . 662589
1 , 657500
L e 657370
org an 653592
li ke</w> 652522
a th 651657
qu ar 649567
g l 649409
r it 646303
ch an 645972
o ù</w> 645698
tr ans 645478
ur es</w> 644886
l d</w> 644650
é qui 644238
ec tion</w> 644065
at ing</w> 643028
in di 641142
jus t</w> 637285
v ed</w> 637100
res pon 636127
r ap 634877
l l</w> 632101
it ed</w> 631643
Ne w</w> 631225
s ans</w> 630312
th ou 629774
f ic 629360
th ing</w> 629334
se con 627395
le ad 625685
an de</w> 625554
g ou 625531
off ici 623532
ac k 622508
E ur 621496
ch i 621436
on ne</w> 620639
d y</w> 620542
a - 620027
d ur 618960
cer t 617726
re st 616990
E l 615852
ti que</w> 615240
hi m</w> 613887
b et 612608
s it 612151
Ob ama</w> 611088
p le</w> 610811
M .</w> 610475
pré sident</w> 609516
en er 608894
vo ir</w> 608760
J e 606976
vi r 605889
t ant</w> 605410
S .</w> 604897
d ont</w> 604419
for e</w> 604008
per cent</w> 603931
M ais</w> 602466
i ce</w> 602386
o se</w> 600651
200 8</w> 598855
on ly</w> 596877
cont in 595721
C l 590579
p ays</w> 590168
el op 589891
ar r 589877
av ant</w> 589439
t- il</w> 588310
ser a</w> 588156
au tres</w> 587828
d re 586170
gou vern 585531
ai r 585242
wh ere</w> 584875
ou se</w> 584533
em plo 584426
ati ve</w> 581743
t és</w> 581488
a z 580430
ê te</w> 579982
sh i 579818
u m</w> 579227
n ed</w> 579137
i m</w> 577301
posi tion</w> 576110
m s</w> 575726
bec ause</w> 575218
in i 573260
publi c</w> 571664
0 , 571630
it al</w> 571333
su b 570499
U. S.</w> 569881
ri v 569423
f in</w> 569103
li s 568436
s em 568345
on al</w> 568137
pu l 567851
s al 566833
5 0</w> 566768
m emb 566103
en se</w> 564353
govern ment</w> 562736
a de</w> 562651
d ou 562157
in form 562091
c oll 562026
pro gr 561596
b ack</w> 561340
sh o 560693
enc ore</w> 559933
a w 559695
A u 559634
-- -- 558036
at er</w> 557577
P re 557455
ec ti 557371
mo ins</w> 557208
B o 556602
ar d 554465
vi ce</w> 553639
U n</w> 553624
of f</w> 553239
tro is</w> 552663
P o 551854
J e</w> 551383
ec ted</w> 550535
g ro 550311
r ait</w> 549066
eur os</w> 548697
v ol 548627
le v 548266
g y</w> 548069
r ai 547232
do wn</w> 546956
ar t</w> 546859
pe ti 546727
and s</w> 546219
v al 545893
pers onn 545487
C an 545119
i d</w> 545072
an te</w> 543588
qu el 543496
be fore</w> 542770
ab ili 542759
p end 540668
di d 540497
1 5</w> 539822
t or</w> 539717
ti s 539137
en te</w> 538976
milli ons</w> 538794
man y</w> 538378
com pl 537171
res s 536785
L i 535194
tem ps</w> 534931
tr ou 534552
s ch 532607
b er</w> 532043
Eur op 531658
com e</w> 531355
st at 530706
sti tu 530434
prés ent 529340
an ti 528037
poli ce</w> 527077
fin anci 527032
ser v 526985
g én 526945
f au 526821
wor k</w> 526730
is i 525753
s s</w> 525588
t ers</w> 525148
v ous</w> 524787
c lo 524123
y ing</w> 522333
Qu é 522144
vi e 522044
pr om 521029
th rou 520510
qu es 520117
st u 520096
si gn 519916
pro j 519353
si ons</w> 518810
premi er</w> 516907
ain es</w> 515205
comm un 514824
T he 514068
as h 512634
S h 511048
im port 510989
pl ac 510080
m er</w> 509277
f t</w> 509104
e y</w> 508468
s ays</w> 507952
ac t</w> 507923
c li 507272
derni er</w> 506732
ou t 505423
th ree</w> 505291
es day</w> 504688
f ace</w> 503845
b us 502841
ai r</w> 502426
c e 502192
pl ay 501269
g re 500959
e conom 500926
f e</w> 500835
c ré 500550
mo is</w> 499272
l in 499046
emb re</w> 498328
w w 497462
C e</w> 496836
mi lit 496798
vi e</w> 496625
ap pe 495551
tri bu 494323
n um 493637
s eu 493334
it és</w> 492012
er a</w> 491492
c ours</w> 491059
ak ing</w> 490369
ig n 490297
k et</w> 490235
ch ang 489823
res s</w> 489718
pos si 489716
P our</w> 489645
U ne</w> 489520
ann ée</w> 489492
C ar 488255
I s 487642
ma de</w> 487150
m ents</w> 486107
re ment</w> 485990
c in 485734
v a</w> 485467
le g 485311
c ol 483250
ain st</w> 482685
in a</w> 482539
g ar 482309
pro t 481170
cou p</w> 481170
us ed</w> 480773
D i 480275
poin ts</w> 480184
t a 479544
be ing</w> 479418
ma j 478756
ér ic 477208
A f 477113
A c 477052
wh ile</w> 476766
l ement</w> 476419
t ous</w> 476412
M c 475377
il y</w> 474105
pro ch 473437
d ent</w> 473353
be c</w> 473055
re por 471958
P ro 471943
p ou 471828
t old</w> 471478
M e 471341
h au 471131
ag ainst</w> 470528
str uc 470526
f s</w> 470198
él é 469979
sel on</w> 469897
l ine</w> 469686
im p 469558
j ourn 469048
minis tre</w> 468824
dé cl 467547
al ors</w> 467116
r .</w> 466398
tr ic 466180
U ni 465955
g o</w> 465950
u ti 465217
es p 464585
si m 464202
d onn 464155
200 9</w> 463975
r a</w> 463540
B e 463484
Qué bec</w> 463217
ho w</w> 463159
gouvern ement</w> 462798
c el 462342
i que</w> 462332
pré c 461633
B ar 461197
ai ss 460391
l er</w> 460239
200 7</w> 459396
si de</w> 459151
con cer 458886
su c 458589
inv esti 458028
comp any</w> 458024
m en 456770
throu gh</w> 456541
T o 456085
B er 455595
T his</w> 455579
op er 455204
pro c 455176
ch é</w> 454104
li er</w> 454069
d oll 453896
n et</w> 453043
s ite</w> 452747
s en 451941
gén ér 451866
m ake</w> 451788
m é</w> 451745
in k</w> 451008
is es</w> 450448
In ter 450015
te ch 449695
grou pe</w> 449198
C o 447629
t al 447068
pe u</w> 445196
uc h</w> 444741
dé f 444467
19 9 444266
wee k</w> 444190
t t 444125
ag ne</w> 443191
1 2</w> 442710
1 0 442432
wor ld</w> 440706
en ces</w> 439568
us t</w> 439274
en f 438970
v ers</w> 437376
ch il 437243
organ is 436168
p as 435882
é conom 434860
d on 434549
s ay</w> 434522
su ch</w> 434519
premi ère</w> 433953
re u 433591
2 , 433486
m ati 433103
ar m 432283
ré gi 431921
b re</w> 431881
go ing</w> 431793
ali té</w> 431588
mon de</w> 431534
ac tion</w> 430690
o is</w> 430437
b ro 429411
m ay</w> 428522
v en</w> 428270
j à</w> 428264
d om 427945
1 1</w> 427930
c amp 427813
th ose</w> 427558
ind us 427346
is su 427331
e z</w> 427218
E t</w> 427160
wi th 427072
vis ion</w> 426271
mis sion</w> 425348
s po 425063
M ich 424901
f ranç 424746
vic es</w> 424407
g er</w> 424223
an ces</w> 423976
z e</w> 423919
ab les</w> 423527
l ors</w> 422769
poin t</w> 422416
Jo h 422104
G u 421771
c all 421690
l s</w> 421522
M r</w> 420485
m is</w> 420393
a h 420310
emb er</w> 419958
in cre 419741
lo w</w> 419118
ent repr 418697
J u 418576
h ome</w> 418198
The y</w> 417437
An d</w> 417367
s ince</w> 417006
ex t</w> 416877
ev en</w> 416210
w ell</w> 415718
bus in 414959
n é 414094
pr in 414006
ég alement</w> 413729
ch es</w> 413229
au tre</w> 412930
H o 412481
D ans</w> 412324
Y or 411747
n omb 411198
l ed</w> 411029
dé jà</w> 409703
si ve</w> 409281
no t 408874
u es</w> 408690
ch er 408615
li g 408533
ou s 408381
d on</w> 406566
st ate</w> 406260
c ent 405760
m ain 404705
ar e 404621
is te</w> 404236
l and</w> 402837
an - 402469
B r 402392
exp li 402254
w om 402091
f un 401289
am éric 400622
inclu ding</w> 400339
an i 400198
e f</w> 399799
1 8</w> 399707
1 . 399550
b oo 398497
N or 398379
secon d</w> 397627
E t 397362
1 4</w> 397205
s k 397096
h igh 396787
al y 396605
sit u 396587
am es</w> 396169
cur r 395979
l ong</w> 395945
ain si</w> 395623
ex c 395535
p ed</w> 395530
min u 395045
fu l</w> 394080
suc c 394057
ch ar 393734
th en</w> 393567
ap pro 392965
in st 392709
N ous</w> 392344
b re 391821
2 5</w> 391527
pro vi 391302
décl ar 391193
t eurs</w> 391046
S e 390794
sh ould</w> 390107
po pul 389654
m uch</w> 389641
r y</w> 389558
as on</w> 388738
ex per 388507
l ong 388120
peu t</w> 387197
personn es</w> 386096
U S</w> 385497
am e 385422
sti ll</w> 384884
som e 384870
pl an</w> 383682
si x</w> 382300
t le</w> 382238
er re</w> 381298
to ire</w> 380763
t ake</w> 380761
enc y</w> 380538
re ven 380280
m es 379766
chan ge</w> 379107
di d</w> 379014
Yor k</w> 378728
at eurs</w> 377964
tou jours</w> 377740
we en</w> 377174
se p 377116
pr iv 377076
ch er</w> 376941
équi pe</w> 376451
shi p</w> 376369
at eur</w> 375972
d et 375641
v ing</w> 375394
m om 375311
en vir 375032
am ment</w> 373898
é co 373886
ac tu 373797
é d 373626
F ranç 372997
man i 372802
th er 372755
G r 372483
a k</w> 372397
t or 372387
is t</w> 372162
P l 371468
pr is</w> 371315
progr am 371202
B ri 370881
j our 370677
su m 369584
v end 369385
th s</w> 369222
ter r 368995
qu a 368897
qu o 368339
c ar</w> 368327
pl usi 368064
re ad 368018
plusi eurs</w> 367957
m un 367930
op é 367827
coun try</w> 367668
M r.</w> 367561
S ch 366987
x i 366830
st es</w> 366322
em s</w> 366247
o ver 365535
b or 365479
dur ing</w> 365366
ô t</w> 364122
co m</w> 363862
C or 363445
is ion</w> 363316
be au 363256
t re 362596
n u 362596
h eur 362431
g g 362021
f ai 361818
s ed</w> 361588
p ay 361426
se e</w> 361149
ent ly</w> 360959
m usi 360888
li eu</w> 360656
vi ol 360574
so it</w> 360420
s et</w> 359964
un der</w> 359467
an e</w> 359423
al th</w> 359294
un der 359254
ch arg 359203
bet ween</w> 358534
su ite</w> 358458
él ec 358338
' re</w> 357865
i x</w> 357465
b our 357454
B l 357234
in es</w> 356994
C ol 356905
er ed</w> 356724
inform ation</w> 356679
f ol 355437
E x 355434
th ink</w> 355277
v ille</w> 355159
u tion</w> 354889
ser vices</w> 354690
b ur 354489
s ous</w> 354253
Un ited</w> 353097
S te 352336
dé r 351911
minis tr 351744
eur opé 351582
man ag 351281
G e 351270
o le</w> 351048
to t 350304
h al 349918
ri ght</w> 349909
f ul 349156
form er</w> 349105
ell ement</w> 349074
mat ch</w> 348579
b ou 348018
Th ere</w> 347936
b illi 347892
n ext</w> 347848
a jou 347680
ann ées</w> 347337
ét u 346574
su iv 346475
can did 346068
publi c 346022
S er 345595
di a</w> 345536
m et</w> 345304
lo b 345072
as ed</w> 344768
bi li 344767
ç a</w> 344711
m ul 344616
ar ly</w> 344419
A b 344309
si g 344297
ser vice</w> 344233
h ab 343972
l un 343711
pro du 343389
ar - 343209
F e 343149
l ess</w> 342750
4 0</w> 342693
Americ an</w> 342684
S ou 342633
on es</w> 342043
a- t-il</w> 341732
in d</w> 341579
be li 341575
ti mes</w> 341571
tr é 341177
bu il 340963
j '</w> 340757
ag n 340195
S o 340018
y our</w> 339254
pr is 338841
tic al</w> 338632
ail leurs</w> 338416
3 , 338235
th ese</w> 338105
ag o</w> 337998
at e 337461
ad a</w> 337430
re sul 335323
S ain 335156
con f 335141
pl e 334775
f em 334186
1 7</w> 334010
0 . 333911
1 6</w> 333853
b ar 333780
re - 333256
B ro 333235
c le 333156
es si 332990
tr ai 332714
w er</w> 332408
Europ e</w> 332389
pro bl 331874
ist an</w> 331854
hu i</w> 331749
mar ket</w> 331648
nouv eau</w> 331485
ai se</w> 331368
ame di</w> 331344
re di</w> 331335
f our</w> 331137
on - 330691
A s 329833
jour d'</w> 329726
as soci 329517
R us 329277
quel ques</w> 329068
gi e</w> 328870
a que</w> 328614
c ed</w> 328132
d - 328042
. com</w> 327408
t ement</w> 327226
at ur 327220
v re</w> 326920
u se</w> 326023
con se 325267
te - 324970
A d 324721
M an 324499
y m 324239
acti v 324188
g ood</w> 324149
man che</w> 323867
n or 323826
ing ton</w> 323689
doll ars</w> 323661
ne l</w> 323608
H e 323430
p ic 322654
pr im 322058
c ô 321629
possi ble</w> 321491
emb le</w> 321087
not amment</w> 320668
m a</w> 320558
1 3</w> 320413
con fi 320247
fau t</w> 320173
T u 320172
ic ul 319855
W e 319430
k no 319391
Je an- 318315
con di 318272
D av 318217
I ra 318083
m al 317912
li m 317883
f a 317490
ar ound</w> 317456
grou p</w> 317383
r ac 317217
pro b 317039
en e 316911
ig h</w> 316122
aff ir 315136
t en</w> 314863
em p 314811
ti onn 314761
p es</w> 314641
le y</w> 314197
in t</w> 314193
Th at</w> 313921
busin ess</w> 313866
dre n</w> 313659
ch am 313236
c am 312850
j am 312509
he ad</w> 312415
au c 312386
g ener 312304
thou gh</w> 311864
be g 311659
qu ali 311591
s m 311449
v ement</w> 311171
no v 311147
hel p</w> 310872
P i 309891
no tre</w> 309591
f ound</w> 309537
é li 309198
ic es</w> 308986
end ed</w> 308585
s ci 307633
S el 307592
jus qu'</w> 307278
billi on</w> 307068
gr ap 306697
El le</w> 306310
Par is</w> 306225
o wn</w> 305976
et ing</w> 305699
ad ministr 305624
je un 305543
se ar 305226
i a</w> 305213
s ts</w> 305191
ann onc 305159
at ten 305006
tech n 304753
in f 304631
D em 304527
n s</w> 304481
F ri 303953
I f</w> 303871
sul t 303294
il es</w> 302777
or t</w> 301891
te l</w> 301678
on ce</w> 301592
an aly 301376
don c</w> 301369
5 , 301327
eu di</w> 300625
i z 300478
b all</w> 300202
poli tique</w> 300075
k o 300033
in c 299958
Pre sident</w> 299621
s w 299601
A u</w> 299437
l or 299340
i - 299336
el e 298890
di manche</w> 298411
c entr 298364
por ts</w> 298216
contin u 298126
inv est 298122
1 8 298110
t ors</w> 298083
met tre</w> 297962
cl ai 297656
mon th</w> 297399
mon ths</w> 297092
e p</w> 296886
acc or 296528
f av 296380
G o 296260
es sion</w> 296089
at ure</w> 295957
emb l 295744
k ill 295597
è ne</w> 295409
k now</w> 295006
ain ed</w> 294707
w ant</w> 294370
qua tre</w> 294143
ur y</w> 294079
oo l</w> 293786
op ér 293612
sem aine</w> 293605
vend redi</w> 293568
te am</w> 293282
w ard</w> 293247
g ame</w> 293218
dev ant</w> 293076
nouv elle</w> 292693
do it</w> 292335
che z</w> 292116
cre di</w> 291887
C ette</w> 291746
j our</w> 291725
proj et</w> 291528
m ed</w> 291505
1 9</w> 291488
pre sident</w> 291146
bo th</w> 291018
di e</w> 290685
F ran 290509
m ag 290132
D e</w> 289844
offici als</w> 289815
ques tion</w> 289804
u p 289763
st ar 289761
milli ards</w> 289591
S un 289497
an other</w> 289232
o m</w> 289165
f ri 288654
n on</w> 288623
ne y</w> 288559
che f</w> 288342
ci r 288256
A m 287912
parti e</w> 287908
cl as 287874
com b 287844
at h</w> 287679
s se</w> 287449
av aient</w> 287384
ét aient</w> 287376
quar ter</w> 287370
s our 286885
S p 286772
d ge</w> 286767
B us 286644
vi ent</w> 286038
D es</w> 286037
2 . 285956
mom ent</w> 285536
re le 285332
pri x</w> 285206
F or</w> 285030
w ar 284923
déclar é</w> 284520
re port</w> 284455
4 , 284355
li fe</w> 284260
p en 283807
dev elop 283673
chil dren</w> 283526
L o 283357
h um 283244
s amedi</w> 282988
v ent</w> 282729
t ak 282579
an y 282547
lo t</w> 282512
pr endre</w> 282490
l anc 282335
M in 282318
S he</w> 282282
res p 282099
f é 281923
ye ar- 281900
b ri 281850
vie w</w> 281652
Ch r 281630
B an 281201
J '</w> 280708
K o 280090
w in 280064
respon s 279898
rec e 279572
l à</w> 279533
g es</w> 279390
ur ity</w> 279264
dé but</w> 279237
l arg 279085
con fir 278876
gr and</w> 278862
s pe 278741
au th 278586
sel f</w> 278566
er t</w> 278470
is h</w> 278287
r an</w> 278132
ation al</w> 278012
s ame</w> 277624
an im 277612
beau coup</w> 277435
c au 277326
P e 277214
comm er 277083
aî n 277033
read y</w> 276439
R ob 276300
end ing</w> 276205
ri er</w> 276117
ob j 276024
trav ail</w> 275840
enf ants</w> 275787
d ays</w> 275688
import ant</w> 275681
com par 275558
call ed</w> 275300
is h 275134
ic k</w> 274819
hi er</w> 274657
h ist 274404
sh ow 274397
f oo 274311
A s</w> 274158
el d</w> 273996
financi al</w> 273938
t ent</w> 273886
pro pos 273715
ou ver 273666
cour t</w> 273472
h ouse</w> 273042
ne ed</w> 272930
Joh n</w> 272902
xi ème</w> 272877
ann oun 272868
b al 272774
T r 272603
bas ed</w> 272565
end s</w> 272475
Sel on</w> 272312
F or 272178
Can ada</w> 272112
tur n</w> 271630
t y 271545
t élé 271494
er ing</w> 271406
situ ation</w> 271261
l ar 271250
h ol 271148
W ash 270909
mar di</w> 270614
th ir 270548
th re 270142
s ing</w> 269894
lun di</w> 269819
to o</w> 269768
mon ey</w> 269579
po se</w> 269480
j eudi</w> 269292
parti cip 269285
L ond 269215
i er</w> 269033
2 4</w> 268928
oc r 268784
ic k 268763
av ing</w> 268533
on d</w> 268247
v eu 268163
ti onal</w> 267844
is c 267757
W or 267440
m as 267008
au l 266966
nation ale</w> 266765
qu er</w> 266741
Ch ar 266707
re li 266582
t able</w> 266382
ent es</w> 266091
1 00</w> 266069
m en</w> 265986
to p</w> 265796
au jourd'</w> 265458
20 10</w> 265245
A P</w> 265116
at s- 265067
R i 265051
su ff 264926
prin cip 264913
Un is</w> 264716
c as</w> 264668
h op 264399
d en</w> 264168
n ight</w> 264100
pu t</w> 264003
tr ouv 263677
fil m</w> 263584
Wash ington</w> 263552
w ays</w> 263390
d eu 263261
h app 263166
F in 262692
or is 262603
mer credi</w> 262602
v u</w> 262477
ic i</w> 262239
ex plo 262225
R é 262176
S ar 262133
ti ce</w> 261909
sai son</w> 261769
st and 261735
r un 261734
R es 261600
Mon tré 261554
hom me</w> 261402
é ch 261392
pl ay</w> 261281
ar ri 261263
ap par 261029
mar ché</w> 260931
is l 260402
fam ily</w> 260377
ats- Unis</w> 260046
de f 260006
b on</w> 259978
h ere</w> 259897
ti er</w> 259804
S y 259173
Rus si 259139
y er</w> 259135
ste m</w> 258992
so ir</w> 258965
ep t</w> 258608
p ho 258530
Tu esday</w> 258226
fi ve</w> 258124
s an 257943
ic al</w> 257856
6 0</w> 257810
sy st 257743
p a 257695
sho w</w> 257495
ill er</w> 257361
bu d 257304
se ason</w> 257001
ci d 256719
le - 256554
u i</w> 256518
I ls</w> 256463
franç ais</w> 256463
le ft</w> 256461
k er</w> 256233
2 2</w> 256038
num ber</w> 255362
spo k 255182
2 1</w> 255123
P er 255104
ter min 254989
clu b</w> 254908
d am 254897
ig n</w> 254886
c ad 254283
Mon day</w> 254214
ten u</w> 254084
Th ur 254040
tou te</w> 254013
to o 253832
inter national</w> 253745
200 6</w> 253695
dem and 253691
c al 253673
P r 253657
il les</w> 253271
W ed 252790
au g 252524
vi er</w> 252376
ais se</w> 252225
se ver 252098
mo y 252046
l et 252018
ré e</w> 251902
ti c</w> 251800
c ase</w> 251673
P h 251565
' ve</w> 251254
v elop 251234
m ak 251206
di re</w> 251088
S en 251049
é ci 251039
Uni vers 251004
li n</w> 250909
Ch ina</w> 250673
Fri day</w> 250570
pour rait</w> 250292
id enti 250137
ô le</w> 249867
em ent 249773
repor ted</w> 249664
1 7 249258
or ig 249213
i o 248841
derni ère</w> 248824
year- old</w> 248808
ec ts</w> 248671
w . 248492
H ar 248381
ser ont</w> 248365
wh e 248312
re f 248186
6 - 248182
ré alis 248143
gro w 248106
s ure</w> 248073
av ons</w> 247987
s day</w> 247903
hab it 247809
exp ected</w> 247577
p é 247562
camp ai 247537
go t</w> 247390
Wed n 247389
li b 246916
w on</w> 246912
t our 246903
ww w. 246736
ri en</w> 246626
sup port</w> 246573
es se</w> 246567
Wedn esday</w> 246309
reu x</w> 246276
Sain t- 246182
app el 246176
jeun es</w> 245970
ti n</w> 245947
Thur sday</w> 245341
Montré al</w> 245053
ke y</w> 244897
ent er</w> 244835
se e 244795
techn olo 243986
emplo y 243620
li k 243229
al - 243181
ti l</w> 242978
av er 242978
n om 242831
S i</w> 242810
b les</w> 242580
ti en</w> 242510
2 - 242441
É t 242439
es ter 242295
fol low 242245
h igh</w> 242242
0 - 241985
Is ra 241983
Dem ocr 241951
no s</w> 241945
comp te</w> 241660
f ig 241558
it er</w> 241551
t a</w> 241414
û t</w> 241370
ab li 241370
con si 241138
ver y 240760
c us 240550
ke ts</w> 240548
cin q</w> 240140
c et</w> 240124
per form 240092
Af gh 239756
L u 239725
el ec 239645
As soci 239243
sh ar 239138
t i</w> 238427
t ly</w> 238255
ass ur 238161
su is</w> 238109
us tr 238080
e ts</w> 238054
co t 237991
ni e</w> 237933
ti ques</w> 237896
3 . 237856
annonc é</w> 237819
qu and</w> 237803
l ég 237733
a h</w> 237572
A v 237565
ir es</w> 237560
ag re 237510
1 - 237487
ai d</w> 237389
mé di 237172
pend ant</w> 237034
spec i 236844
tis h</w> 236731
ab or 236700
as se 236467
3 1</w> 236219
aur ait</w> 236199
19 8 236198
he alth</w> 235951
tri es</w> 235883
1 5 235876
201 2</w> 235829
C oun 235738
St ates</w> 235346
h is 235296
ou gh</w> 235175
y - 235172
b est</w> 235021
ad ded</w> 234869
deu xième</w> 234742
to day</w> 234683
an ies</w> 234306
g lob 234072
for m</w> 233846
minu tes</w> 233832
th ers</w> 233595
g é</w> 233216
én é 233124
es ts</w> 233122
S ec 233062
ce la</w> 232954
ê t</w> 232840
G er 232819
vo y 232624
ini ti 232525
O r 232201
t our</w> 232140
spok es 232093
p ati 231959
ten ir</w> 231668
f onc 231580
w in</w> 231506
en ed</w> 231366
aur a</w> 231357
ex tr 231249
eu se</w> 231215
v al</w> 231184
an tes</w> 231135
' m</w> 231079
Com p 231061
s éri 231052
g ed</w> 230956
r ue</w> 230858
m ai 230702
con tribu 230699
h ic 230535
jam ais</w> 230225
aut om 229577
ati ves</w> 229474
et y</w> 229357
loc al</w> 229283
o - 229154
rap port</w> 229129
con struc 229053
c ause</w> 228918
l ing</w> 228897
c are</w> 228849
Y ou</w> 228619
dé velop 228486
génér al</w> 228483
c ame</w> 228006
2 3</w> 228002
am s</w> 227913
an che</w> 227835
for me</w> 227379
a way</w> 227187
cô té</w> 227156
fe w</w> 227045
p ing</w> 226829
Dav id</w> 226804
pré sid 226717
ay ing</w> 226707
m al</w> 226680
ré pon 226655
diff er 226621
A S 226486
6 , 226432
ar ti 226427
v ue</w> 226402
at or</w> 226400
gr ande</w> 226355
c k</w> 226326
sé cur 226027
produc tion</w> 225972
ar riv 225882
m ight</w> 225782
diff ér 225576
p li 225472
ser ait</w> 225452
0, 000</w> 225369
O u 225239
c at 225133
sp éci 225082
sy n 224943
ne ver</w> 224898
M er 224731
eng ag 224584
r on 224579
S tr 224516
y s</w> 224464
3 - 224349
spec t 224246
vi d 224064
cu st 223819
ati c</w> 223699
lig ne</w> 223601
too k</w> 223567
ti on 223414
h ar 223375
sy stem</w> 223247
f ail 223176
c entre</w> 223050
z ed</w> 222961
A près</w> 222688
vis i 222634
for ce</w> 222608
we ver</w> 222537
G re 222526
abili ty</w> 222249
trav ail 222066
p ast</w> 222062
ri r</w> 221805
M i 221431
mani f 221297
at ely</w> 221221
201 1</w> 221201
is ter</w> 220957
Al l 220754
econom ic</w> 220703
c i</w> 220627
comp anies</w> 220549
en qu 220478
anc er</w> 220458
ex ec 220240
n et 220177
1 4 220086
ch ed</w> 219905
Franç ois</w> 219842
accor ding</w> 219820
c ity</w> 219793
f ur 219785
im m 219610
O c 219530
r un</w> 219429
ré sult 219312
investi g 219289
ear ly</w> 218961
ain ing</w> 218658
in ten 218581
k ers</w> 218548
p ur 218462
rec ord</w> 218452
gh ts</w> 218291
milit ary</w> 218276
de al</w> 218266
as h</w> 217830
dé e</w> 217737
mar s</w> 217577
g n</w> 217302
ven ir</w> 217238
thir d</w> 216886
B C</w> 216796
diff icul 216649
vo te</w> 216637
e ve</w> 216567
D u 216422
oc cas 216404
t ourn 216329
for ces</w> 216252
with out</w> 216118
tur es</w> 215914
5 00</w> 215900
P au 215646
la w 215591
l ater</w> 215545
f f</w> 215491
b an</w> 215370
hal f</w> 215348
ag ue</w> 215303
cr ise</w> 215221
e ach</w> 214814
o de</w> 214810
g ue</w> 214799
ta x 214579
enn es</w> 214454
le ast</w> 214345
dev rait</w> 214344
der al</w> 214193
in ation</w> 214171
sor ti 213924
M a 213704
m on</w> 213586
re ally</w> 213541
H ouse</w> 213472
tou tes</w> 213331
re présent 213242
ro ss</w> 213176
re ste</w> 213111
o l</w> 213082
r ais 212843
indi qué</w> 212813
de b 212789
sc ri 212739
fin al</w> 212675
bo dy</w> 212589
m u 212584
au v 212378
lead er</w> 212308
pro g 212260
u tive</w> 212220
oc cu 212113
end ant</w> 212071
it es</w> 211650
Ne w 211564
cour se</w> 211272
i de</w> 211080
po st 211045
whe ther</w> 210988
ac cu 210843
ni ve 210843
is tes</w> 210807
i or</w> 210711
all er</w> 210682
pou voir</w> 210620
tot al</w> 210423
ten ant</w> 210294
mon di 210264
2 7</w> 209922
ju in</w> 209768
N ic 209358
su s</w> 209314
por te</w> 209238
b es 209115
p éri 209080
Sun day</w> 209008
g en 208682
ac ks</w> 208647
pl y</w> 208499
fi ed</w> 208418
j eu</w> 208132
tr uc 208128
acc us 208100
m ise</w> 208098
par ents</w> 208072
ci al</w> 208009
heur es</w> 207991
s ales</w> 207979
a el</w> 207887
administr ation</w> 207855
d ri 207774
lik ely</w> 207638
2 8</w> 207607
O N 207585
ill et</w> 207553
lit tle</w> 207336
M al 207257
re et</w> 207154
di ri 207122
r ic 207104
V i 207090
con tro 207088
p tion</w> 206992
j an 206886
issu e</w> 206860
P ri 206853
t ête</w> 206743
bet ter</w> 206654
poli ci 206492
comm is 206439
b éné 206316
pr ise</w> 206296
sh e 206197
loo king</w> 206176
c y</w> 206166
al ready</w> 206130
n ess</w> 205801
comm uni 205750
Sou th</w> 205561
re gi 205479
Americ a</w> 205439
J ap 205438
he im</w> 205396
st oc 205226
sec urity</w> 205163
s ac 205028
loo k</w> 204965
entr aîn 204709
ci dent</w> 204701
e very</w> 204407
m it 204352
Wh en</w> 204319
A t</w> 204212
re qu 203934
ous ly</w> 203762
in s 203667
I N 203598
ten ti 203579
cap ital</w> 203560
f ran 203522
be h 203451
poli tical</w> 203414
z y</w> 203276
u el</w> 203255
d ers</w> 203235
dis cus 203198
L ou 203184
sch ool</w> 203085
po wer</w> 202897
y oun 202891
m ain</w> 202873
s co 202753
wom en</w> 202658
y n 202562
re co 202388
uti lis 202348
ac tions</w> 202329
maj or 202302
un til</w> 202266
di tion</w> 202221
b on 201884
us es</w> 201875
Mc C 201802
indus tri 201657
campai gn</w> 201643
2 6</w> 201573
s ing 201562
at ors</w> 201410
e very 201388
so i 201388
direc teur</w> 201375
---- ---- 201356
sh are</w> 201306
O ff 201261
fu ture</w> 201226
str u 201201
he ad 201157
je une</w> 201151
nomb re</w> 201043
N ational</w> 201028
o ire</w> 200976
so li 200908
acc ep 200839
w at 200828
ti f</w> 200768
w rit 200747
inv ol 200689
Bus h</w> 200679
am ong</w> 200623
anci en</w> 200450
an a</w> 200402
e as 200400
im pro 200244
h y 200116
P u 199808
4 5</w> 199795
publi que</w> 199710
t ée</w> 199537
in e 199193
econom y</w> 199103
re sear 199051
bi g</w> 199001
g ens</w> 198946
an ni 198768
qu ant</w> 198754
reg ul 198701
de li 198528
mo d 198457
C ali 198381
f ar</w> 198176
m '</w> 198097
rai son</w> 198077
B i 197902
Et at</w> 197844
af in</w> 197608
iss ance</w> 197561
An g 197451
e ds</w> 197290
Bri tish</w> 197265
D o 197244
ri ère</w> 197077
contin ue</w> 197028
é tr 196930
s si 196888
c ep 196841
sig ni 196496
e aux</w> 196435
tro p</w> 196414
l and 196374
è rement</w> 196368
g é 196292
form ation</w> 196119
fer ence</w> 195962
prof essi 195911
m aire</w> 195746
tr on 195726
sécur ité</w> 195716
ss ement</w> 195614
b at 195573
do cu 195438
B rit 195397
Ge or 195369
T e 195286
f our 195284
pl ans</w> 195217
part ment</w> 194967
wom an</w> 194532
h and 194260
mo bi 194172
op s</w> 194162
ne ws</w> 194074
rec ent</w> 193996
sever al</w> 193978
n i</w> 193778
dic al</w> 193553
chi ef</w> 193524
h ô 193517
ven tion</w> 193486
S atur 193447
tic s</w> 193441
mi d 193357
su gg 193326
éri eur</w> 193250
le ad</w> 192956
ci vi 192767
ol s</w> 192708
ali tés</w> 192702
ali ste</w> 192684
p ap 192466
at te 192334
b onne</w> 192199
on y</w> 192195
m aking</w> 192126
7 0</w> 192124
par ty</w> 192028
Ira q</w> 191840
u ary</w> 191835
memb ers</w> 191643
préc is 191642
v é 191491
D '</w> 191341
en ing</w> 191320
t embre</w> 191213
U S 191026
condi tions</w> 190989
pres sion</w> 190759
chi ff 190660
off ice</w> 190623
t ali 190570
eff et</w> 190468
int on</w> 190465
O ne</w> 190338
hau sse</w> 190197
h it</w> 190139
maj or</w> 189905
an g</w> 189834
g s</w> 189748
n er 189710
res t</w> 189649
indus try</w> 189597
ma i</w> 189590
P al 189526
wee k 189435
la w</w> 189383
es ses</w> 189209
lo i</w> 189192
program me</w> 189043
ac qu 189021
op position</w> 189006
wor king</w> 188979
8 0</w> 188951
ri l</w> 188846
b el 188821
for c 188818
z one</w> 188763
bl ess 188676
cel ui</w> 188592
P a 188550
No v 188238
comm it 188116
er i 187990
Nor th</w> 187967
et ting</w> 187937
w ent</w> 187900
et er</w> 187803
h er 187609
boo k</w> 187442
s af 187229
b ed</w> 187223
z - 187018
at a</w> 186908
cap it 186843
glob al</w> 186830
tr ad 186749
parti cu 186646
veu t</w> 186641
cert ains</w> 186538
sep tembre</w> 186513
c le</w> 186440
Satur day</w> 186400
ç on</w> 186341
mul ti 186286
2 9</w> 186184
m i</w> 186105
parti r</w> 186075
al low 185995
li gn 185990
nive au</w> 185848
fam ili 185824
a c</w> 185713
cust om 185696
ici le</w> 185460
Cl inton</w> 185242
H u 185222
F o 185116
d ru 184912
D é 184899
li ght</w> 184870
stat ement</w> 184778
w ar</w> 184519
memb res</w> 184467
jan vier</w> 184297
in de 184181
ici p 184102
quo i</w> 184002
kill ed</w> 183882
enn ent</w> 183848
x - 183830
direc tion</w> 183809
do es</w> 183725
pu is 183719
lar ge</w> 183606
ho sp 183444
ré un 183355
min ist 183272
kno wn</w> 183248
Lond on</w> 183248
i ti 183076
sai re</w> 182970
ne w 182900
int é 182893
T w 182814
A F 182795
n ers</w> 182664
A ss 182663
aut or 182634
al li 182539
pass é</w> 182522
u al</w> 182514
ab ly</w> 182508
pr ices</w> 182135
7 , 182109
a w</w> 182015
s ouv 181971
m ess 181767
P ak 181652
J an 181615
b att 181522
d en 181521
A N 181373
p ay</w> 181289
mati n</w> 181233
cham pi 181121
aug ment 181067
his toire</w> 181049
ai de</w> 180906
announ ced</w> 180745
J une</w> 180619
li ce</w> 180554
ens emble</w> 180517
sh ed</w> 180429
p ol 180392
ant age</w> 180233
o bli 180220
o p</w> 180140
jou eurs</w> 180086
a des</w> 179986
enti al</w> 179939
gi ve</w> 179938
ri e</w> 179891
d ate</w> 179653
p ement</w> 179461
st art</w> 179423
il o 179353
po tenti 179222
3 5</w> 179148
ven u</w> 179077
s ent</w> 178941
mo ve</w> 178745
li v 178400
dem ande</w> 178201
c eux</w> 178185
resul ts</w> 178119
C ity</w> 178052
some thing</w> 177947
re conn 177846
gr é</w> 177763
in j 177707
s ex 177558
Pau l</w> 177557
p u</w> 177497
por té</w> 177460
did n</w> 177444
h ai 177441
ch aque</w> 177427
ati que</w> 177396
curr ent</w> 177338
mun icip 177224
are a</w> 177194
av ril</w> 177181
e an</w> 177077
bec ome</w> 177063
manif est 176974
ag ain</w> 176857
Mich ael</w> 176676
Uni on</w> 176674
E d 176611
Comp any</w> 176476
ur i 176447
fo re 176425
ecti f</w> 176401
1 6 176169
ex t 176119
D ec 176104
entrepr ise</w> 176096
A p 175988
ar ing</w> 175793
for t</w> 175750
aff aires</w> 175668
char ge</w> 175633
O l 175599
hel d</w> 175561
fr on 175556
p an 175463
Afgh an 175400
fam ille</w> 175288
et tes</w> 175263
I ran</w> 175260
tr adi 175176
is me</w> 175154
in sur 175138
fi eld</w> 174921
am ed</w> 174812
ac ross</w> 174791
régi on</w> 174763
ju illet</w> 174621
ti tre</w> 174531
W ith</w> 174302
cu t</w> 174275
con serv 174182
aul t</w> 174064
x im 174055
se en</w> 174028
e il</w> 173990
tak en</w> 173969
s tri 173924
Afghan istan</w> 173891
as su 173849
st or 173842
is ts</w> 173642
av ail 173642
tri ce</w> 173523
a p</w> 173500
f on 173378
re cher 173298
è ve</w> 173238
e qu 173208
su per 173207
off ic 173176
b lo 173165
R ich 173087
pres se</w> 173075
expli que</w> 173001
Wor ld</w> 172986
m ust</w> 172970
r é</w> 172849
r aient</w> 172817
er y</w> 172813
Univers ity</w> 172747
è te</w> 172734
c op 172570
ag er</w> 172458
soci été</w> 172434
étr ang 172390
perform ance</w> 172313
re ti 172121
entrepr ises</w> 172088
s aying</w> 172029
por ter</w> 171812
M or 171745
f as 171630
gre at</w> 171588
bour g</w> 171519
pho to 171505
pl an 171433
fin d</w> 171206
qu ement</w> 171143
con stitu 171065
D is 170953
in stitu 170823
h or 170621
pro v 170567
gi que</w> 170546
d re</w> 170447
at u 170368
T im 170257
r ont</w> 170255
ta x</w> 170247
dro it</w> 170219
journ ée</w> 170193
8 , 169912
déc ision</w> 169812
n ation</w> 169745
Pi erre</w> 169718
qu el</w> 169587
w al 169568
Mar ch</w> 169533
par ole</w> 169530
c all</w> 169467
C ap 169463
d ue</w> 169366
tur ned</w> 169359
es tre</w> 169208
b ig 169115
eff ec 169064
H am 168857
g es 168846
o il</w> 168652
au di 168613
f all 168569
s av 168547
de ath</w> 168484
ret our</w> 168412
exper i 168362
or ts</w> 168310
trou ver</w> 168136
ch és</w> 168106
te e</w> 168094
év rier</w> 167884
p ens 167872
di es</w> 167828
ol as</w> 167811
in come</w> 167647
B y</w> 167617
améric ain</w> 167518
E m 167515
B en 167348
d ang 167334
te fois</w> 167268
direc tor</w> 167213
e ver</w> 167151
McC ain</w> 167099
d ès</w> 167095
d el 166950
B el 166931
T V</w> 166870
us ing</w> 166538
f évrier</w> 166463
ail s</w> 166423
G rou 166348
th ings</w> 166334
c it 166333
M ad 166320
4 . 166292
per io 166170
S ep 166126
sy m 165957
M us 165806
su sp 165753
20 0</w> 165631
m ate</w> 165612
r ent</w> 165556
spokes man</w> 165555
clo se</w> 165471
fr ic 165469
V o 165460
w ater</w> 165405
li p 165377
ther n</w> 165158
par ce</w> 165109
acc ord</w> 165087
oun t</w> 165079
Sar ko 165074
me di 164997
progr am</w> 164974
sec teur</w> 164970
R en 164856
4 - 164845
V er 164824
inter est</w> 164718
ér ence</w> 164608
T ur 164571
oc to 164549
t aux</w> 164548
rece iv 164442
l aiss 164403
jo b</w> 164331
pris on</w> 164131
S cot 163954
200 5</w> 163851
ban k</w> 163755
A t 163550
né c 163525
conse il</w> 163512
en ough</w> 163466
ar ed</w> 163371
eur o</w> 163371
ph one</w> 163348
Sarko zy</w> 163239
O n 163224
b ase</w> 163126
ques tions</w> 163036
économ ique</w> 162950
sou hai 162757
l at 162642
isi ème</w> 162631
h é 162612
v oul 162546
b éco 162457
k a</w> 162456
dé pu 162294
popul ation</w> 162290
st er</w> 162056
seu lement</w> 162056
lo st</w> 161905
incre ase</w> 161784
ch ance</w> 161578
ajou té</w> 161577
ré us 161571
C our 161570
b ene 161536
En gl 161483
co st</w> 161415
a o 161367
f re 161259
n eu 161257
F er 161252
dé t 161181
v ill 161118
tr im 161105
b s</w> 160770
A fric 160699
sm all</w> 160641
b aisse</w> 160609
ad op 160490
C es</w> 160385
ad ver 160378
c elle</w> 160357
beli eve</w> 160293
cert ain</w> 160277
v ari 160239
c y 160184
th é 160136
w an 160117
Ch am 160099
foo t 159969
d ra 159964
coun tries</w> 159941
occas ion</w> 159934
v ely</w> 159903
t aking</w> 159864
bud get</w> 159775
ke ep</w> 159741
s l 159729
t- elle</w> 159703
i de 159656
olo g 159604
part i</w> 159581
com ment</w> 159498
wee ks</w> 159497
Engl and</w> 159463
A g 159461
f ree</w> 159452
je ts</w> 159396
r ate</w> 159363
fi c</w> 159359
dis tribu 159337
H oll 159099
C am 158895
ad v 158815
mi eux</w> 158807
signi fic 158633
as ked</w> 158570
ter m</w> 158564
port ers</w> 158517
Pre mi 158474
tro isième</w> 158424
di ed</w> 158359
lo g 158327
octo bre</w> 158250
ell ing</w> 158238
ord in 158209
c al</w> 158171
sur ve 158106
se ign 157896
de - 157863
a ï 157861
è le</w> 157612
h on 157495
offici al</w> 157420
F l 157391
am ent</w> 157313
en sive</w> 157271
construc tion</w> 157271
cle ar</w> 157188
W illi 157061
lead ing</w> 156723
sur tout</w> 156690
lor s 156581
M ay</w> 156548
cri min 156530
cho se</w> 156484
gi ven</w> 156467
tr an 156189
S o</w> 156180
el ection</w> 156179
af f</w> 156038
dé b 155908
wi de</w> 155888
ed ed</w> 155875
ori ties</w> 155865
sour ce</w> 155815
dec ision</w> 155801
nov embre</w> 155760
do w 155747
P or 155657
co ver 155432
f oc 155428
Mar i 155392
spect ac 155385
in dic 155304
Af ter</w> 155234
d ents</w> 155228
pres ent 155005
enqu ête</w> 154866
5 . 154825
soci al</w> 154633
aut ant</w> 154580
j et</w> 154378
avail able</w> 154346
Nic olas</w> 154255
H is</w> 154125
re al</w> 154079
se urs</w> 154003
str ong</w> 153966
ch all 153951
f el 153870
ec h</w> 153774
Chr ist 153705
ac comp 153698
l ate</w> 153682
Wh at</w> 153525
é p 153427
h un 153355
s ent 153347
Au g 153342
O N</w> 153240
com ing</w> 153205
ab o 153138
h am</w> 153105
T i 153104
f isc 153047
o eu 152966
me eting</w> 152873
cro issance</w> 152866
C ong 152776
5 - 152679
di en</w> 152655
cad re</w> 152629
W est</w> 152625
bes o 152594
tr ac 152575
t é 152551
es ted</w> 152523
al ways</w> 152466
jus tice</w> 152395
9 , 152132
uni vers 152122
d a</w> 152006
lead ers</w> 151953
europé enne</w> 151742
ir s</w> 151663
ra di 151558
Europ ean</w> 151459
onn ement</w> 151301
Al l</w> 151167
re b 151129
se in</w> 151104
ex em 150814
19 7 150804
s er</w> 150802
A ustr 150730
St reet</w> 150711
Ban k</w> 150711
fur ther</w> 150646
tri b 150607
st on</w> 150603
op port 150574
youn g</w> 150538
t ory</w> 150498
sal le</w> 150366
tr u 150317
dis t 150274
T o</w> 150252
pri ce</w> 150176
me as 150106
Inter national</w> 150094
Cali for 150006
car e 149963
ro w</w> 149863
ét abli 149764
bene f 149729
Inter net</w> 149605
AF P</w> 149512
H er 149421
J ac 149336
Austr ali 149323
t ent 149300
n es</w> 149239
tr ying</w> 149227
quel que</w> 149122
associ ation</w> 149056
ven ue</w> 149000
A R 148897
qu it 148880
h aving</w> 148846
y si 148821
eff orts</w> 148794
san té</w> 148716
w ing</w> 148660
t ation</w> 148579
em er 148522
es ter</w> 148471
f ais 148315
i ds</w> 148307
an des</w> 148251
op pos 148211
oun ds</w> 148195
cr is 148143
h ard</w> 148077
ré s</w> 148031
lo ss</w> 147998
fin anc 147966
Av ec</w> 147863
fe deral</w> 147825
hom mes</w> 147809
g au 147738
péri ode</w> 147726
us h 147693
dé mo 147674
Sep t 147613
St ate</w> 147330
arr ê 147244
mor t</w> 147130
V al 147051
differ ent</w> 147019
Com mission</w> 146918
do ssi 146891
Sept ember</w> 146869
A pr 146827
au gh 146827
m .</w> 146810
vic toire</w> 146799
sem aines</w> 146793
y le</w> 146738
inclu de</w> 146732
J us 146699
por te- 146625
Su r</w> 146392
ris k</w> 146376
ch ing</w> 146275
bu l 146228
eur e</w> 146081
é cri 146055
per met 146032
il le 145935
proch ain</w> 145789
cou ple</w> 145778
su it</w> 145681
è mes</w> 145657
ali stes</w> 145651
ear lier</w> 145624
fic ation</w> 145546
v rai 145545
pré par 145427
li e</w> 145390
rest aur 145221
g as</w> 145157
M me</w> 145118
â ce</w> 145103
201 3</w> 145096
n ings</w> 145038
grow th</w> 144926
ind re</w> 144895
som mes</w> 144862
nouv elles</w> 144787
go ci 144727
re ç 144675
Th om 144669
ex er 144667
ch em 144589
par l 144549
ne arly</w> 144507
Et ats-Unis</w> 144412
ur g 144387
B our 144384
Fran c 144329
ne ar</w> 144289
é ti 144278
seu l</w> 144264
A T 144164
indi vi 144141
pre vi 144088
fin ale</w> 144083
exec utive</w> 144051
I tali 144014
Rob ert</w> 143922
cre dit</w> 143909
chang es</w> 143802
la un 143720
Bar ack</w> 143717
déc embre</w> 143687
t ain</w> 143561
comm and 143524
e la</w> 143425
g ames</w> 143408
leg al</w> 143403
g ri 143393
ar ch 143362
ex - 143315
jo int</w> 143287
0 3</w> 143241
ful ly</w> 143196
abili té</w> 143050
su spec 143039
lib ér 142982
o thers</w> 142877
imp act</w> 142846
ti ers</w> 142814
with in</w> 142810
av i 142806
Apr il</w> 142732
orig in 142663
9 0</w> 142597
mai son</w> 142593
beli ev 142482
gi es</w> 142443
d it 142429
to wn</w> 142389
1 3 142360
envir on</w> 142315
ener gy</w> 142291
fem me</w> 142282
pre sid 142270
perio d</w> 142218
di pl 142198
Ju ly</w> 142129
Can adi 141983
è ge</w> 141875
produc ts</w> 141809
0 s</w> 141772
co sts</w> 141708
charg es</w> 141647
sou lign 141566
mi di</w> 141499
mar kets</w> 141443
op en</w> 141231
Ber n 141211
fi er</w> 141189
vis it 141119
er ie</w> 141068
' ll</w> 141048
Associ ation</w> 141026
ci l</w> 141024
cr u 140926
B ou 140884
ren contre</w> 140880
s au 140859
pl ut 140832
k y</w> 140758
T ro 140695
ri c</w> 140693
i ques</w> 140664
der ed</w> 140650
con som 140558
Ch ris 140523
f ood</w> 140410
m ation</w> 140404
she im</w> 140393
re as 140387
beg an</w> 140377
ad d 140355
fem mes</w> 140281
C ou 140260
st ed</w> 140182
De partment</w> 140141
Wh ite</w> 140003
ser ies</w> 139965
syn dic 139911
wh ose</w> 139886
re turn</w> 139864
G i 139703
comm enc 139633
n on- 139601
is tr 139552
ré c 139527
pass er</w> 139453
7 - 139386
b and</w> 139313
le m</w> 139075
ex am 139060
200 4</w> 139033
p al 139010
es - 138966
él è 138957
cas h</w> 138882
ac y</w> 138666
F i 138626
communi qué</w> 138566
in ed</w> 138541
fa çon</w> 138518
ati s 138401
P hi 138398
beh ind</w> 138369
P R 138346
p ouv 138336
A si 138309
Bro wn</w> 138299
li ve</w> 138258
g le</w> 138184
y ers</w> 138168
O R 138133
h ours</w> 138092
ail le</w> 138025
me dia</w> 137999
ser i 137955
fi re</w> 137923
né goci 137847
tou tefois</w> 137819
provi de</w> 137814
app lic 137791
souv ent</w> 137774
résult ats</w> 137770
z- vous</w> 137746
pers on 137576
syst ème</w> 137534
m us 137530
C E</w> 137464
thou ght</w> 137451
ph ysi 137440
of ten</w> 137426
inst all 137426
ex pl 137386
U K</w> 137335
no m</w> 137270
cou ver 137269
can adi 137191
ao ût</w> 137087
t in 137036
viol ence</w> 137004
C er 137001
y et</w> 136961
donn é</w> 136945
plut ôt</w> 136589
f ont</w> 136530
R om 136505
d one</w> 136491
r om 136467
vis it</w> 136389
ex te</w> 136307
er - 136272
ge ther</w> 136178
u t</w> 136120
fr ont</w> 136090
ym pi 136012
0 0 136004
r è 135846
w r 135813
vo it</w> 135794
pers onne</w> 135773
w ards</w> 135761
peti t</w> 135757
obli g 135726
al ong</w> 135627
pati ents</w> 135564
qu elle</w> 135518
C N 135495
au d</w> 135397
Mar tin</w> 135322
ag it</w> 135223
S ome</w> 135157
commun ic 135034
Pak istan</w> 135019
ay ant</w> 134986
b as</w> 134960
S al 134938
ni a</w> 134888
étu di 134859
sim il 134857
des cri 134838
reli gi 134835
t ab 134818
au de</w> 134803
Ch in 134771
g ir 134767
contro l</w> 134734
u le</w> 134670
stu dy</w> 134663
sor mais</w> 134662
ri ed</w> 134638
De puis</w> 134610
al most</w> 134534
onn é</w> 134424
ë l</w> 134299
p ped</w> 134249
co - 134249
sho t</w> 134184
ter me</w> 134132
con st 133999
ét aire</w> 133920
Po lice</w> 133885
M ex 133846
All em 133823
s ses</w> 133708
lev el</w> 133427
ap e</w> 133396
ber g</w> 133361
dévelop pement</w> 133324
éco le</w> 133199
con duc 133176
do ing</w> 133172
ét at</w> 133044
att ack</w> 132992
do c 132980
derni ers</w> 132980
lin es</w> 132970
tech ni 132942
att a 132893
st and</w> 132881
donn er</w> 132857
ful l</w> 132855
porte- parole</w> 132721
è tres</w> 132679
cris is</w> 132607
t g 132521
R eu 132485
play ers</w> 132358
trou ve</w> 132356
im pos 132322
6 . 132253
o t</w> 132247
or der</w> 132184
att end 132153
ro om</w> 132129
fé dér 132060
T or 132017
fav or 132011
ti ent</w> 132004
res se</w> 131978
follow ing</w> 131913
s avoir</w> 131812
Brit ain</w> 131780
al leg 131747
parti cul 131659
bo ard</w> 131605
vid ence</w> 131590
t al</w> 131576
prom o 131504
camp agne</w> 131467
Tim es</w> 131438
P ar</w> 131428
ac e 131368
pre u 131354
t te</w> 131288
affir mé</w> 131212
re trai 131181
g etting</w> 131163
t est</w> 131059
str ate 130973
Ko re 130945
pro per 130931
r end 130923
com es</w> 130889
tr ain</w> 130885
c k 130878
vo it 130848
ter rit 130839
ê tes</w> 130838
cert ain 130779
wh y</w> 130663
D en 130623
int ér 130607
Ro y 130578
manag ement</w> 130504
heur e</w> 130475
bili té</w> 130433
K ar 130389
ser ve</w> 130389
produ its</w> 130355
m and 130341
d ata</w> 130331
. m.</w> 130239
develop ment</w> 130230
technolo gy</w> 130189
poli cy</w> 130175
t aire</w> 130166
ic s</w> 130164
appe l</w> 130064
av en 130053
nomb reux</w> 130038
ré se 130026
peu vent</w> 130005
ran ge</w> 129958
pl ann 129943
y p 129925
démo cr 129912
Ang el 129892
main tenant</w> 129832
pour suiv 129826
pr end</w> 129823
rou te</w> 129820
dé part</w> 129718
G oo 129693
buil ding</w> 129682
P I</w> 129616
sol ution</w> 129563
t arg 129548
ag ed</w> 129445
mo i</w> 129433
économ ie</w> 129364
am bi 129356
m age</w> 129302
occu p 129284
an i</w> 129268
h tt 129165
sol u 129152
franç aise</w> 129152
d riv 129089
sc ène</w> 128975
C as 128908
al th 128901
C ro 128899
ic ro 128890
ban ks</w> 128869
vi de 128867
re v 128810
ob s</w> 128765
re au</w> 128760
to gether</w> 128757
mo der 128705
off er</w> 128593
indivi du 128587
aff aire</w> 128580
gener al</w> 128562
li se</w> 128526
derni ères</w> 128521
ent u 128479
pl u 128452
séri e</w> 128439
a pr 128372
ber t</w> 128365
7 5</w> 128292
R u 128248
priv ate</w> 128231
organ iz 128216
htt p</w> 128162
I I</w> 128135
aî t</w> 128087
fi x 128040
respons able</w> 127935
bili ty</w> 127857
ris que</w> 127814
gr ound</w> 127798
v ont</w> 127783
pro pri 127781
b us</w> 127756
er ont</w> 127745
enc our 127640
è s- 127638
l ang 127630
nouv eaux</w> 127615
Reu ters</w> 127555
iv ent</w> 127542
al u 127533
é cr 127515
resear ch</w> 127409
in qui 127387
prof it</w> 127353
ac i 127331
st re 127223
sci enti 127214
st - 127209
terr ain</w> 127170
ré du 127148
ver sion</w> 127139
én er 127134
esti val</w> 127128
Je an</w> 127111
d est 127058
In c</w> 127027
larg est</w> 126984
ill s</w> 126947
M at 126935
t ari 126925
l et</w> 126919
mar i 126829
sp ir 126815
gu es</w> 126681
diri ge 126677
probl ems</w> 126627
n ame</w> 126573
compar ed</w> 126530
cli ents</w> 126419
C A 126394
am b 126389
com peti 126280
s û 126251
t u</w> 126143
améric aine</w> 126116
incre as 125980
N o</w> 125946
ti v 125943
gau che</w> 125930
gr ands</w> 125812
O p 125809
succ ès</w> 125765
con clu 125712
E R 125690
mar k 125598
s .</w> 125594
t ard</w> 125581
or ity</w> 125576
m ar</w> 125487
out side</w> 125456
w as 125401
as s</w> 125378
sit es</w> 125368
W il 125327
S an</w> 125313
ret ary</w> 125304
li ber 125243
ac ked</w> 125225
po w 125167
gr âce</w> 125129
en ci 125123
Con se 125123
is se</w> 125113
f all</w> 125075
our ces</w> 125050
st aff</w> 124983
dé sormais</w> 124966
le ar 124957
doll ar</w> 124956
play ed</w> 124952
G ener 124917
r ace</w> 124825
expli qué</w> 124778
aî tre</w> 124712
m y 124663
b ack 124648
Mich el</w> 124617
M u 124514
Premi er</w> 124362
v ain 124341
aver age</w> 124320
activ ité</w> 124108
th em 123953
b ir 123936
minist ère</w> 123913
L ab 123849
re t</w> 123837
rele ase</w> 123814
rele ased</w> 123810
fac ili 123793
P ress</w> 123780
comp ag 123771
opér ation</w> 123717
proc ess</w> 123705
lo in</w> 123678
se ven</w> 123556
exp éri 123546
f ell</w> 123397
Califor nia</w> 123373
aut our</w> 123316
Ne ws</w> 123157
posi tions</w> 123090
est ini 122935
ar rest 122933
Grou p</w> 122761
air man</w> 122677
exem ple</w> 122636
grap hi 122495
duc tion</w> 122460
In di 122421
per son</w> 122310
prés ente</w> 122294
ag no 122253
commis sion</w> 122195
commun ity</w> 122188
G ar 122158
P S</w> 122049
p at 121951
star ted</w> 121943
prob lem</w> 121926
emplo i</w> 121920
oper ations</w> 121765
mes ure</w> 121713
C u 121709
S on</w> 121700
B ur 121674
D ur 121646
Ho wever</w> 121610
wor kers</w> 121459
high er</w> 121458
esti m 121439
cap ac 121425
év ol 121422
m ouv 121407
ri ghts</w> 121352
t om 121307
hi le</w> 121270
B as 121259
t el 121217
an o</w> 121140
M P</w> 121137
p ère</w> 121102
J ames</w> 121067
ent re 121062
f ond 121023
l é 121022
d n</w> 120933
ann once</w> 120822
pas se</w> 120805
Pl us</w> 120702
T ou 120569
f ici 120414
o y 120402
i ther</w> 120323
con ference</w> 120278
custom ers</w> 120278
ch amp 120195
ed uc 120189
L os</w> 120177
I m 120115
fe el</w> 120082
uc le 120057
dow n 119980
F ir 119974
7 . 119883
af t</w> 119836
ou ght</w> 119767
mon t 119707
t on 119636
mo ther</w> 119609
sal ari 119607
è ce</w> 119582
all em 119445
s et 119433
N i 119403
g est</w> 119340
par ts</w> 119340
mess age</w> 119229
am i</w> 119217
e li 119211
19 6 119185
hist ory</w> 119183
apr ès- 119147
no te</w> 119099
ali ty</w> 119078
ap s</w> 119068
wan ted</w> 119018
auc un</w> 119003
y e</w> 118991
h ou 118972
st ation</w> 118952
st age</w> 118926
fore ign</w> 118908
cho ix</w> 118869
au près</w> 118865
issu es</w> 118834
es n</w> 118771
dé p 118766
ell s</w> 118708
esti me</w> 118707
av antage</w> 118613
c ancer</w> 118606
invest ment</w> 118573
Dec ember</w> 118555
f lo 118427
Geor ge</w> 118398
oul dn</w> 118354
ter ed</w> 118203
ro le</w> 118126
cl ass 118099
c o</w> 118007
envir on 117939
W al 117923
thou s 117867
parti es</w> 117862
t s 117767
g agn 117761
si ble</w> 117739
sen ior</w> 117638
Is l 117609
Conse il</w> 117587
compl e 117574
stat ements</w> 117535
dis pu 117485
ec i 117479
S m 117457
is m</w> 117379
mes ures</w> 117327
dom in 117238
res sion</w> 117186
en suite</w> 117181
do esn</w> 117168
resul t</w> 117145
pri me</w> 117141
reu r</w> 117123
t un 117072
oun ded</w> 117069
mon tr 117068
h old</w> 117025
wor ks</w> 116999
organis ation</w> 116927
particu li 116924
E sp 116878
tre at 116878
ru p 116876
n é</w> 116852
3 00</w> 116847
receiv ed</w> 116838
dé cid 116630
B ru 116608
L aur 116553
stand ing</w> 116530
ati f</w> 116484
We b</w> 116482
ap er</w> 116478
b il 116447
M ul 116364
f er</w> 116362
In v 116359
wi fe</w> 116351
m ou 116309
pres s</w> 116298
jou er</w> 116271
per mis</w> 116233
con du 116214
Franç ais</w> 116202
co û 116198
béco is</w> 116192
cho is 116154
b it</w> 116150
d ar 116148
im ag 115983
autor ités</w> 115980
rec ently</w> 115918
g ave</w> 115913
al o 115896
ing ly</w> 115889
stu dents</w> 115845
l ent</w> 115820
repor ts</w> 115795
embl ée</w> 115648
for d</w> 115634
qu ent</w> 115571
stoc k</w> 115559
w ood</w> 115548
man u 115547
Ét ats-Unis</w> 115505
A ir 115487
inf lu 115457
pré f 115452
Ab out</w> 115448
F lor 115441
pre par 115420
peti te</w> 115397
J er 115390
qu é 115335
a head</w> 115328
it ation</w> 115323
gr ad 115292
Joh n 115197
L ast</w> 115055
st ar</w> 114997
gr and 114928
h im 114855
200 3</w> 114834
e ight</w> 114761
n ec 114658
low er</w> 114575
li t</w> 114574
m it</w> 114526
s qu 114513
tr a</w> 114370
succ ess 114256
un d</w> 114244
Angel es</w> 114216
tro ops</w> 114213
Min ister</w> 114175
f y</w> 114152
alis ation</w> 114075
i an</w> 113984
sh or 113965
tri al</w> 113912
recher che</w> 113904
diff icile</w> 113863
i dée</w> 113819
Chris ti 113682
vo c 113673
s cr 113651
o li 113598
W hile</w> 113534
arg ent</w> 113527
vrai ment</w> 113504
f - 113411
ach ed</w> 113380
on ed</w> 113328
in er</w> 113283
f igh 113270
Re publi 113253
dro its</w> 113228
end ra</w> 113164
p aid</w> 113131
beso in</w> 113125
grou ps</w> 113065
et ed</w> 113050
dipl om 113046
shar es</w> 113041
s emble</w> 113000
D el 112973
T ri 112880
on line</w> 112813
ag u 112767
ucle ar</w> 112754
t ele 112707
c é 112677
k ind</w> 112666
aut eur</w> 112595
r i</w> 112585
s ement</w> 112571
di x</w> 112554
l es 112531
val ue</w> 112511
Rich ard</w> 112509
dossi er</w> 112509
auth orities</w> 112421
3 2</w> 112420
con sé 112316
att emp 112121
do ivent</w> 112063
lanc é</w> 111974
for ward</w> 111964
C enter</w> 111903
im age</w> 111886
con s 111883
ti ci 111861
ex clu 111859
précis é</w> 111797
premi ers</w> 111739
anti - 111727
musi que</w> 111722
s é</w> 111712
T out</w> 111652
ter n 111630
h am 111593
experi ence</w> 111550
D om 111543
b omb 111539
Americ ans</w> 111528
él ection</w> 111510
fon ds</w> 111472
off re</w> 111368
Phi lip 111367
accu e 111288
l é</w> 111213
Democr atic</w> 111201
r ôle</w> 111190
3 3</w> 111173
am en 111083
C E 111008
g ing</w> 110998
étu de</w> 110920
ab lement</w> 110882
tric t</w> 110878
lis h</w> 110870
Com me</w> 110868
li st</w> 110770
fac t</w> 110756
quo ti 110696
dou ble</w> 110647
eff ort</w> 110646
com pos 110630
S im 110614
ré v 110606
décid é</w> 110599
s ens</w> 110591
Republi can</w> 110589
rec or 110493
er ait</w> 110485
fa ther</w> 110430
un g</w> 110366
es ting</w> 110360
b loc 110349
D ani 110348
st ates</w> 110339
é lev 110300
J ack 110271
manag er</w> 110232
foot ball</w> 110229
A n</w> 110204
in tro 110181
ro ad</w> 110137
atten tion</w> 110103
F ren 110020
av oc 110005
p ai 109948
re l</w> 109910
regi on</w> 109896
Str as 109895
' d</w> 109879
comm ent 109815
é ro 109808
it aire</w> 109702
trim estre</w> 109570
him self</w> 109384
pro pr 109341
T ex 109330
Lou is</w> 109326
mar chés</w> 109319
U R 109277
ard - 109082
si e</w> 109070
obj ectif</w> 109039
hau t</w> 109026
sel ves</w> 109024
chil d</w> 108971
si r</w> 108956
dur ant</w> 108885
ag ency</w> 108881
cul ture</w> 108868
ve hic 108819
8 . 108798
sur vi 108789
po s</w> 108786
ne eded</w> 108775
gu erre</w> 108737
et er 108699
après- midi</w> 108645
dé n 108640
st op</w> 108560
ju ste</w> 108560
p it 108546
u r</w> 108540
H ol 108472
poli tiques</w> 108467
it able</w> 108423
t- être</w> 108399
ste ad</w> 108357
al bu 108352
in fl 108350
néc es 108346
sim ple</w> 108327
b â 108272
Ac tu 108209
ester n</w> 108157
ne eds</w> 108156
sep t</w> 108117
im medi 108093
ul ed</w> 108059
r y 108056
concer n 108054
au té</w> 108045
ish ed</w> 108045
b ab 108023
inter view</w> 108016
J ones</w> 108007
ar tic 108000
5 5</w> 107978
S i 107966
exc ep 107943
bec ame</w> 107891
in o</w> 107877
activ ités</w> 107770
ér é</w> 107745
é ment</w> 107730
K en 107688
sp ending</w> 107611
auc une</w> 107602
8 - 107577
mo ved</w> 107544
év én 107521
Ch ine</w> 107507
vic tory</w> 107422
j obs</w> 107417
r ound</w> 107388
ill eur</w> 107367
memb er</w> 107302
Ch ic 107284
minis ter</w> 107234
at ti 107224
m ing</w> 107202
cou p 107187
tr ait</w> 107171
Oc to 107095
in scri 107080
v ou 107077
Cour t</w> 106972
N E 106914
9 . 106906
k m</w> 106831
Go vern 106789
an ge</w> 106734
run ning</w> 106676
re trouv 106616
sor t</w> 106606
incre ased</w> 106528
1 er</w> 106527
Gener al</w> 106486
appel é</w> 106423
p oll 106404
Mex ic 106395
ec t 106392
probl ème</w> 106381
big gest</w> 106216
ment al</w> 106214
con sum 106167
ouv rir</w> 106086
C ela</w> 106061
tr op 106029
are as</w> 106017
U PI</w> 106012
e vidence</w> 106001
su jet</w> 105981
ro se</w> 105953
mor ning</w> 105948
s aw</w> 105914
hop e</w> 105911
c ents</w> 105904
Cong ress</w> 105868
ass ist 105853
Jan uary</w> 105836
att acks</w> 105799
rap id 105761
ch u 105754
oun d 105681
trav aux</w> 105636
d le</w> 105626
Aug ust</w> 105617
vo ix</w> 105616
par ten 105601
st ory</w> 105598
y s 105597
fe u</w> 105583
ra ther</w> 105563
au - 105500
rel ations</w> 105486
t end 105463
asse ts</w> 105462
Isra el</w> 105457
t an 105408
olo gy</w> 105403
Nov ember</w> 105392
z z 105332
R ou 105291
ord re</w> 105290
it ali 105254
ê ts</w> 105245
de l</w> 105240
str at 105192
re j 105185
in dé 105181
invol ved</w> 105148
u su 105091
In stitu 105068
exper ts</w> 105068
l l 105063
é vo 105030
Chin ese</w> 105008
O r</w> 104923
emplo ye 104862
seu le</w> 104818
n uclear</w> 104796
G ol 104754
Octo ber</w> 104696
vé hic 104692
la quelle</w> 104653
ét ant</w> 104586
conn u</w> 104578
id ed</w> 104570
fonc tionn 104547
opport un 104547
Allem agne</w> 104444
200 0</w> 104438
ag ner</w> 104336
8 8</w> 104307
ty pe</w> 104291
Th ese</w> 104221
po ss 104106
Russi a</w> 104101
ent al</w> 104060
em ment</w> 104058
er min 103985
r ates</w> 103799
ro g 103787
ju di 103774
ter n</w> 103768
cas es</w> 103703
cir cu 103656
major ité</w> 103632
s cho 103590
régi me</w> 103570
b ers</w> 103542
h and</w> 103451
prov ince</w> 103443
eu ses</w> 103438
musi c</w> 103420
re sid 103294
con c 103128
W i 103096
f ab 103089
pl ai 102957
m ê 102919
nu it</w> 102846
am éli 102785
V ous</w> 102752
chiff re</w> 102521
aiss ance</w> 102468
is ed</w> 102437
a x 102406
thous ands</w> 102399
go al</w> 102349
Pu bli 102326
mak es</w> 102322
ig r 102257
for te</w> 102256
élec tions</w> 102199
rel ated</w> 102155
trib un 102138
ag ement</w> 102136
on to</w> 102120
3 4</w> 102102
vi a</w> 102070
sou ff 102069
vol on 102057
tal ks</w> 102032
inde pend 101994
D ev 101988
p ense</w> 101930
entr ée</w> 101907
n av 101902
s port</w> 101860
p ilo 101778
No w</w> 101759
air s</w> 101753
3 6</w> 101738
cho ses</w> 101705
bro ad 101683
C I 101631
prot ection</w> 101630
m iles</w> 101593
ac ts</w> 101580
sec ré 101505
polici ers</w> 101477
oper ating</w> 101463
difficul t</w> 101449
p sy 101421
V ir 101416
ab ord</w> 101371
w it 101354
av es</w> 101324
K e 101317
k i</w> 101305
m ur 101276
comp éti 101225
and is</w> 101220
D ar 101156
ap pr 101134
b ad</w> 101044
ho wever</w> 100916
ju ge</w> 100903
c ab 100891
B or 100883
Ét at</w> 100883
potenti al</w> 100881
At l 100864
champ ion</w> 100844
Ch i 100822
T é 100808
invest ors</w> 100799
th è 100776
demand é</w> 100773
ch ec 100764
manu fac 100759
ev ent</w> 100701
onn es</w> 100664
le ge</w> 100635
ne igh 100581
it ing</w> 100570
bu ts</w> 100570
tric k</w> 100563
con sid 100553
a z</w> 100516
dem and</w> 100503
200 1</w> 100487
con dam 100456
vo tre</w> 100445
D es 100434
rac on 100425
e ase</w> 100393
f ans</w> 100381
hum an</w> 100346
m ère</w> 100341
s il 100308
dou te</w> 100243
hu it</w> 100234
agre ement</w> 100206
sp ace</w> 100201
p om 100164
cor por 100160
S om 100125
6 5</w> 100088
ad ul 100086
Li b 100009
h eu 99943
me illeur</w> 99941
éri que</w> 99938
presid ential</w> 99897
four th</w> 99895
sol di 99870
mor tg 99844
w ed</w> 99841
v ér 99823
plac es</w> 99818
li gh 99775
b ill</w> 99756
terr oris 99730
sup pl 99726
re qui 99720
per met</w> 99691
sum mer</w> 99604
ré sid 99603
PR New 99560
d û</w> 99527
h ur 99496
prés ence</w> 99483
d ings</w> 99444
vic ti 99438
Mar c</w> 99328
inter nationale</w> 99299
des p 99271
ch ers</w> 99238
Fren ch</w> 99231
arm ée</w> 99226
sh oo 99144
H en 99141
po ste</w> 99122
app elle</w> 99112
Coun ty</w> 99105
ch in 99063
me et</w> 99063
ér ation</w> 99056
v ent 99041
lat est</w> 99040
pe ine</w> 99039
tu de</w> 99002
In dia</w> 98999
a ther</w> 98983
4 8</w> 98959
ress ed</w> 98924
1 2 98904
ouver ture</w> 98880
S an 98865
N ord</w> 98833
So ci 98817
mani ère</w> 98786
Cl aude</w> 98780
effec tu 98767
r us 98743
bl ack</w> 98731
Sen ate</w> 98705
S ol 98688
ester day</w> 98622
E r 98599
br ing</w> 98579
en e</w> 98563
en reg 98497
vill age</w> 98447
s is</w> 98445
l ab 98420
co ach</w> 98405
r s</w> 98385
cit oy 98355
fir m</w> 98342
at ures</w> 98326
tr ade</w> 98323
ac t 98303
li bre</w> 98276
M ur 98182
E N 98170
preu ve</w> 98167
soi rée</w> 98155
ven te</w> 98105
high - 98036
commer cial</w> 98020
en - 97996
L ig 97990
Tex as</w> 97962
asse z</w> 97897
bre ak</w> 97797
s atis 97649
sorti e</w> 97629
per du</w> 97555
centr al</w> 97507
ec tions</w> 97488
show ed</w> 97488
re fl 97400
ban ques</w> 97379
min im 97378
ac cident</w> 97363
Stras bourg</w> 97353
long - 97335
T ran 97310
in ning</w> 97271
europé en</w> 97262
sp ent</w> 97247
play ing</w> 97193
cin é 97135
minu te</w> 97123
sch ed 97116
jou eur</w> 97003
s en</w> 96952
me dical</w> 96936
s cre 96912
mi lieu</w> 96852
fig ure</w> 96829
sel l</w> 96796
plac ement</w> 96751
ad vis 96675
er ship</w> 96673
ad di 96647
or ies</w> 96608
care er</w> 96557
sour ces</w> 96539
B al 96526
Di rec 96516
et é</w> 96496
he av 96437
vide o</w> 96419
c .</w> 96417
new sp 96392
ss ements</w> 96372
li ste</w> 96321
ob serv 96258
B BC</w> 96203
to - 96155
is - 96131
t ting</w> 96095
tw o- 96022
l y 96000
mor ts</w> 95944
s enti 95877
3 7</w> 95872
any thing</w> 95858
ges tion</w> 95845
Gr and</w> 95823
condi tion</w> 95821
k il 95818
Ira q 95784
no thing</w> 95729
me ans</w> 95667
es t- 95499
e k</w> 95473
b a</w> 95438
E ast</w> 95417
as p 95408
go ti 95385
cel e 95365
oo ds</w> 95363
grow ing</w> 95330
o w</w> 95329
wor ked</w> 95271
f ils</w> 95252
pa tr 95233
gr andes</w> 95208
tr a 95173
dru g</w> 95168
3 8</w> 95122
tele vision</w> 95094
compag nie</w> 95082
S am 95060
D on 95058
as k</w> 95049
r endre</w> 95047
cor ps</w> 95007
ar gu 95004
investig ation</w> 94880
arriv ée</w> 94852
s anc 94838
hosp ital</w> 94764
4 4</w> 94755
strat é 94698
ab and 94625
ess enti 94618
dé s 94590
pro sec 94586
génér ale</w> 94575
c s</w> 94488
ach i 94462
prof ess 94455
se a</w> 94441
pres sure</w> 94402
à - 94400
ke ep 94385
professi onn 94374
id a</w> 94368
200 2</w> 94270
W all</w> 94196
cré ation</w> 94185
al low</w> 94175
hom es</w> 94129
t .</w> 94118
fri end</w> 94095
acc oun 94062
bu y</w> 94056
4 2</w> 94045
ad s</w> 94012
peu t-être</w> 93945
N ouv 93933
proch aine</w> 93918
dis par 93886
acc ess</w> 93882
contr ôle</w> 93878
r ise</w> 93867
N . 93845
ain t</w> 93842
v ac 93822
di z 93805
contr at</w> 93787
sou tien</w> 93686
all s</w> 93658
déf ense</w> 93598
G l 93551
â tre</w> 93492
té mo 93449
pr acti 93389
desp ite</w> 93388
amp le</w> 93376
spectac le</w> 93353
M il 93349
E S</w> 93326
re mar 93301
continu ed</w> 93289
n ature</w> 93277
anni que</w> 93243
en ch 93225
Ç a</w> 93179
mat eri 93170
E ar 93169
ref us 93153
s ace</w> 93147
c ast</w> 93091
aven ir</w> 93078
agre ed</w> 93008
4 00</w> 92965
uri ties</w> 92956
signific ant</w> 92892
oeu vre</w> 92873
wor th</w> 92867
C entre</w> 92849
d augh 92825
be l</w> 92764
al d</w> 92743
mondi ale</w> 92740
V ille</w> 92736
lo ve</w> 92659
fri ends</w> 92654
Qu and</w> 92644
milit ants</w> 92607
di g 92515
we b 92496
su mer</w> 92473
S to 92462
En g 92438
sing le</w> 92417
affir me</w> 92390
quali ty</w> 92375
ér o</w> 92364
li ves</w> 92342
uni que</w> 92297
show s</w> 92286
visi ons</w> 92210
équi pes</w> 92204
inté ress 92186
E S 92158
inclu ded</w> 92152
comm on</w> 92117
person nel</w> 92114
Al ex 92075
M y</w> 92027
hist ori 92010
clas si 91982
cont act</w> 91974
s ait</w> 91939
t andis</w> 91936
E g 91930
Chic ago</w> 91907
b es</w> 91858
cam p</w> 91843
secré taire</w> 91805
pl at 91798
det ermin 91785
mé dec 91779
U MP</w> 91771
mal gré</w> 91740
i ve</w> 91665
rem ain</w> 91621
comp ens 91620
seri ous</w> 91607
Jap an</w> 91604
produ it</w> 91594
m auv 91590
prob ably</w> 91564
d ated</w> 91550
M id 91539
sco red</w> 91532
fi é</w> 91528
di ver 91407
dro ite</w> 91406
on a</w> 91389
des ig 91367
sk i</w> 91340
at oire</w> 91272
Democr ats</w> 91260
par mi</w> 91243
mis si 91233
C al 91201
is ation</w> 91184
e th 91110
ill ing</w> 91104
n ine</w> 91102
en seign 91048
y ed</w> 91042
s por 90966
Thom as</w> 90941
moy enne</w> 90867
3 0 90811
isi ons</w> 90792
pré vu</w> 90784
rec ru 90782
pé tro 90764
Al sace</w> 90719
fi le</w> 90718
P as 90710
le ave</w> 90624
confi ance</w> 90602
é po 90598
inter net</w> 90563
ter a</w> 90519
p age</w> 90502
appe ared</w> 90465
man n</w> 90396
reç u</w> 90390
ec ting</w> 90370
y a</w> 90368
4 7</w> 90359
b elle</w> 90326
pro che</w> 90317
so on</w> 90290
ad ap 90265
fi ce</w> 90252
béné fici 90233
ti t 90224
deb t</w> 90217
F re 90167
hel ped</w> 90160
rése au</w> 90095
Jac ques</w> 90089
ar es</w> 90068
ré f 90040
re present 89980
t ôt</w> 89972
pi ed</w> 89963
M it 89944
é ment 89890
T ON</w> 89833
mobi le</w> 89817
ri que</w> 89803
Al ors</w> 89740
simil ar</w> 89695
Le ague</w> 89688
albu m</w> 89682
gar de</w> 89673
speci al</w> 89664
ai ly</w> 89641
proj ect</w> 89640
allow ed</w> 89634
br it 89625
ge ts</w> 89623
réun ion</w> 89578
en ses</w> 89553
9 - 89524
them selves</w> 89513
R oc 89500
A D 89493
insur ance</w> 89491
conf érence</w> 89460
pr en 89452
sh ort</w> 89448
A ir</w> 89372
cir cul 89347
st ati 89341
g er 89320
ol l</w> 89285
in et</w> 89260
pou ss 89250
el ing</w> 89216
ang l 89194
w ants</w> 89186
ré s 89183
A ff 89178
p p 89157
famili es</w> 89149
T er 89142
ra i</w> 89099
Sm ith</w> 89059
k o</w> 89045
v it 89036
ici de</w> 88922
D im 88815
ro te</w> 88797
5 0 88769
previ ous</w> 88765
S O 88760
vis ite</w> 88710
bi le</w> 88662
al though</w> 88650
sign ed</w> 88590
duc ation</w> 88581
clai ms</w> 88564
b loo 88475
in king</w> 88458
actu ellement</w> 88391
si è 88389
candid ate</w> 88385
pro jets</w> 88362
lin ed</w> 88343
n ée</w> 88306
ai ses</w> 88300
Holl ande</w> 88294
ch ac 88251
cl é 88246
en du</w> 88195
présid enti 88159
y esterday</w> 88135
I T 88131
f ourn 88108
d in 88068
reg ar 88059
parti ci 87985
ec tive</w> 87960
ne goti 87916
sig n</w> 87843
J ourn 87838
s pr 87793
l end 87781
qu ick 87781
resp ect</w> 87766
assu rer</w> 87738
ir a</w> 87729
se y</w> 87718
v ing 87710
hol ders</w> 87694
W at 87638
w rote</w> 87636
v entes</w> 87602
m em 87570
d onne</w> 87558
car rière</w> 87498
solu tions</w> 87497
h .</w> 87483
expéri ence</w> 87483
so ft</w> 87466
ide a</w> 87438
vi dé 87435
com pu 87427
me ille 87377
cri me</w> 87374
éd é</w> 87363
reven ue</w> 87357
w el 87338
sc ol 87303
it ter</w> 87299
no w 87235
arrest ed</w> 87158
Mar k</w> 87150
in fr 87126
t- on</w> 87116
fic it</w> 87112
soulign é</w> 87090
Pal estini 87037
ch airman</w> 86984
M ême</w> 86979
p én 86979
f ou 86920
jus ti 86918
y an</w> 86873
salari és</w> 86864
tal k</w> 86859
ag ent</w> 86856
ban que</w> 86852
li en</w> 86826
3 9</w> 86812
dang er 86802
â ge</w> 86796
br ought</w> 86788
inform ations</w> 86776
he art</w> 86769
Goo gle</w> 86764
ex pos 86757
fo rec 86725
ré g 86708
win ning</w> 86653
for ced</w> 86624
An dre 86590
af ter 86572
re uses</w> 86565
sh ire</w> 86562
in cident</w> 86561
tr aining</w> 86551
B S</w> 86543
candid at</w> 86516
rem ains</w> 86510
pers onal</w> 86493
mar che</w> 86472
f ight</w> 86442
t ait</w> 86270
h 30</w> 86211
pré ci 86188
Char les</w> 86187
Car ol 86161
D er 86152
e m</w> 86108
cl am 86107
confi d 86092
intér êt</w> 86066
z ation</w> 86030
tr o</w> 86027
sai s</w> 85965
exc ell 85964
r ass 85963
un ion</w> 85952
enf ant</w> 85949
play er</w> 85942
he alth 85921
Dani el</w> 85892
vic times</w> 85891
ma î 85890
at ory</w> 85868
ac tive</w> 85855
t omb 85838
in - 85822
F ro 85810
g ency</w> 85790
qu ée</w> 85786
S tu 85779
Lig ue</w> 85747
He alth</w> 85708
scho ols</w> 85682
clo sed</w> 85672
charg ed</w> 85642
Vir g 85613
rel ation 85607
fail ed</w> 85596
app li 85581
M as 85560
et h</w> 85544
offic er</w> 85528
pur ch 85477
mo di 85473
fil ms</w> 85464
M ore</w> 85462
d ette</w> 85451
ent er 85433
st yle</w> 85409
acc used</w> 85393
dou b 85382
fun ds</w> 85370
Pe ople</w> 85367
aff ron 85333
gi ving</w> 85312
leg isl 85309
dé fin 85300
Jack son</w> 85289
Bern ard</w> 85269
ak er</w> 85268
int el 85262
re duc 85220
oper ation</w> 85208
s old</w> 85179
R ec 85117
M ay 85089
ali tion</w> 85071
ag ing</w> 85031
é c 85030
pour tant</w> 85026
st ep 85013
w est</w> 85012
G M 84942
mati ère</w> 84906
épo que</w> 84901
saf ety</w> 84892
ar m</w> 84846
net work</w> 84814
orig ine</w> 84805
h ors</w> 84799
some one</w> 84792
tri ed</w> 84785
treat ment</w> 84756
Coun cil</w> 84744
f ille</w> 84648
on e- 84634
ev ents</w> 84633
t ain 84631
esti mé</w> 84628
gro s</w> 84593
ch s</w> 84584
C up</w> 84577
é di 84572
John son</w> 84572
chall eng 84541
in é</w> 84536
g ol 84525
or ney</w> 84509
offic ers</w> 84508
ar mes</w> 84507
ju g 84501
Philip pe</w> 84472
S A</w> 84467
mouv ement</w> 84462
P eter</w> 84458
Fe br 84438
4 1</w> 84437
p el 84410
eci ally</w> 84401
8 9</w> 84385
A I 84373
4 3</w> 84370
ai son</w> 84368
Actu alités</w> 84280
esp ecially</w> 84234
s h</w> 84202
li vre</w> 84172
ab s 84167
4 9</w> 84145
déb at</w> 84136
call s</w> 84085
p un 84050
du ce</w> 84030
dé couver 84008
intel lig 83960
pro vo 83957
con vic 83910
or ing</w> 83898
st ay</w> 83894
acc ès</w> 83869
C H 83853
grou pes</w> 83813
week end</w> 83796
is s</w> 83778
s embl 83776
th ro 83709
li ving</w> 83678
shi ps</w> 83665
vo il 83651
Febr uary</w> 83638
t els</w> 83626
arr y</w> 83559
princip al</w> 83559
lev els</w> 83504
in ée</w> 83489
habit u 83478
z en</w> 83472
ouver t</w> 83472
a b</w> 83447
as se</w> 83433
ati ques</w> 83432
Com mun 83351
D r.</w> 83334
s on 83299
g en</w> 83283
è de</w> 83264
Kore a</w> 83235
autom o 83202
qu alité</w> 83201
au t</w> 83194
al tern 83156
réus si</w> 83075
ann ual</w> 83061
V ic 82995
B ec 82982
C .</w> 82967
grap h 82946
coll abor 82941
O ther</w> 82933
vi ennent</w> 82912
cro w 82889
capit ale</w> 82887
particip ation</w> 82882
produc t</w> 82834
pi ers</w> 82833
g am 82782
sc ore</w> 82780
Par ti</w> 82775
Pa trick</w> 82773
sur prise</w> 82760
ten ue</w> 82744
ter ms</w> 82731
wh ite</w> 82721
Roy al</w> 82705
4 6</w> 82683
sci ence</w> 82674
long er</w> 82650
ag r 82648
S E 82646
val eur</w> 82640
. com 82583
vo ters</w> 82519
Afric a</w> 82469
te ach 82458
se x</w> 82422
aî ne</w> 82413
w ai 82403
ch ô 82399
al ed</w> 82364
ex ist 82323
D eux</w> 82301
mat ter</w> 82299
médi as</w> 82282
aw a</w> 82281
acqu isi 82269
dé part 82252
dirige ants</w> 82250
mondi al</w> 82241
Govern ment</w> 82233
pro pos</w> 82201
Cham pi 82195
nec ess 82195
g ni 82163
s ale</w> 82133
be at</w> 82108
pass age</w> 82055
ali ment 82041
t ains</w> 82018
ru ption</w> 82012
en ge</w> 81992
th o 81954
IN G 81831
tribun al</w> 81815
Off ice</w> 81807
Associ ated</w> 81802
pres ent</w> 81766
d ly</w> 81761
Fin anci 81753
C O 81745
re fer 81743
atten d</w> 81743
i dé 81713
radi o</w> 81677
as t 81652
cert aines</w> 81626
centr ale</w> 81613
proper ty</w> 81605
au d 81580
ous ing</w> 81579
S é 81555
am ount</w> 81542
onn at</w> 81523
bl an 81512
rec u 81509
a- t-elle</w> 81508
onn er</w> 81496
dev ait</w> 81472
m ay 81452
st op 81446
CN N</w> 81442
fai ts</w> 81428
5 2</w> 81424
ven us</w> 81420
ur ch</w> 81414
1 1 81400
k in</w> 81380
de ad</w> 81259
audi ence</w> 81259
L or 81251
iti é</w> 81222
To tal</w> 81218
ple in</w> 81212
ma ch 81207
cele br 81196
sou ligne</w> 81159
th - 81157
j ect</w> 81116
direc t</w> 81105
Ou r</w> 81059
ap pu 81047
ec ture</w> 81013
al ty</w> 81011
respons ables</w> 81009
P ho 81006
O f</w> 80973
habit ants</w> 80971
commer ci 80955
he ard</w> 80936
sp i 80912
rapid ement</w> 80901
der rière</w> 80895
vo ie</w> 80867
anc y</w> 80863
e e</w> 80857
per mettre</w> 80829
fu t</w> 80819
is er</w> 80816
Tw o</w> 80791
s mo 80773
e ither</w> 80739
im ages</w> 80737
t ell</w> 80727
par fois</w> 80714
cover ed</w> 80679
str ai 80658
8 5</w> 80623
probl èmes</w> 80614
re ach</w> 80599
mar que</w> 80599
Ol ympi 80580
b out</w> 80556
o t 80522
per man 80520
e qui 80404
premi ères</w> 80390
C ath 80385
M icro 80380
can not</w> 80371
so f 80332
tax es</w> 80328
par ler</w> 80225
élè ves</w> 80201
lors que</w> 80157
m én 80103
in nov 80089
c en 80086
n amed</w> 80057
A L 80048
jo in 80020
addi tional</w> 79972
mag az 79970
présent é</w> 79940
de z-vous</w> 79901
Jus tice</w> 79895
se ems</w> 79878
res si 79843
or ation</w> 79840
ad y</w> 79840
Ste ph 79831
buil d</w> 79751
év iter</w> 79712
ch ant 79711
qu et</w> 79689
qu és</w> 79683
ati e</w> 79672
ste p</w> 79641
pour raient</w> 79632
i tion</w> 79628
mar k</w> 79628
moy ens</w> 79611
résult at</w> 79604
con sul 79597
étu des</w> 79551
judi ci 79541
Mar ie</w> 79529
con stru 79518
financi ère</w> 79497
pr ét 79488
G ran 79481
A .</w> 79479
hu ge</w> 79449
mis sions</w> 79445
s ports</w> 79356
popul ar</w> 79354
dec ided</w> 79345
Ser vice</w> 79314
nu clé 79281
docu ments</w> 79266
hu man 79212
ac es</w> 79196
s ense</w> 79185
f ond</w> 79150
ex ten 79143
contr act</w> 79119
succ ess</w> 79071
Christi an</w> 79062
G az 78985
E ven</w> 78958
mi li 78953
sû r</w> 78948
préc ise</w> 78921
y r 78919
o ta</w> 78916
h our</w> 78908
clas s</w> 78882
descri bed</w> 78827
fig ures</w> 78823
long temps</w> 78819
was n</w> 78795
mak ers</w> 78772
re fu 78727
rév él 78713
M I</w> 78682
j um 78670
ecti fs</w> 78638
wh ole</w> 78612
Flor ida</w> 78607
sex u 78598
g ne</w> 78588
Res ear 78588
d avantage</w> 78570
y es</w> 78491
I S 78486
tou ch 78476
S pe 78473
dé pos 78392
op ti 78328
quick ly</w> 78312
inclu des</w> 78305
every thing</w> 78296
é cu 78270
sen si 78229
j eux</w> 78226
p ital</w> 78210
sup porters</w> 78181
k - 78177
.com .</w> 78162
s wi 78161
Iraq i</w> 78152
in ess</w> 78143
N et 78130
5 3</w> 78122
busin esses</w> 78122
su d</w> 78096
pe ace</w> 78093
n atur 78073
B ra 78056
mat es</w> 78040
Par k</w> 78020
comb at</w> 78011
ill on</w> 77977
C el 77974
P M</w> 77954
on er</w> 77945
cre ate</w> 77919
A h 77917
b le 77912
commun auté</w> 77912
Isl am 77892
Ré publique</w> 77832
voit ure</w> 77832
do m</w> 77789
com ité</w> 77776
trav ers</w> 77775
ag e 77740
L a 77729
particul arly</w> 77704
lo ans</w> 77702
Cou pe</w> 77680
él us</w> 77665
plac ed</w> 77659
actu ally</w> 77656
cher ch 77634
as te</w> 77633
pr on 77575
employe es</w> 77543
thre e- 77529
retrai te</w> 77495
prés ent</w> 77491
h us 77389
cor rec 77365
Mon t 77355
tri p</w> 77348
ad dition</w> 77289
er n 77281
r at 77280
5 1</w> 77201
S ept</w> 77186
d or 77177
quoti dien</w> 77127
5, 000</w> 77116
ali st</w> 77107
5 4</w> 77091
éner gie</w> 77082
D u</w> 77036
entraîn eur</w> 77011
vain c 77011
olo gie</w> 76946
tion nel</w> 76926
exp ect</w> 76919
posi tive</w> 76903
vie ws</w> 76903
5 8</w> 76878
re p 76827
pr ises</w> 76793
ti ves</w> 76789
r ing</w> 76783
ant ly</w> 76767
al ing</w> 76755
ter re</w> 76709
ex ig 76702
ail ed</w> 76692
fi que</w> 76678
ag h 76622
pre dic 76616
- il</w> 76612
rec ession</w> 76603
foc us</w> 76560
ex ample</w> 76524
Té l</w> 76518
W ar 76504
fran ch 76489
B ill</w> 76474
av ez</w> 76460
daugh ter</w> 76422
Laur ent</w> 76393
pas s</w> 76388
mê mes</w> 76380
kil om 76307
infl ation</w> 76298
curr ently</w> 76289
newsp aper</w> 76264
M any</w> 76247
cep endant</w> 76226
concer t</w> 76207
lors qu'</w> 76206
b ran 76168
f ête</w> 76100
av ance</w> 76100
any one</w> 76085
Bour se</w> 76077
co eur</w> 76069
om s</w> 76061
Willi ams</w> 76036
ou bli 75909
atte int</w> 75884
Cor por 75788
w ers</w> 75787
fin alement</w> 75782
ré forme</w> 75780
ré es</w> 75749
soldi ers</w> 75736
R ed</w> 75735
emp ê 75727
ri es</w> 75718
dépu té</w> 75715
écri t</w> 75712
ing er</w> 75704
pres que</w> 75687
se par 75613
onn eur</w> 75609
i j 75600
resp ec 75596
w id 75590
peti ts</w> 75567
pro pose</w> 75561
bâ ti 75527
anti cip 75518
élec tor 75515
dé termin 75474
ar a</w> 75415
ré gl 75350
quar tier</w> 75297
fisc al</w> 75291
educ ation</w> 75287
d an 75274
assur é</w> 75250
t exte</w> 75241
att aque</w> 75239
Mexic o</w> 75226
ju dge</w> 75211
cent er</w> 75204
9 5</w> 75202
donn ées</w> 75197
vic e- 75135
N et</w> 75132
ch en</w> 75119
trad ing</w> 75115
C op 75111
au to 75101
mi - 75093
in i</w> 75073
techni que</w> 75069
run s</w> 75055
ar ies</w> 75028
S ur 75017
su sc 74980
Lond res</w> 74960
char ac 74948
app ed</w> 74905
comm une</w> 74868
5 7</w> 74850
con curr 74843
we ap 74819
ru les</w> 74819
thre at 74796
ear nings</w> 74772
cl in 74740
r ê 74738
neu f</w> 74729
set t 74728
Ger many</w> 74710
é dition</w> 74683
Mi ke</w> 74663
Bo ston</w> 74652
puis que</w> 74617
igh ts</w> 74612
201 4</w> 74592
G en 74564
poin ted</w> 74559
op ening</w> 74547
p .m.</w> 74543
travail ler</w> 74535
Russi an</w> 74532
m ée</w> 74510
m ètres</w> 74476
enc ed</w> 74468
fel t</w> 74467
fun d</w> 74447
ma xim 74441
5 6</w> 74427
sou s- 74413
fu el</w> 74403
week - 74399
ar t 74349
ant a</w> 74325
de fin 74268
ob tenir</w> 74248
mat ches</w> 74167
in side</w> 74163
ul ation</w> 74143
li st 74108
av is</w> 74095
d ad</w> 74072
mé dic 74038
k y 74019
pl ement</w> 73988
iss ant</w> 73964
dre ds</w> 73962
ann u 73927
ar ily</w> 73909
ag ence</w> 73901
5 9</w> 73871
M ou 73855
sub st 73834
C lu 73822
Financi al</w> 73819
L y 73817
particuli èrement</w> 73806
emplo is</w> 73785
tri ème</w> 73778
k en</w> 73772
sai res</w> 73767
ver t</w> 73765
F u 73739
Com mit 73704
z ens</w> 73691
sym p 73684
ju st 73679
repr ise</w> 73679
nomb reuses</w> 73634
En er 73601
rais ed</w> 73597
f le 73573
on str 73567
w iller</w> 73535
K h 73456
Geor gi 73449
v ite</w> 73441
clai med</w> 73419
bor der</w> 73417
v rai</w> 73405
ex ac 73389
indi que</w> 73364
milit aire</w> 73340
P our 73337
trav el</w> 73296
Sec retary</w> 73290
A ri 73252
D r 73249
respon se</w> 73222
opportun ity</w> 73195
tem p 73188
tak es</w> 73186
por ting</w> 73105
ve ille</w> 73075
b all 73045
vic time</w> 73045
gr av 73044
concer ns</w> 73039
E L 73001
man que</w> 72985
P as</w> 72982
al co 72966
program s</w> 72960
co ver</w> 72923
g gl 72918
eff ic 72846
Mo sco 72845
cer ti 72813
év alu 72800
every one</w> 72776
pl ain 72668
S ci 72634
T ali 72633
or es</w> 72607
Su d</w> 72583
alis é</w> 72578
bi o 72539
ch ap 72518
ti fs</w> 72479
val eurs</w> 72476
Sch ool</w> 72467
m ir 72452
B en</w> 72417
happ ened</w> 72373
em ed</w> 72360
vi c</w> 72354
dri ve</w> 72348
lo sses</w> 72332
immedi ately</w> 72332
t op 72304
er ve</w> 72303
é cl 72285
T our</w> 72284
O tt 72280
ex prim 72261
in ion</w> 72260
c a</w> 72256
loc aux</w> 72247
le quel</w> 72244
qua trième</w> 72238
R h 72223
h aps</w> 72198
re ve 72196
D ou 72191
bor n</w> 72134
g one</w> 72133
industri e</w> 72091
p ack 72085
mit ted</w> 72065
ser ver</w> 72049
Be au 72033
Dim anche</w> 72025
qué bécois</w> 72008
sign é</w> 71961
Te ch 71949
s pre 71937
en a</w> 71920
distribu tion</w> 71907
B re 71892
and - 71890
fi li 71888
Alex and 71835
publi é</w> 71830
et t</w> 71810
consum ers</w> 71802
sec tion</w> 71799
ac u 71780
6 00</w> 71702
dev raient</w> 71671
n ord</w> 71655
ad o</w> 71633
i ons</w> 71588
suiv i</w> 71558
surve ill 71503
Am éric 71469
sc and 71447
fr u 71401
re ason</w> 71371
A C 71348
re ali 71339
J .</w> 71336
M un 71288
télé vision</w> 71265
Itali e</w> 71181
hô pital</w> 71144
po ol</w> 71123
te au</w> 71106
ill ed</w> 71074
consi der 71037
mat chs</w> 71018
inter vention</w> 70987
is ting</w> 70969
financ ement</w> 70966
abs ence</w> 70951
qu ite</w> 70915
off ered</w> 70909
accomp agn 70905
eu m</w> 70898
bre ak 70881
F ace 70871
a j 70856
artic le</w> 70832
ré gu 70830
ten us</w> 70823
iss ent</w> 70810
ag ents</w> 70799
arri ve</w> 70796
C our</w> 70792
i ed</w> 70743
soci ale</w> 70702
discus sions</w> 70693
as es</w> 70675
A ut 70670
di vision</w> 70666
m ail</w> 70628
hus band</w> 70627
h ousing</w> 70621
bec om 70617
anc ed</w> 70586
de pend 70583
9 9</w> 70562
ens ure</w> 70511
figh ting</w> 70471
s we 70467
ç ant</w> 70451
H un 70421
No .</w> 70419
re lev 70406
ING TON</w> 70376
eff ect</w> 70371
suff is 70370
ti ère</w> 70361
dér oul 70328
ag ers</w> 70325
i- même</w> 70306
exer c 70301
brit annique</w> 70301
fais ant</w> 70288
ét és</w> 70270
im pres 70235
det ails</w> 70229
ar i</w> 70211
trans port</w> 70191
u les</w> 70155
mon tant</w> 70150
R adi 70122
4 0 70102
cor respon 70101
Commit tee</w> 70096
dem onstr 70089
V e 70084
soi ent</w> 70076
I r 70072
ou d</w> 70070
déf ai 70062
bl ed</w> 70030
c ars</w> 69976
chiff res</w> 69974
f estival</w> 69940
tran si 69935
GM T</w> 69931
str eng 69885
qu ences</w> 69861
Br un 69819
1 50</w> 69818
fl ex 69801
follow ed</w> 69800
institu tions</w> 69768
ver se</w> 69755
H au 69752
loo ked</w> 69708
t elle</w> 69681
ay ed</w> 69641
M s.</w> 69606
dé ci 69578
it self</w> 69571
Face book</w> 69571
ad ed</w> 69545
AS H 69543
M y 69526
me - 69522
sear ch</w> 69513
en jo 69492
ay er</w> 69486
mes se</w> 69480
fau dr 69466
dé s</w> 69424
num éro</w> 69421
foo t</w> 69396
abo ve</w> 69390
ste in</w> 69379
6 7</w> 69332
n atu 69327
ra ch 69291
chang ed</w> 69285
manufac tur 69273
mark eting</w> 69268
sym bo 69261
b ar</w> 69229
believ ed</w> 69208
igr ation</w> 69204
Australi a</w> 69170
A M 69164
ser ved</w> 69157
rest er</w> 69151
ch ev 69110
g ain</w> 69100
commit tee</w> 69100
sec tor</w> 69094
ass ure</w> 69069
gu eur</w> 69047
num bers</w> 69041
cap able</w> 69032
t ests</w> 69030
imp li 68999
ren du</w> 68988
ag g 68987
chall enge</w> 68984
do or</w> 68978
propr e</w> 68965
ch au 68955
-------- -------- 68955
sorti r</w> 68954
8 00</w> 68944
me an 68932
k es</w> 68930
Pri me</w> 68930
l our 68907
public s</w> 68890
Micro soft</w> 68876
op ened</w> 68850
commenc é</w> 68824
th an 68823
en heim</w> 68813
d g 68808
S E</w> 68807
g agner</w> 68800
d ess 68752
be au</w> 68747
at o 68742
ow ned</w> 68730
te gr 68704
pri or 68703
plu part</w> 68698
yn am 68686
D am 68681
Par ty</w> 68677
négoci ations</w> 68655
cli m 68638
at tribu 68614
ic ally</w> 68595
re pe 68581
ini que</w> 68573
6 8</w> 68559
chac un</w> 68544
y eux</w> 68531
Chr is</w> 68529
A M</w> 68516
buil t</w> 68511
prot est 68483
es po 68466
pay er</w> 68444
10 - 68443
provi ded</w> 68430
uc k</w> 68429
wor l 68425
N as 68423
gu il 68388
vi ties</w> 68387
n on 68362
op tion</w> 68314
mis sed</w> 68307
Tali ban</w> 68297
reco gni 68285
l i</w> 68268
g al 68251
mo ving</w> 68234
restaur ant</w> 68234
b n</w> 68227
présidenti elle</w> 68189
m eur 68172
Russi e</w> 68156
fin ance</w> 68150
re ached</w> 68139
journ al</w> 68119
reven us</w> 68117
envir onnement</w> 68105
issu ed</w> 68091
ris ks</w> 68088
différ ents</w> 68075
ajou te</w> 68047
tw are</w> 68039
pen ses</w> 68029
publi shed</w> 68022
indi ce</w> 67991
li qui 67981
bo y</w> 67960
Ac cor 67960
C D 67955
h ood</w> 67934
D r</w> 67925
rel ati 67919
milli ers</w> 67905
el i</w> 67897
li ghts</w> 67881
dru gs</w> 67851
N ations</w> 67849
con sumer</w> 67834
i al</w> 67833
S ti 67816
Resear ch</w> 67793
B ay</w> 67787
cul tu 67778
clai m</w> 67772
suppl ément 67765
su icide</w> 67757
a o</w> 67726
w ard- 67720
consi dered</w> 67679
se l</w> 67617
ak es</w> 67616
E conom 67561
dé bu 67555
ti tle</w> 67539
A us 67524
week- end</w> 67487
citoy ens</w> 67449
ord - 67435
Esp agne</w> 67427
jou é</w> 67424
bi a</w> 67422
con sac 67377
G M</w> 67373
Mari e- 67358
meas ures</w> 67356
employ és</w> 67318
en h 67317
plann ed</w> 67296
photo s</w> 67295
ri ch 67283
per f 67262
strai ght</w> 67259
g un 67253
No t</w> 67251
is n</w> 67240
civi l</w> 67227
benef its</w> 67214
S w 67213
E v 67213
H ou 67212
F ed</w> 67183
vo is 67183
syst ems</w> 67180
To m</w> 67166
ori al</w> 67138
inter nation 67123
org an</w> 67070
ed ly</w> 67050
s op 67034
re turned</w> 67022
tri c</w> 67005
Tor onto</w> 66985
D A</w> 66973
te ams</w> 66951
confir mé</w> 66939
f ense</w> 66914
m enti 66906
P lu 66905
dis ease</w> 66895
proc ès</w> 66887
dom esti 66882
Al - 66881
fonc tion</w> 66876
W ASH 66858
am is</w> 66848
exp enses</w> 66830
t z</w> 66824
ent - 66814
es pr 66809
o d 66802
def ense</w> 66742
WASH INGTON</w> 66718
P en 66701
S he 66697
con cl 66692
fr app 66673
O li 66640
tour no 66625
ur ies</w> 66624
mortg age</w> 66607
ob tenu</w> 66579
cau sed</w> 66578
isl am 66573
dis cours</w> 66502
re n</w> 66488
i ent</w> 66481
6 6</w> 66476
po or</w> 66442
en vis 66440
aff ich 66421
re duce</w> 66386
lo y 66356
St an 66356
z u 66354
Fe deral</w> 66332
Ho w</w> 66287
éri e</w> 66279
arm ac 66279
wr ong</w> 66271
ch ester</w> 66252
P ol 66244
e ce</w> 66236
cré er</w> 66234
f ast</w> 66215
aur ont</w> 66213
nor m 66196
re porters</w> 66160
em y</w> 66134
Fir st</w> 66091
bud g 66082
b anc 66079
con ven 66064
d a 66050
Sec urity</w> 66050
in stead</w> 66046
Ott awa</w> 66002
Clu b</w> 66000
Ban que</w> 65983
H or 65957
h as 65955
C re 65949
qu esti 65942
ai der</w> 65928
7 2</w> 65921
gen re</w> 65903
happ y</w> 65896
appro ach</w> 65873
ach es</w> 65869
us h</w> 65863
C oll 65851
rai se</w> 65847
pre t 65838
An dr 65827
thé âtre</w> 65827
sti mul 65821
fe et</w> 65796
mon d</w> 65777
liber té</w> 65773
dem i- 65769
B lo 65768
c elles</w> 65766
import ance</w> 65747
resid ents</w> 65743
An n 65740
im médi 65734
A le 65710
qu in 65710
magaz ine</w> 65688
h ard 65687
S '</w> 65665
y ond</w> 65663
ol es 65659
pour quoi</w> 65654
major ity</w> 65649
prov in 65645
Mo st</w> 65621
strate gy</w> 65618
tr ack</w> 65617
ab e</w> 65614
co alition</w> 65609
Journ al</w> 65599
mobi lis 65598
inten tion</w> 65596
z a</w> 65545
cou ps</w> 65540
b ach</w> 65537
re view</w> 65508
v res</w> 65501
bil an</w> 65472
ré vol 65471
gh out</w> 65454
add ress</w> 65454
wor ds</w> 65421
enreg istr 65418
0 6</w> 65409
consi dér 65405
re ly</w> 65384
Christ op 65373
to ward</w> 65366
Be ij 65365
iv al 65356
soci aux</w> 65330
Eg yp 65317
rev anche</w> 65298
in spec 65297
k new</w> 65294
nor mal</w> 65282
me an</w> 65279
dro p</w> 65270
augment ation</w> 65253
desig ned</w> 65249
indé pend 65217
R am 65204
0. 000</w> 65201
améric ains</w> 65193
S il 65179
pour ra</w> 65168
Ser vices</w> 65159
sé ance</w> 65138
pl ant</w> 65127
int érieur</w> 65117
ren dez-vous</w> 65114
v acc 65111
p rec 65091
re ad</w> 65083
ren forc 65067
vi vre</w> 65055
réalis é</w> 65052
ti r</w> 65001
o v 64985
parti s</w> 64984
des sus</w> 64971
applic ation</w> 64900
comp li 64887
poli tici 64868
Ste ve</w> 64866
s seurs</w> 64852
mar g 64848
sim ply</w> 64823
fam illes</w> 64810
po int 64808
re trouver</w> 64791
Scot land</w> 64780
vis e</w> 64775
pho to</w> 64715
res ol 64688
j ury</w> 64683
cre ated</w> 64653
accus é</w> 64616
dev ra</w> 64602
M ac 64588
ail l 64582
end ro 64581
W in 64574
P I 64561
mon tre</w> 64546
i en</w> 64516
mal adi 64510
s elling</w> 64507
mo vie</w> 64485
dépu tés</w> 64458
chô mage</w> 64446
ré si 64445
alo gue</w> 64428
n y</w> 64417
Al though</w> 64390
kill ing</w> 64368
com man 64297
avoc at</w> 64279
ex position</w> 64257
prot ég 64256
spe ech</w> 64250
Beij ing</w> 64226
el se</w> 64213
sched uled</w> 64205
et - 64203
civi li 64185
consom mation</w> 64185
candid ats</w> 64167
dr am 64166
em ps</w> 64113
Au jourd'</w> 64113
impro ve</w> 64092
G al 64077
lead ership</w> 64025
é rer</w> 64022
employ ment</w> 64013
M e</w> 63987
milli ard</w> 63972
lo se</w> 63942
M ah 63938
comple te</w> 63918
sp on 63912
esp ace</w> 63840
B ul 63838
é car 63834
ow ners</w> 63823
som met</w> 63820
E U</w> 63793
go es</w> 63779
z ing</w> 63776
E R</w> 63772
lu tte</w> 63737
municip al</w> 63730
cé ré 63710
6 4</w> 63707
st er 63697
investi sseurs</w> 63691
C i 63690
st ore</w> 63689
cu ts</w> 63670
f res 63658
cont ent</w> 63657
import ante</w> 63648
0 8</w> 63643
sw ire</w> 63628
w il 63617
li f 63612
re comm 63608
p ment</w> 63600
independ ent</w> 63595
ph ones</w> 63582
it or</w> 63542
off ers</w> 63542
particu lier</w> 63542
dro pped</w> 63539
l v 63511
enci es</w> 63501
réc emment</w> 63493
rem porté</w> 63466
ex écu 63456
initi ative</w> 63450
Inv est 63444
M ag 63440
s le 63413
sol d 63404
op inion</w> 63399
elec tions</w> 63384
obj et</w> 63365
bo is</w> 63361
ci pl 63355
cli mate</w> 63339
g az</w> 63316
K ing</w> 63304
eas y</w> 63300
ti g 63277
per spec 63259
as truc 63256
ri d</w> 63231
ég lise</w> 63219
investi ssement</w> 63217
commer ce</w> 63215
Fro m</w> 63207
E ric</w> 63185
ent ed</w> 63164
a trice</w> 63163
pré voit</w> 63127
long ue</w> 63117
success ful</w> 63108
it aires</w> 63097
b ly</w> 63081
com pris</w> 63079
contr ô 63060
opti mis 63057
ward- looking</w> 63054
adver tis 63035
évén ement</w> 63013
b ord</w> 63003
stati sti 62969
veu lent</w> 62959
fil ed</w> 62958
en vo 62923
saf e</w> 62905
pr êt</w> 62898
hun dreds</w> 62876
um ents</w> 62870
appro pri 62831
rédu ire</w> 62816
par le</w> 62815
Accor ding</w> 62800
confir med</w> 62790
onc é</w> 62779
meille ure</w> 62771
qu els</w> 62768
chan ces</w> 62763
oo k</w> 62761
um es</w> 62754
er r 62743
6 2</w> 62738
lo an</w> 62721
es sions</w> 62688
posi tif</w> 62687
bu reau</w> 62652
con centr 62647
mand at</w> 62640
war ned</w> 62604
trouv é</w> 62590
moy en</w> 62575
œ u 62552
deb ate</w> 62522
Chi ef</w> 62512
tionn elle</w> 62494
Ass emblée</w> 62492
ani a</w> 62469
he aring</w> 62459
7 7</w> 62429
aut oris 62410
dé penses</w> 62398
k ids</w> 62390
pon i 62384
de venir</w> 62375
z i 62367
Af rique</w> 62364
alis ts</w> 62360
esp ère</w> 62359
str ong 62356
C ur 62355
C S 62353
form es</w> 62347
P an 62336
mo de</w> 62307
chu te</w> 62260
cri tic 62259
Ar g 62240
hol ding</w> 62221
s ave</w> 62210
T reas 62198
sur g 62194
li te</w> 62190
tur ning</w> 62183
de fe 62182
p ain 62168
t ter</w> 62162
ren contr 62120
vi v 62093
Ap ple</w> 62086
diff us 62080
B A</w> 62079
ju red</w> 62070
r ul 62027
patr on</w> 62017
Isra eli</w> 61985
8 7</w> 61982
li ers</w> 61979
mo itié</w> 61941
ch ron 61913
é cou 61907
con fron 61901
eu x- 61899
ins is 61889
public ans</w> 61879
effec tive</w> 61874
è rent</w> 61865
fac es</w> 61849
si eurs</w> 61838
nuclé aire</w> 61837
an on 61816
con sult 61804
H ill 61788
dom icile</w> 61765
Sen .</w> 61765
ul é</w> 61742
provi des</w> 61737
dic tion</w> 61724
champi onnat</w> 61721
competi tion</w> 61704
inter rog 61694
k ept</w> 61654
p .</w> 61635
p ush 61616
n ations</w> 61607
lu x 61607
pr ol 61606
av ais</w> 61602
Jo e</w> 61602
di v 61595
dec lined</w> 61583
mis es</w> 61575
bi d</w> 61571
eff ici 61541
am or 61536
c ore</w> 61516
journ alistes</w> 61515
o k 61508
tr aff 61507
natur al</w> 61500
acti vities</w> 61492
thre at</w> 61481
C ar</w> 61480
des ign</w> 61460
ry th 61448
gir l</w> 61447
con vainc 61442
see king</w> 61426
territ oire</w> 61422
h ér 61392
Steph en</w> 61382
financi er</w> 61376
Ch il 61364
equ ity</w> 61318
S hi 61314
E as 61305
cab inet</w> 61299
f ré 61297
ser aient</w> 61279
fi e</w> 61257
inté gr 61243
aur aient</w> 61230
inst ant</w> 61196
7 1</w> 61187
ig an</w> 61171
ver ed</w> 61147
S a 61145
chem in</w> 61140
est abli 61135
st ations</w> 61116
appe ar</w> 61107
proc éd 61091
dis poni 61072
star ting</w> 61072
pass ed</w> 61035
let ter</w> 61000
memb re</w> 60968
abili ties</w> 60957
Ener gy</w> 60957
étudi ants</w> 60943
éri eure</w> 60941
Re publicans</w> 60939
dis cipl 60911
H om 60880
dang er</w> 60852
under stand</w> 60839
ti e</w> 60814
r ay</w> 60806
and a</w> 60792
popul aire</w> 60780
gu ar 60771
s ond 60764
sec ret</w> 60758
rou ge</w> 60758
vidé o</w> 60758
Ar my</w> 60751
ciné ma</w> 60749
estim ated</w> 60746
w ell 60745
Or g 60744
K i 60732
tem por 60706
ag é</w> 60692
s li 60680
ni er</w> 60669
prot ect</w> 60641
sti c</w> 60632
r age</w> 60630
fer a</w> 60626
dé g 60611
riv al</w> 60603
ac teurs</w> 60567
D ay</w> 60553
Al ain</w> 60553
lo s</w> 60544
O per 60542
li eux</w> 60535
S a</w> 60505
recor ds</w> 60496
pa tri 60481
nouv el</w> 60473
il leurs</w> 60472
li ament</w> 60471
relation ship</w> 60432
engag ement</w> 60425
an ie</w> 60415
t ements</w> 60411
u ted</w> 60410
secon de</w> 60393
v illes</w> 60371
min d</w> 60321
dec lar 60308
et tre</w> 60305
announ c 60302
y ards</w> 60294
En vir 60286
co ût</w> 60277
communic ation</w> 60252
clu bs</w> 60200
y wood</w> 60191
Po st</w> 60176
S ince</w> 60166
uti n</w> 60160
in tegr 60150
L av 60124
ris ing</w> 60095
G ir 60071
G ord 60071
S au 60064
Th en</w> 60038
L am 60020
par cours</w> 60016
V I 59994
ad ding</w> 59980
emer gency</w> 59965
pow er 59952
m ét 59944
victi ms</w> 59944
ran g</w> 59921
throu ghout</w> 59906
minis tres</w> 59897
le aving</w> 59891
fav eur</w> 59891
régi on 59886
Op en</w> 59886
h ands</w> 59869
ho tel</w> 59862
2 e</w> 59845
6 3</w> 59827
docu ment 59823
â g 59822
ord ers</w> 59819
pr int 59799
g end 59797
ch aîne</w> 59790
ho li 59778
particip ants</w> 59770
uc k 59764
arch it 59761
A in 59735
proc es 59735
économ iques</w> 59733
T hi 59722
en fin</w> 59711
c ité</w> 59668
Gaz a</w> 59663
L O 59643
mai rie</w> 59637
Andr é</w> 59637
in jured</w> 59627
ré p 59615
d é</w> 59599
web site</w> 59591
B S 59541
europé ens</w> 59534
class ement</w> 59534
ev in</w> 59516
bloo d</w> 59508
I l 59489
6 9</w> 59486
capac ité</w> 59486
C entr 59472
ne - 59455
sh are 59449
C R 59448
hop es</w> 59415
m oun 59408
amb ass 59402
le ague</w> 59401
b ag 59394
chang er</w> 59360
b ons</w> 59351
op tions</w> 59338
cat ég 59317
cli ent</w> 59297
K er 59288
ele g 59287
po st</w> 59226
souhai te</w> 59221
Ger man</w> 59216
ouv re</w> 59211
Le e</w> 59205
candid ates</w> 59189
s ons</w> 59165
hist or 59163
Tech n 59159
ran ts</w> 59133
s low 59129
p t</w> 59127
urg ence</w> 59107
V in 59106
B et 59081
M P 59048
no on</w> 59043
N .</w> 59012
lim ited</w> 58992
fre e 58992
s n 58983
st ade</w> 58979
p ping</w> 58977
benef it</w> 58968
laun ched</w> 58966
lég isl 58956
laun ch</w> 58956
quar ter 58933
NE W</w> 58931
ari o</w> 58923
be yond</w> 58920
U p 58918
rece ive</w> 58913
bi e</w> 58906
ad ing</w> 58889
cor ruption</w> 58854
mur der</w> 58851
Al i</w> 58849
requi red</w> 58825
é ph 58811
s auv 58785
F ab 58783
prof its</w> 58740
gi ques</w> 58737
r um 58713
lic op 58712
prim ary</w> 58712
ar ms</w> 58711
I s</w> 58705
Ain si</w> 58702
o ir</w> 58695
H er</w> 58680
Mus li 58678
ang er</w> 58654
Willi am</w> 58644
Gr èce</w> 58639
infr astruc 58639
sai ent</w> 58625
R ep 58619
préc éd 58595
. - 58586
is é</w> 58574
ten tion</w> 58540
respon si 58538
t ons</w> 58534
b res</w> 58533
r ant</w> 58527
over all</w> 58495
wor st</w> 58485
v e- 58474
coll ap 58469
S én 58466
t aine</w> 58465
necess ary</w> 58452
ath s</w> 58451
beg in</w> 58441
publi ques</w> 58428
pro cu 58419
confid ence</w> 58404
ound ation</w> 58391
3 e</w> 58389
compl ex 58389
concern ant</w> 58377
ent endre</w> 58374
Corpor ation</w> 58368
ash ed</w> 58344
z er</w> 58334
B I</w> 58321
chang ement</w> 58313
proces sus</w> 58308
1, 000</w> 58303
cri mes</w> 58295
prog ress 58292
ph on 58286
inter n 58285
c ard</w> 58284
re d 58284
ar my</w> 58234
influ ence</w> 58231
g ard 58222
achi ev 58220
él u</w> 58213
environ ment</w> 58211
Qu e 58206
mat éri 58199
tou gh</w> 58195
ap préci 58146
believ es</w> 58142
V ill 58092
att endre</w> 58079
dem ment</w> 58056
for ward-looking</w> 58045
se emed</w> 58038
ti m 58034
l è 58027
8 2</w> 58022
al one</w> 58020
proj ects</w> 58014
off ering</w> 57995
M organ</w> 57991
b ing</w> 57988
7 00</w> 57976
ali n</w> 57970
b om 57966
consid er</w> 57956
préc é 57954
y en</w> 57953
st ly</w> 57944
origin al</w> 57933
at tr 57923
oc key</w> 57918
w on 57883
ac king</w> 57876
o rer</w> 57875
ni es</w> 57850
f it</w> 57847
ti s</w> 57837
proch es</w> 57826
corpor ate</w> 57818
sel f- 57813
mon ie</w> 57804
H el 57800
driv ing</w> 57792
port ant</w> 57790
clas se</w> 57783
cep tion</w> 57778
bal ance</w> 57768
onn aires</w> 57756
Den is</w> 57729
fr ais</w> 57725
f air</w> 57714
Gord on</w> 57648
7 3</w> 57617
F on 57601
v in</w> 57600
ré alité</w> 57599
ci ce</w> 57596
p tions</w> 57581
B ret 57547
G ro 57532
ou est</w> 57529
acc ount</w> 57521
possi bilité</w> 57521
cid ents</w> 57507
practi ce</w> 57499
it u 57486
rais ons</w> 57473
sp end</w> 57467
Virg ini 57460
ac ted</w> 57435
p ir 57417
S T 57416
de venu</w> 57405
gi c</w> 57405
stru ggl 57389
r appel 57374
acquisi tion</w> 57357
Qu ant</w> 57354
m ér 57352
fr ag 57336
è ces</w> 57334
lo ir</w> 57316
t ori 57313
t ar 57308
bo x</w> 57287
C in 57280
por ted</w> 57275
see m</w> 57268
P ow 57240
tr ue</w> 57239
reconn u</w> 57232
sof tware</w> 57223
h one</w> 57215
spokes woman</w> 57213
en si 57204
gr atu 57197
L L 57192
compéti tion</w> 57190
6 1</w> 57187
cho ice</w> 57162
allem and</w> 57151
En fin</w> 57145
Par lement</w> 57141
néces saire</w> 57131
T un 57076
att orney</w> 57076
iv es</w> 57074
ét aires</w> 57067
r ich</w> 57055
reven ir</w> 57042
SO UR 57023
r are</w> 57003
agr icul 57003
exer cice</w> 57002
re urs</w> 56968
Cap ital</w> 56964
au me</w> 56963
intellig ence</w> 56949
analy sts</w> 56930
Eng lish</w> 56927
des c 56907
fl u</w> 56892
struc ture</w> 56891
vo ire</w> 56884
Ph il 56873
mis sing</w> 56872
fun ding</w> 56871
T ous</w> 56870
writ ten</w> 56832
ON U</w> 56829
professi on 56829
e g 56818
ent rer</w> 56816
V ol 56804
laiss er</w> 56801
Univers ité</w> 56798
pret ty</w> 56796
J on 56788
2 1 56786
Dur ing</w> 56781
F ord</w> 56778
re présente</w> 56768
C F 56743
ap pris</w> 56743
hosp it 56738
cent ury</w> 56727
plann ing</w> 56702
comp ter</w> 56687
gre ater</w> 56667
s ession</w> 56648
ach ing</w> 56647
qu e- 56626
S A 56600
oun ding</w> 56596
0 1</w> 56573
beg inning</w> 56559
C ô 56556
il ed</w> 56556
c élé 56534
an o 56529
est ate</w> 56517
ro ck</w> 56516
volon té</w> 56515
manifest ants</w> 56511
happ en</w> 56507
tourno i</w> 56494
re z</w> 56485
SOUR CE</w> 56483
isc o</w> 56475
Sy rie</w> 56475
G lob 56474
em o 56439
Fe der 56420
re y</w> 56401
equi pment</w> 56379
S N 56373
pati ent</w> 56366
avo id</w> 56365
Lab our</w> 56357
t ue</w> 56343
prom is</w> 56306
comp tes</w> 56304
f ine</w> 56296
ai me</w> 56293
ac te</w> 56291
é mission</w> 56283
concer n</w> 56281
P it 56271
sub ject</w> 56257
N Y 56248
différ entes</w> 56248
fin ished</w> 56238
2 5 56233
dec ades</w> 56223
fais ait</w> 56205
e f 56192
bel ow</w> 56184
Col om 56168
st reet</w> 56156
tur al</w> 56145
d wide</w> 56144
atte indre</w> 56127
u sion</w> 56123
il la</w> 56110
qu elles</w> 56095
loo ks</w> 56095
or ie</w> 56045
parl ement 56044
sc ene</w> 56043
pom piers</w> 56031
H y 56027
é gi 56011
7 4</w> 55990
Institu te</w> 55981
appe ar 55968
suspec t</w> 55967
Georgi a</w> 55966
q u</w> 55956
s in 55934
présent er</w> 55928
J am 55908
pl ane</w> 55904
ci pe</w> 55892
stu dent</w> 55884
E D 55879
7 8</w> 55877
arm ed</w> 55872
stri ke</w> 55864
h r</w> 55860
Bl ack 55860
W ar</w> 55843
ris ques</w> 55832
B ir 55829
alis er</w> 55819
inj ury</w> 55819
ner ship</w> 55817
milit aires</w> 55789
im possible</w> 55750
voy age</w> 55743
P A</w> 55720
z er 55718
PRNew swi 55704
PRNewswi re- 55686
pass eng 55684
sor te</w> 55668
Y e 55665
g les</w> 55634
arti stes</w> 55622
f eu 55620
Oc t.</w> 55619
av anc 55610
éli min 55601
d ynam 55599
r appelle</w> 55594
f light</w> 55592
li o</w> 55585
organiz ation</w> 55583
respon sible</w> 55567
I ran 55556
pap er</w> 55554
régu li 55548
cr aft</w> 55542
att ent 55531
Treas ury</w> 55509
Al li 55508
prosec ut 55495
S ir</w> 55488
ac teur</w> 55483
ecti vely</w> 55478
CE O</w> 55444
a .m.</w> 55438
p é</w> 55437
F C</w> 55436
S ans</w> 55422
In d 55422
cri tical</w> 55414
si ze</w> 55408
H um 55405
0 5</w> 55394
prol ong 55379
espr it</w> 55378
communic ations</w> 55365
ol ympi 55364
terr or 55359
to ires</w> 55352
pouv ait</w> 55316
k el</w> 55314
chois i</w> 55297
t ex 55296
musi ci 55292
surveill ance</w> 55291
Virgini a</w> 55290
docu ment</w> 55279
so l</w> 55266
Plu sieurs</w> 55243
financi ers</w> 55240
C onn 55219
tal king</w> 55212
Man chester</w> 55212
we ight</w> 55201
o ts</w> 55183
lu i-même</w> 55176
sup pli 55170
im pl 55159
Jap on</w> 55153
k r 55144
gre en</w> 55144
inc en 55130
activ ity</w> 55101
7 6</w> 55061
S ing 55059
ho st</w> 55050
el ed</w> 55049
par o 55040
av en</w> 55033
m ad 55012
meas ure</w> 55004
boo ks</w> 55000
bo t 54974
legisl ation</w> 54968
o ise</w> 54956
weap ons</w> 54954
associ ations</w> 54932
M usi 54927
S ports</w> 54924
Col mar</w> 54921
lo ts</w> 54918
e ven 54894
dis trict</w> 54875
stu di 54859
vehic le</w> 54851
dem ain</w> 54838
res tric 54833
continu er</w> 54824
previ ously</w> 54824
wor k 54788
fi f 54787
béné fice</w> 54771
s par 54764
mé d 54762
élé ments</w> 54754
onn és</w> 54750
sim plement</w> 54746
ô me</w> 54727
targ et</w> 54705
laiss é</w> 54704
a éro 54702
gr ès</w> 54696
u me</w> 54689
0 9</w> 54663
fir st- 54656
p eur</w> 54646
199 9</w> 54641
ent our 54639
pl as 54631
n ég 54608
dam age</w> 54593
siè cle</w> 54593
Bra z 54590
Bo ard</w> 54587
domesti c</w> 54576
tro it</w> 54571
us ers</w> 54544
ach at</w> 54526
G A 54516
identi fied</w> 54509
onn aire</w> 54483
vir tu 54461
F oo 54456
ell er</w> 54455
ét ais</w> 54436
v ali 54426
Bo th</w> 54424
A l</w> 54418
T ony</w> 54411
coll ection</w> 54411
chau ff 54402
f lu 54401
ét ape</w> 54391
am our</w> 54359
el and</w> 54356
n es 54355
st ood</w> 54354
défai te</w> 54325
guil ty</w> 54284
f ant 54275
8 3</w> 54253
Z e 54248
Mar c 54242
ow ner</w> 54238
partici per</w> 54218
Par mi</w> 54216
provi ding</w> 54206
a tri 54176
gagn é</w> 54176
mo del</w> 54169
c anc 54158
d ges</w> 54138
dis pos 54137
F estival</w> 54110
in struc 54103
v on</w> 54100
c ue</w> 54097
j ard 54078
law yer</w> 54078
mi x 54065
attemp t</w> 54052
Holl ywood</w> 54051
de g 54048
dec line</w> 54045
tur ns</w> 54031
O hi 54025
bas is</w> 54022
Hill ary</w> 54017
lo sing</w> 54010
is on</w> 53993
p h</w> 53992
bless és</w> 53980
Th ree</w> 53979
concer ned</w> 53960
de ad 53959
as si 53948
em an</w> 53944
p ê 53938
i o</w> 53935
vér itable</w> 53918
K u 53895
appro xim 53858
ver si 53854
évol u 53844
OR K</w> 53836
mo tion</w> 53823
k in 53821
vo tes</w> 53817
wat ch</w> 53812
part ner</w> 53797
Gre en</w> 53795
cent aines</w> 53782
c our</w> 53772
montr é</w> 53771
8 4</w> 53764
form s</w> 53759
min e</w> 53758
Cl ar 53758
se ts</w> 53757
W estern</w> 53756
U E</w> 53734
H al 53730
wh om</w> 53726
é vi 53718
présid ente</w> 53705
rem is</w> 53703
anci ens</w> 53701
fai te</w> 53699
sch em 53668
v eux</w> 53660
f al 53657
Y an 53653
conf lic 53650
Y ORK</w> 53636
ci ti 53606
T ho 53596
liv res</w> 53578
Fo re 53576
per haps</w> 53564
con ver 53546
wor d</w> 53538
qu ence</w> 53536
am ent 53531
sep h</w> 53523
ro b 53509
opér ations</w> 53500
vehic les</w> 53496
psy ch 53487
an ne</w> 53483
ais ons</w> 53473
high est</w> 53446
Jo seph</w> 53432
L ar 53431
é ni 53411
L oc 53408
nom ination</w> 53407
t ine</w> 53400
Y ou 53400
resear chers</w> 53393
m il 53377
8 1</w> 53374
r av 53369
ac tor</w> 53360
D un 53355
fer red</w> 53355
jo ined</w> 53354
l ack</w> 53351
suff ered</w> 53346
b y 53335
w ish</w> 53333
f il</w> 53324
dé ficit</w> 53322
répon dre</w> 53322
at el 53307
che fs</w> 53288
Mal gré</w> 53275
Afric an</w> 53254
tr ée</w> 53252
fab ric 53238
grad u 53231
vi es</w> 53218
m ist 53207
li re</w> 53207
for man 53201
L ors</w> 53187
loc ation</w> 53175
Afgh an</w> 53173
ing ing</w> 53171
inde x</w> 53171
judici aire</w> 53157
ad or</w> 53153
Ohi o</w> 53150
ro c 53140
dé mar 53135
ph ase</w> 53134
ul aire</w> 53131
No tre</w> 53111
as trop 53101
pai x</w> 53099
p hi 53096
St .</w> 53093
p les</w> 53078
spo ke</w> 53078
priv é</w> 53053
contribu ted</w> 53039
ru le</w> 53026
Scot t</w> 53020
ad el 53013
p ain</w> 53011
l ou 53007
techni ques</w> 53000
demand er</w> 52994
batt le</w> 52989
reg ard</w> 52988
certain ly</w> 52976
technolo gies</w> 52963
néc ess 52951
syndic ats</w> 52950
C all</w> 52949
pr ati 52948
prog ress</w> 52945
se as 52935
c ath 52933
Asi a</w> 52925
per te</w> 52923
ar ts</w> 52918
Canadi en</w> 52915
dur ée</w> 52896
c ally</w> 52893
off ensive</w> 52884
B on 52879
ter ri 52873
pétro le</w> 52859
pre vent</w> 52842
Tw itter</w> 52827
Ch el 52820
coun cil</w> 52809
Cam er 52808
acc ro 52803
sugg ested</w> 52781
sig ne</w> 52779
la ws</w> 52751
lang u 52727
mati que</w> 52707
N A</w> 52703
év entu 52685
Rob er 52681
ou tre</w> 52623
us ement</w> 52623
explo itation</w> 52623
all ait</w> 52618
Ken ne 52618
con tres</w> 52607
repr ises</w> 52604
A no 52600
ç ons</w> 52580
mas sive</w> 52574
stand ards</w> 52531
mi le</w> 52527
win ner</w> 52516
onc er</w> 52495
de partment</w> 52489
gr ave</w> 52475
del à</w> 52475
tu red</w> 52466
cont est 52449
sanc tions</w> 52448
bur gh</w> 52431
jou e</w> 52424
pro spec 52421
O ri 52413
ch im 52411
conse iller</w> 52397
véhic ules</w> 52397
p ire</w> 52376
su st 52367
propos ed</w> 52358
ré clam 52331
do g</w> 52331
ti enne</w> 52328
pr u 52325
reco very</w> 52306
tr ag 52291
mont rer</w> 52290
M ed 52265
sign s</w> 52265
me dic 52252
straté gie</w> 52247
s ité</w> 52242
0 7</w> 52238
ag ues</w> 52203
r oll 52192
véhic ule</w> 52190
cro y 52188
Nov .</w> 52177
p ages</w> 52158
us ine</w> 52153
- M 52139
b in</w> 52138
N eu 52134
sc én 52134
fe ar</w> 52107
Li ber 52104
s end</w> 52093
r al 52091
res ources</w> 52075
print emps</w> 52074
sur pris 52059
M E</w> 52038
inter ven 52004
sec retary</w> 52002
r ying</w> 52001
visit eurs</w> 51988
g old</w> 51974
répon se</w> 51967
espo ir</w> 51967
ist ance</w> 51962
O T 51961
Har per</w> 51910
con g 51909
surve y</w> 51883
histori que</w> 51882
commit ted</w> 51852
Isra ël</w> 51849
prin t</w> 51841
some times</w> 51831
y ard</w> 51829
en voy 51829
un it</w> 51827
applic ations</w> 51811
en sion</w> 51809
V A</w> 51807
rul ing</w> 51772
e ing</w> 51767
d il 51757
ex change</w> 51755
ish ing</w> 51753
rus se</w> 51751
To day</w> 51747
a ou 51745
soci aliste</w> 51730
now le 51725
T ra 51711
Ar ab 51710
cro ss 51708
appe al</w> 51703
Bus iness</w> 51693
étrang er</w> 51678
dou bl 51667
sur face</w> 51666
pre ci 51643
c ouldn</w> 51635
olo gique</w> 51630
plac é</w> 51629
l on 51628
Sim on</w> 51594
poli tics</w> 51588
cont em 51562
Rh in</w> 51557
Olympi c</w> 51555
N ad 51547
P enn 51523
iz ed</w> 51506
G ri 51495
I R 51488
ati fs</w> 51474
8 6</w> 51467
2 50</w> 51463
Carol ina</w> 51462
M s</w> 51458
hy po 51451
automo bile</w> 51445
ro y 51437
anti c</w> 51435
car ried</w> 51426
mi e</w> 51425
car act 51422
w er 51394
ak ers</w> 51387
Au th 51384
z on</w> 51382
pour suit</w> 51356
St éph 51350
ant aine</w> 51350
extr a</w> 51346
d its</w> 51329
minim um</w> 51329
hel ping</w> 51328
no tes</w> 51327
US A</w> 51322
de al 51317
t ées</w> 51307
T ay 51297
col on 51279
maxim um</w> 51271
journ aliste</w> 51267
g ains</w> 51253
after noon</w> 51242
établi ssement</w> 51235
consom mat 51232
dra w</w> 51227
pro position</w> 51226
usu ally</w> 51222
ell ed</w> 51220
develop ed</w> 51220
cont exte</w> 51209
ren ouv 51154
h onneur</w> 51153
A tt 51148
se - 51142
P ré 51134
priv il 51122
di minu 51121
St and 51119
hô tel</w> 51118
ten te</w> 51116
compu ter</w> 51113
f r</w> 51112
m ains</w> 51111
a g</w> 51100
Ano ther</w> 51088
contr oll 51084
g al</w> 51083
i ze</w> 51073
doc tors</w> 51063
Ac t</w> 51055
voul u</w> 51053
ass ass 51040
it er 51036
ch t</w> 51036
ed y</w> 51033
Ex change</w> 51031
A L</w> 51028
Indi an</w> 51024
St ar</w> 51020
T R 51019
tain ment</w> 51003
Dom inique</w> 50990
kilom ètres</w> 50984
étrang ères</w> 50981
ig ne</w> 50963
exp ect 50957
re té</w> 50953
Kenne dy</w> 50922
anci enne</w> 50919
vir us</w> 50915
di agno 50908
go als</w> 50881
st ars</w> 50876
il ton</w> 50869
neigh bor 50864
k h 50862
in te</w> 50855
a x</w> 50853
per forman 50842
em ain</w> 50831
évol ution</w> 50821
arri ved</w> 50804
call ing</w> 50781
con ci 50773
wal k</w> 50773
tr ust</w> 50770
arr êt</w> 50725
acti fs</w> 50724
res truc 50721
Sec urities</w> 50712
re mon 50702
E st</w> 50701
I S</w> 50699
long- term</w> 50678
représent ants</w> 50669
loc k</w> 50652
a tre</w> 50625
is ol 50609
nor th</w> 50609
a che</w> 50605
s ong 50604
manifest ation</w> 50604
d d 50583
Sh er 50574
arrê té</w> 50573
mod èle</w> 50563
r o</w> 50554
port ée</w> 50538
fac tors</w> 50538
ar ran 50511
el ess</w> 50495
um s</w> 50494
ing u 50493
a éri 50492
J im</w> 50486
actu el</w> 50484
D esp 50482
col lege</w> 50464
mak er</w> 50453
ré serv 50442
mar qué</w> 50433
entrepr en 50411
10 . 50382
par c</w> 50378
termin é</w> 50372
avi ons</w> 50362
G ér 50354
Dis trict</w> 50349
Do w</w> 50347
t z 50308
pris on 50306
Tho se</w> 50305
contin ues</w> 50302
sh op 50284
ser t</w> 50257
R yan</w> 50246
extr a 50225
enti re</w> 50209
Cor p.</w> 50200
ti tres</w> 50199
sup ply</w> 50196
di alogue</w> 50185
st able</w> 50181
autom ne</w> 50180
v eter 50170
re vi 50159
r ati 50157
reven ues</w> 50144
a than</w> 50140
angl ais</w> 50137
b en 50133
pr un 50125
7 9</w> 50124
b acked</w> 50122
appro ved</w> 50117
den ied</w> 50082
aw are</w> 50080
cr ash</w> 50076
Bi g</w> 50075
cré dit</w> 50066
v ul 50052
val u 50051
conn aître</w> 50049
em is 50044
é der</w> 50013
tradi tional</w> 50013
rem bl 49988
c ell 49985
Andre w</w> 49969
br u 49968
Ber lin</w> 49933
ne au</w> 49916
trav er 49875
pens er</w> 49862
coll ecti 49846
mag as 49844
T ele 49826
all - 49816
W ol 49793
Qu el 49787
M ass 49771
t esti 49756
is ra 49727
Lu c</w> 49725
appe ars</w> 49719
d aily</w> 49713
coû ts</w> 49694
mar ri 49690
sh oc 49686
govern or</w> 49681
gar dien</w> 49668
iss ement</w> 49655
qu as 49649
Mar se 49646
th y</w> 49637
at er 49611
ban king</w> 49610
quar ters</w> 49610
dis cu 49603
is ing</w> 49598
fas hi 49593
olo gue</w> 49571
ack nowle 49563
car te</w> 49556
N ig 49548
ju gé</w> 49544
fi el 49505
Ma j 49504
dé voil 49494
me illeurs</w> 49488
gr ève</w> 49486
O s 49483
develop ing</w> 49479
F ar 49466
por tion</w> 49448
ad joint</w> 49435
crow d</w> 49406
T om 49368
anon ym 49360
am id</w> 49358
Av ant</w> 49344
in spir 49343
commun es</w> 49341
mo tiv 49322
Am érique</w> 49315
de ep</w> 49307
R on 49300
lanc er</w> 49289
individu al</w> 49282
lend emain</w> 49271
e h 49269
Soci été</w> 49266
ad h 49240
rè gles</w> 49212
U. N.</w> 49196
É g 49183
entre tien</w> 49171
To ky 49144
it ure</w> 49130
polici es</w> 49090
L uc 49088
ou ver</w> 49087
ru es</w> 49070
adv antage</w> 49064
see ing</w> 49033
B agh 49017
extra ordin 49014
coun t</w> 49009
dom aine</w> 49008
mom ents</w> 49001
he ar</w> 48999
i des</w> 48988
ar bi 48979
at ement</w> 48970
u red</w> 48956
M aur 48955
S and 48945
cat astrop 48944
P aci 48920
comm ents</w> 48913
usu al</w> 48900
. fr</w> 48891
tw ice</w> 48888
canadi en</w> 48880
K evin</w> 48879
re form</w> 48876
pe l</w> 48864
ré cu 48855
A C</w> 48854
Mad rid</w> 48850
f ying</w> 48826
entu ally</w> 48820
assist ance</w> 48803
c élè 48790
oo d 48774
G ra 48770
s én 48753
Z im 48741
or é</w> 48740
Ge org 48739
B ow 48715
ph armac 48715
cu is 48683
fédér al</w> 48673
qu eur</w> 48668
ci ties</w> 48649
fin ances</w> 48646
v ais</w> 48645
po ids</w> 48641
l or</w> 48624
F é 48621
si des</w> 48614
Ind us 48611
sel y</w> 48580
dé plo 48574
u i- 48568
reg is 48568
Aff aires</w> 48561
Man agement</w> 48557
dér ation</w> 48553
br and</w> 48550
C amp 48548
spe ak</w> 48548
T al 48545
vol un 48511
dri ver</w> 48504
or dered</w> 48467
rem ained</w> 48465
R ed 48455
Cer tains</w> 48455
pour ront</w> 48443
er o 48436
spe ed</w> 48429
R el 48423
h an 48417
ô ts</w> 48385
Su isse</w> 48385
si ège</w> 48384
tal ent</w> 48379
fin ally</w> 48376
sou th</w> 48375
8 0 48372
gener ation</w> 48351
manifest ations</w> 48344
l as 48340
t an</w> 48322
I tal 48306
circu it</w> 48293
coll è 48281
no ir</w> 48277
mo ts</w> 48277
approxim ately</w> 48271
re usement</w> 48270
n is</w> 48262
bou ght</w> 48262
ex isting</w> 48260
ne ar 48258
F ré 48256
î t</w> 48228
vo s</w> 48224
cent age</w> 48218
exp ense</w> 48214
larg ement</w> 48208
S amedi</w> 48207
mu sul 48204
accue ill 48204
C ré 48185
stor es</w> 48185
crimin al</w> 48184
ex iste</w> 48183
è tement</w> 48166
H igh</w> 48155
an ese</w> 48154
ed ge</w> 48154
pr êts</w> 48148
9 2</w> 48146
intro duc 48130
Vin cent</w> 48112
dec ade</w> 48108
El les</w> 48102
Franc isco</w> 48097
ai rement</w> 48088
acc ord 48087
fu sion</w> 48086
power ful</w> 48081
v an</w> 48079
témo ign 48060
N av 48049
bro ke</w> 48026
h its</w> 48011
ap pointed</w> 47997
ag ir</w> 47994
eng ine 47981
sold ats</w> 47974
fac ing</w> 47968
G il 47963
télé phone</w> 47960
c af 47956
agu en 47947
mi ère</w> 47933
parten aires</w> 47933
no ted</w> 47922
or ch 47919
san g</w> 47895
anni ver 47895
ren contres</w> 47888
pl ays</w> 47881
l ec 47875
cro ire</w> 47860
A sh 47857
inj uries</w> 47841
c les</w> 47839
, 000</w> 47838
Toky o</w> 47830
r am 47827
peu ple</w> 47818
pu ty</w> 47812
s un 47792
b aiss 47786
discus s</w> 47777
prepar ed</w> 47763
Centr al</w> 47759
De troit</w> 47716
éco les</w> 47715
sé par 47713
présid ence</w> 47713
m icro 47712
arm ing</w> 47707
B ay 47705
shoo ting</w> 47692
ne g 47672
plai sir</w> 47670
rel and</w> 47667
ri ers</w> 47661
coun ter 47638
jo in</w> 47618
dic t</w> 47597
j un 47594
O ut 47570
soci étés</w> 47565
Bru x 47559
L is 47557
Chel sea</w> 47544
k id 47535
No ël</w> 47525
S t- 47523
plac er</w> 47513
f loo 47505
ing - 47486
ent ure</w> 47473
Ale x</w> 47472
ag encies</w> 47461
fil les</w> 47458
Desp ite</w> 47454
el op</w> 47421
pu tation</w> 47416
transi tion</w> 47414
worl dwide</w> 47414
T oul 47404
Ital y</w> 47395
cid ent 47390
de aths</w> 47387
w ouldn</w> 47376
ed a</w> 47370
Bri an</w> 47363
imm igration</w> 47362
public ation</w> 47357
w ise</w> 47353
tu m 47345
ans wer</w> 47336
mari age</w> 47330
sub si 47319
conf lit</w> 47312
L in 47300
entraîn ement</w> 47291
Gol d 47285
Fore ign</w> 47283
sou thern</w> 47265
maladi e</w> 47257
w estern</w> 47256
D an 47240
ou ts</w> 47229
fir ms</w> 47219
Mul house</w> 47217
g as 47205
In c.</w> 47198
expect ations</w> 47193
Bi en</w> 47186
t ol 47169
em prun 47168
conn aiss 47161
reu se</w> 47132
exper t</w> 47131
br as</w> 47130
continu ing</w> 47128
chin ois</w> 47128
Ho sp 47119
con sci 47118
res er 47109
difficul tés</w> 47109
fé min 47107
è les</w> 47100
foc used</w> 47099
well - 47094
cré é</w> 47071
l - 47047
con vers 47043
vo ted</w> 47025
cal cul 47015
poursuiv re</w> 46992
eu s</w> 46989
alleg ed</w> 46988
199 8</w> 46977
Ben o 46977
diz aines</w> 46952
vi g 46938
Le w 46937
respons abilité</w> 46926
program mes</w> 46921
Palestini an</w> 46917
d ged</w> 46916
att ach 46914
pi èce</w> 46914
E li 46911
re trouve</w> 46911
olog ical</w> 46911
it ant</w> 46906
canadi enne</w> 46893
The ir</w> 46892
gr an 46886
régi ons</w> 46870
Jap anese</w> 46866
spect ateurs</w> 46865
trou ble</w> 46858
end er</w> 46856
C G 46845
po stes</w> 46843
stop ped</w> 46843
assur ance</w> 46840
vari ous</w> 46835
inscri t</w> 46806
déc ouvrir</w> 46805
uni ties</w> 46770
di que</w> 46753
C et</w> 46732
J ust</w> 46724
on ais</w> 46724
of - 46723
tr ig 46722
struc k</w> 46713
ari at</w> 46709
Ham as</w> 46695
ess or</w> 46693
produc ed</w> 46693
cl air</w> 46684
exam en</w> 46681
9 3</w> 46677
sc ale</w> 46672
propri étaire</w> 46672
vol ume</w> 46665
An gl 46661
Gu y</w> 46651
A S</w> 46648
F am 46638
ess ed</w> 46631
è tre</w> 46627
ann on 46602
pi ece</w> 46597
Mur ray</w> 46596
199 5</w> 46595
il legal</w> 46585
Jer sey</w> 46585
Y oun 46577
on ship</w> 46576
racon te</w> 46565
reven u</w> 46560
heav y</w> 46556
an t- 46555
conse ill 46544
ré public 46534
ur al</w> 46532
le ts</w> 46529
fer met 46524
st abili 46523
r appelé</w> 46518
on om 46517
charg é</w> 46516
ch urch</w> 46512
port ation</w> 46507
rac y</w> 46503
spo t</w> 46502
C ri 46499
analy se</w> 46499
I reland</w> 46495
im pression</w> 46485
fun c 46477
ali e</w> 46461
endro it</w> 46457
pre - 46456
particul ar</w> 46452
de m</w> 46443
cau ght</w> 46437
pro - 46432
dev elop</w> 46432
vit esse</w> 46428
fi red</w> 46421
c er</w> 46418
m ant</w> 46412
fic ations</w> 46401
li es</w> 46399
bri dge</w> 46397
ryth me</w> 46396
blan c</w> 46376
pré vue</w> 46367
9 8</w> 46361
flo or</w> 46353
all ed</w> 46350
i che</w> 46312
con stat 46307
ri re</w> 46307
Com ment</w> 46297
g ath 46293
précé dent</w> 46289
n ord- 46281
heu reux</w> 46271
Re g 46254
organis é</w> 46248
ouver te</w> 46226
gr ade</w> 46220
Tro is</w> 46217
co de</w> 46202
h ockey</w> 46182
tu é</w> 46181
Por tu 46177
P ic 46172
ad oles 46166
at - 46156
enqu ê 46147
ref used</w> 46144
9 6</w> 46140
b onnes</w> 46120
suiv re</w> 46118
we ather</w> 46109
W ales</w> 46103
an k 46095
C A</w> 46094
chang é</w> 46094
compl eted</w> 46071
for tun 46030
pre me</w> 46030
tend ance</w> 46023
anniver saire</w> 46015
Con serv 46005
voit ures</w> 46004
j ur 46000
Sh ar 46000
Brux elles</w> 45996
Po li 45976
d eleg 45972
V end 45971
comm un</w> 45967
it ems</w> 45963
champi ons</w> 45955
explo sion</w> 45938
D on</w> 45935
K ur 45929
1 2, 45924
esp agno 45924
é ducation</w> 45916
ar rest</w> 45915
a dé 45912
direc tly</w> 45912
A P 45908
ple ine</w> 45907
é qu 45904
th inking</w> 45872
d an</w> 45849
n our 45847
dist ance</w> 45844
F R 45839
campai gn 45837
com prendre</w> 45833
ad mitted</w> 45829
Bagh dad</w> 45827
contr ats</w> 45825
Ad ministr 45818
D or 45801
Me dic 45799
lo is</w> 45789
œ ur</w> 45767
te en 45765
ig rants</w> 45764
é m 45763
mo t</w> 45763
ac ting</w> 45759
el son</w> 45736
El ec 45734
pack age</w> 45725
ou ti 45710
di er</w> 45709
natu rel 45702
compens ation</w> 45700
ol der</w> 45687
C y 45683
on ze</w> 45678
adel phi 45673
prof on 45663
altern ative</w> 45657
sk y</w> 45656
discus sion</w> 45648
er ies</w> 45645
î le</w> 45631
H ill</w> 45623
direc tement</w> 45621
uti li 45621
Glob al</w> 45621
mid dle</w> 45611
H ome</w> 45599
fail ure</w> 45599
produ ce</w> 45589
ar me</w> 45588
ç u</w> 45582
én or 45578
guar an 45573
augment er</w> 45571
ecti vement</w> 45565
on ing</w> 45564
Phil adelphi 45561
traff ic</w> 45560
pay ments</w> 45545
Pro f 45539
w ait</w> 45519
responsi bility</w> 45513
de vient</w> 45475
bu re 45473
étrang ers</w> 45470
l aisse</w> 45445
é change</w> 45440
ext érieur</w> 45437
adi um</w> 45428
keep ing</w> 45428
K im</w> 45417
profess eur</w> 45414
Re al</w> 45408
increas ing</w> 45406
prom ise</w> 45401
even ing</w> 45387
T ig 45376
fac ed</w> 45373
BS T</w> 45369
P D 45367
C ul 45364
ai gn 45358
Sain te- 45341
Q ue</w> 45330
investi ssements</w> 45327
rec ours</w> 45310
hi ver</w> 45310
Col lege</w> 45288
v is</w> 45278
ress ources</w> 45260
stoc ks</w> 45260
par tout</w> 45257
stand ard</w> 45248
peti tes</w> 45245
is si 45242
K ir 45231
9 1</w> 45231
sho wn</w> 45230
end or 45225
G ab 45222
tax e</w> 45219
fr ustr 45216
op e</w> 45215
al er 45201
high ly</w> 45201
Com mer 45182
ab sol 45169
bur g</w> 45157
ass er</w> 45155
c ell</w> 45153
professionn els</w> 45129
ig e</w> 45116
att le</w> 45092
prin cipe</w> 45075
P alin</w> 45072
in car 45071
dé pl 45067
alis ée</w> 45066
K el 45056
Me an 45054
car ry</w> 45051
eu sement</w> 45045
c ach 45041
s tro 45038
pu tting</w> 45011
ré duction</w> 45001
ti se</w> 45000
am én 44999
initi al</w> 44966
secon ds</w> 44963
el le- 44956
fl am 44955
N AS 44919
repr endre</w> 44889
Pri x</w> 44888
faudr a</w> 44887
S af 44885
n ames</w> 44861
step s</w> 44857
pol y 44843
condam né</w> 44809
H aw 44807
in qu 44799
S eu 44795
ori ent 44769
Un der</w> 44767
9 4</w> 44753
contr aire</w> 44753
I ts</w> 44737
v ed 44737
b un 44736
H ow 44735
dem eure</w> 44734
bo ys</w> 44730
let tre</w> 44727
post ed</w> 44699
professi onal</w> 44686
im ent</w> 44675
m el 44662
res sive</w> 44644
accus ations</w> 44641
aff ected</w> 44635
gi ves</w> 44629
J eux</w> 44618
regul ar</w> 44616
199 7</w> 44615
increas ingly</w> 44612
Me dia</w> 44606
W .</w> 44602
ther ap 44602
U N 44583
sti que</w> 44581
Ro ger</w> 44577
rel ation</w> 44574
b o</w> 44567
Off ic 44565
acti vis 44559
bo x 44556
manag ed</w> 44553
comp lic 44544
all ons</w> 44542
bab y</w> 44536
proch aines</w> 44533
t une</w> 44526
ren e 44512
l ess 44500
Col um 44495
show ing</w> 44476
oblig ations</w> 44474
Oli vier</w> 44405
exp an 44399
c ess 44374
L ac 44374
cour ant</w> 44374
Tr av 44355
circul ation</w> 44354
larg ely</w> 44352
to m</w> 44344
1 0, 44338
mauv ais</w> 44335
0 4</w> 44327
b ann 44325
ag ree</w> 44309
P é 44305
Ari z 44289
ad er</w> 44274
élev é</w> 44258
S P 44253
M el 44250
ic a</w> 44250
intér êts</w> 44250
fac ile</w> 44247
H all</w> 44235
Mich igan</w> 44232
gir ls</w> 44227
an moins</w> 44217
des tro 44207
c u</w> 44206
h auteur</w> 44201
fré qu 44198
un certain 44191
Mo ham 44189
te dly</w> 44182
Qué bécois</w> 44173
li eu 44158
On tari 44156
bro ther</w> 44142
puis qu'</w> 44134
Islam ic</w> 44129
ro s</w> 44127
syndic at</w> 44120
Tran s 44115
trans par 44113
tro l</w> 44083
hau te</w> 44080
fin i</w> 44076
isra éli 44073
lear n</w> 44071
pu s</w> 44068
pay ing</w> 44044
fai ble</w> 44039
s atel 44035
Nas da 44035
L au 44022
cro it</w> 44019
- up</w> 43999
Cap it 43982
propos é</w> 43947
j ap 43943
do s</w> 43930
pan el</w> 43930
cl ô 43929
jo indre</w> 43926
d ol 43925
becom ing</w> 43920
cle arly</w> 43905
pos ed</w> 43894
m ement</w> 43874
fif th</w> 43860
PRNew swire</w> 43836
z ones</w> 43814
s mar 43802
lang ue</w> 43792
to wards</w> 43784
refus é</w> 43763
dec isions</w> 43757
viol ences</w> 43737
C ab 43735
ch al 43731
améli orer</w> 43723
an es</w> 43722
pass ant</w> 43708
bor ro 43704
répon du</w> 43701
pr ê 43681
men ac 43678
k ins</w> 43670
quar t</w> 43669
maî tr 43660
0 2</w> 43651
con cours</w> 43651
off rir</w> 43644
de plo 43642
ob vi 43640
propos al</w> 43639
is try</w> 43636
se g 43636
4 e</w> 43633
Nasda q</w> 43624
Dav is</w> 43613
iss ait</w> 43595
a ho 43591
Ag ence</w> 43572
I M 43566
souv en 43565
z es</w> 43561
Sp ain</w> 43554
Bo b</w> 43550
ad ress 43549
Ar n 43549
pen alty</w> 43544
Pr ince</w> 43543
s u</w> 43542
spre ad</w> 43528
mess ages</w> 43526
el - 43511
S ab 43507
es cap 43505
Arg ent 43504
arti ste</w> 43494
secon d- 43493
trav ailleurs</w> 43490
cover age</w> 43479
men é</w> 43477
pas si 43473
aff ec 43460
kno ws</w> 43455
b é</w> 43441
accu eil</w> 43435
wai ting</w> 43435
bo y 43428
fol low</w> 43428
r is</w> 43422
D re 43420
réalis er</w> 43413
R ay 43411
L un 43407
ai e</w> 43399
m ont</w> 43390
O ber 43388
four - 43386
Sti ll</w> 43385
ev entually</w> 43381
ou é</w> 43376
e ding</w> 43375
alis me</w> 43369
men ace</w> 43368
Mean while</w> 43368
senti ment</w> 43352
onn ée</w> 43350
aw ar 43348
share holders</w> 43348
hol ds</w> 43343
tu r</w> 43341
st ands</w> 43331
suspec ts</w> 43326
see k</w> 43315
ou th</w> 43307
ré col 43306
ato ires</w> 43306
Con ference</w> 43297
ui- ci</w> 43294
Pak ist 43287
si ght</w> 43267
concurr ence</w> 43263
vie wed</w> 43251
Li fe</w> 43243
low - 43241
di vid 43239
po le</w> 43225
organ ise</w> 43222
differ ence</w> 43213
ar ité</w> 43210
vo ice</w> 43192
ven ant</w> 43192
se at</w> 43185
S we 43175
Ariz ona</w> 43174
w all</w> 43172
cont rer</w> 43169
ev ol 43161
aff iche</w> 43149
199 0</w> 43144
cr ain 43131
gouvern ement 43131
t ér 43124
mo vement</w> 43116
ass emblée</w> 43088
J ack</w> 43084
lé gu 43076
purch ase</w> 43076
prom p 43074
Pi er 43068
5 e</w> 43063
surg ery</w> 43060
O sc 43059
eff ects</w> 43046
rem ettre</w> 43040
gu id 43024
li ved</w> 43011
restruc tur 43007
stitu tion</w> 43001
tab le 42998
custom er</w> 42979
Ph one</w> 42959
ch or 42949
R ome</w> 42945
g lo 42944
rem ise</w> 42937
bl ing</w> 42930
élec tri 42921
9 7</w> 42920
pres ents</w> 42920
ri t</w> 42915
An ne</w> 42911
im porte</w> 42910
ch ant</w> 42903
T A</w> 42899
as ts</w> 42898
Nor thern</w> 42897
évén ements</w> 42894
f ar 42890
con vention</w> 42867
mar ge</w> 42862
af i</w> 42846
atten du</w> 42828
dit -il</w> 42823
bu ying</w> 42822
m as</w> 42820
viol ent</w> 42813
accue illi 42809
M iss 42805
clas ses</w> 42797
ex tre 42795
tourn ée</w> 42787
Ex ec 42783
ad d</w> 42778
ul ti 42778
Con t 42773
ret ail</w> 42746
ar tis 42737
ent ente</w> 42735
conn aît</w> 42728
L aw 42714
poursuiv i</w> 42713
wor se</w> 42712
up on</w> 42692
li s</w> 42681
b ass 42668
elec tron 42668
obj ectifs</w> 42662
fer me</w> 42658
par k</w> 42649
am ing</w> 42646
augment é</w> 42644
si t</w> 42627
insur g 42602
me ant</w> 42595
Ag ency</w> 42586
prog ression</w> 42584
gar anti 42577
è nes</w> 42572
anc ing</w> 42554
mo stly</w> 42548
pic k</w> 42542
d at 42523
all ée</w> 42520
ival ent</w> 42515
m ans</w> 42513
Y et</w> 42501
sal u 42495
Bl ack</w> 42485
n ar 42476
o x 42474
particip é</w> 42469
grap h</w> 42463
g a</w> 42462
we ak 42462
marri age</w> 42450
Fran k</w> 42446
advertis ing</w> 42443
univers ité</w> 42440
mach ine</w> 42433
v éri 42426
Camer on</w> 42421
av ion</w> 42416
pr atique</w> 42410
per dre</w> 42399
R et 42396
acc essi 42383
Fl ash</w> 42354
and ed</w> 42344
R a 42341
retrouv é</w> 42339
cal end 42333
as ka</w> 42311
profess or</w> 42307
er ine</w> 42289
ans as</w> 42279
h aven</w> 42278
fall ing</w> 42265
H an 42263
fri end 42257
puis se</w> 42252
rem ents</w> 42244
scol aire</w> 42244
T im</w> 42240
e ball</w> 42234
secon d 42217
loc ale</w> 42215
s etting</w> 42207
hou se 42197
diz aine</w> 42195
P ay 42181
ar o</w> 42181
contribu tion</w> 42179
recu l</w> 42178
sent ence</w> 42177
ser ves</w> 42175
t enter</w> 42167
n a</w> 42160
m ir</w> 42158
europé ennes</w> 42152
fi ques</w> 42150
actu elle</w> 42143
pré v 42137
bless é</w> 42127
subst anti 42109
D NA</w> 42108
ens eur</w> 42090
Di e 42087
quit ter</w> 42077
pol l</w> 42076
ch oo 42074
budg étaire</w> 42067
reg ret 42064
accoun ts</w> 42062
par isi 42059
V an</w> 42052
princip aux</w> 42020
ul ar</w> 42018
tourn ament</w> 42011
S es</w> 41991
-- -</w> 41978
igh t 41977
o ke</w> 41972
facili ty</w> 41963
as ter</w> 41952
fe eling</w> 41945
J ér 41937
ent endu</w> 41921
Tay lor</w> 41920
et c.</w> 41916
ear ned</w> 41898
Ro y</w> 41897
air port</w> 41889
vou loir</w> 41882
de z</w> 41878
st ing</w> 41872
rem aining</w> 41866
in no 41855
sou ver 41854
PI B</w> 41852
comp ét 41849
at trac 41841
musi c 41839
r amen 41828
boo st</w> 41820
Mi ami</w> 41820
w an</w> 41806
L ord</w> 41786
tre ated</w> 41773
nor thern</w> 41771
repor ting</w> 41769
in ks</w> 41767
writ ing</w> 41765
en vie</w> 41758
war ning</w> 41757
. C.</w> 41756
f us 41743
as king</w> 41728
langu age</w> 41726
offici elle</w> 41707
Me dical</w> 41701
S t</w> 41682
moder n</w> 41676
ti ens</w> 41664
tric ité</w> 41664
cons ist 41650
Marse ille</w> 41650
sou p 41647
sho p</w> 41646
allow ing</w> 41640
P eu 41636
fant as 41632
su d- 41624
f um 41619
arri ver</w> 41613
con vo 41585
D .</w> 41582
opport unities</w> 41577
I T</w> 41571
dig ital</w> 41570
th i 41567
w illing</w> 41561
é lo 41560
commit ment</w> 41555
inv ent 41550
por tes</w> 41547
d ant</w> 41539
appear ance</w> 41533
Li ver 41514
ligh tly</w> 41508
Gre en 41499
convic ted</w> 41482
pas ses</w> 41452
import ants</w> 41440
dis covered</w> 41433
ag on</w> 41420
équi p 41415
m és</w> 41413
supplément aires</w> 41392
th r 41391
S us 41388
announc ement</w> 41370
bâti ment</w> 41366
tic ally</w> 41361
stre ets</w> 41353
li br 41351
vis ant</w> 41341
auth or</w> 41331
Lew is</w> 41331
analy st</w> 41330
l ands</w> 41317
ve ill 41314
â che</w> 41310
hel ps</w> 41309
b é 41308
fig ur 41306
R ol 41304
law yers</w> 41299
gro w</w> 41292
danger ous</w> 41288
W est 41264
air craft</w> 41264
Off ici 41257
M an</w> 41246
mo ine</w> 41232
voul ait</w> 41221
arriv é</w> 41218
Mo h 41204
dest in 41203
Y ves</w> 41197
schem e</w> 41189
W o 41180
re vient</w> 41180
st one</w> 41178
M ath 41176
2 2 41170
ty pic 41155
ali zed</w> 41154
Publi c</w> 41140
rest ent</w> 41139
p ush</w> 41125
comple x</w> 41125
materi al</w> 41106
it ée</w> 41104
es te</w> 41100
su e</w> 41098
deli ver</w> 41094
Itali an</w> 41094
mo sp 41090
y o 41077
r ain</w> 41054
fi d 41054
con soli 41047
céré monie</w> 41047
Fin ances</w> 41042
L iv 41029
regi onal</w> 41017
g an</w> 41015
différ ence</w> 41008
anim al</w> 40996
Fé dération</w> 40995
liqui d 40994
le ver</w> 40993
Ol ym 40991
bom b</w> 40991
t ables</w> 40987
ail les</w> 40979
soli dar 40975
v ements</w> 40960
p eux</w> 40959
elec tric 40957
fr ère</w> 40951
serv ing</w> 40945
mi d- 40942
B is 40932
ali se</w> 40924
terroris m</w> 40919
M aison</w> 40902
F I 40891
separ ate</w> 40891
é mer 40882
em ar 40877
communi ties</w> 40877
sy lv 40872
uti ves</w> 40871
stor m</w> 40851
institu tion</w> 40835
vo ter</w> 40833
kno w 40828
environ mental</w> 40818
sur r 40807
Sp an 40790
organis ations</w> 40787
chec k</w> 40778
pl ants</w> 40777
hou ses</w> 40775
exp ressed</w> 40772
dev ront</w> 40763
trans form 40755
analy stes</w> 40755
ell o</w> 40740
pi èces</w> 40717
B rési 40705
po p</w> 40703
perspec tive</w> 40689
N u 40688
av ier</w> 40687
cô tés</w> 40687
soci ety</w> 40640
sex ual</w> 40636
For ce</w> 40633
vac ances</w> 40629
inter ro 40627
v .</w> 40616
l abor 40605
app ing</w> 40605
qu anti 40581
speci fic</w> 40572
T y 40567
scienti sts</w> 40550
cri tique</w> 40549
tel ep 40544
is land</w> 40498
facili ties</w> 40498
qué béco 40490
af ric 40479
ple ase</w> 40468
we b</w> 40466
at en</w> 40454
vo l</w> 40446
ten d</w> 40446
near by</w> 40442
ent end</w> 40434
ac tors</w> 40432
o red</w> 40430
reas ons</w> 40425
An der 40421
sm aller</w> 40405
el ected</w> 40385
Ph illi 40371
sec urities</w> 40364
P el 40363
An aly 40358
b ad 40356
aut eurs</w> 40356
hur t</w> 40349
Su preme</w> 40346
départ ement</w> 40343
l us 40342
t ellement</w> 40337
h a</w> 40334
Ar m 40332
reve aled</w> 40332
st ret 40330
pl ong 40330
f oun 40329
contem por 40327
e igh 40310
fe es</w> 40281
capac ity</w> 40281
H ong</w> 40280
travail l 40280
fe atures</w> 40278
in ti 40275
cert aine</w> 40263
f are</w> 40242
ap pl 40241
propr es</w> 40236
Ly on</w> 40214
th west</w> 40212
ang ers</w> 40203
j uri 40201
dec re 40190
ci v 40184
pres ence</w> 40175
loc ales</w> 40169
dé légu 40150
R E 40147
it ting</w> 40145
f esti 40143
sen al</w> 40131
reduc ed</w> 40124
A uc 40113
inter p 40113
Pu is</w> 40110
a un 40108
som me</w> 40098
th ème</w> 40084
negoti ations</w> 40083
ur ged</w> 40076
ac le</w> 40068
cham bre</w> 40053
F MI</w> 40041
n ur 40036
de au</w> 40036
ent y</w> 40035
sec ure</w> 40023
médec ins</w> 40020
C F</w> 40014
pic s</w> 40005
performan ces</w> 40003
collabor ation</w> 40001
law makers</w> 39999
dévelop per</w> 39988
challeng es</w> 39977
arri ère</w> 39964
Mid dle</w> 39958
O ver</w> 39951
Liver pool</w> 39941
fres h</w> 39931
D ès</w> 39929
To p</w> 39926
stat us</w> 39923
win do 39923
compl et 39918
i k 39913
fau l 39909
Bl ue</w> 39908
doub t</w> 39908
st ress</w> 39902
cy cle</w> 39896
ou i</w> 39895
F oundation</w> 39882
ad voc 39872
O S 39860
difficul té</w> 39860
sho ts</w> 39857
con sen 39855
b arr 39853
Ab d 39852
spr ing</w> 39823
des ign 39816
s ound</w> 39811
Hen ry</w> 39800
g un</w> 39799
rel ess</w> 39796
V en 39791
Ontari o</w> 39788
b et</w> 39785
commenc er</w> 39785
gar der</w> 39783
cro is</w> 39772
industri al</w> 39771
cultu rel 39770
bur y</w> 39768
comm ence</w> 39765
é par 39761
pro xim 39761
ai des</w> 39741
Mar ine</w> 39741
è que</w> 39733
tent é</w> 39731
Stéph ane</w> 39728
exist ence</w> 39717
conserv ative</w> 39711
prob ablement</w> 39710
Penn sylv 39705
Dev elop 39703
Atl anta</w> 39703
- year-old</w> 39702
commun aut 39701
k rup 39697
E l</w> 39696
vi eux</w> 39691
co ff 39690
inst ance</w> 39686
l uc 39685
ag o 39676
fu tur</w> 39676
n esses</w> 39674
Iran ian</w> 39673
F T 39670
identi té</w> 39670
réf érence</w> 39670
H I 39667
lin ked</w> 39666
K ong</w> 39660
f un</w> 39657
la h</w> 39657
favor able</w> 39653
op pon 39652
D all 39648
D aily</w> 39646
tr om 39645
An ton 39639
J en 39638
D - 39633
tr age</w> 39633
mar ried</w> 39633
fin ding</w> 39626
e- mail</w> 39622
deg ree</w> 39613
eff ets</w> 39603
T M</w> 39602
ilo sop 39596
tradi tion</w> 39593
trai tement</w> 39592
célè bre</w> 39588
gu ard</w> 39572
Cali f</w> 39570
str ic 39531
bo dies</w> 39526
re ality</w> 39518
fi ve- 39518
é preuve</w> 39504
prés ents</w> 39489
quali fi 39468
cre w</w> 39465
com port 39463
Yan ke 39460
Radi o</w> 39459
ent end 39456
f at 39453
H us 39451
sou ght</w> 39451
ent ôt</w> 39450
utilis ation</w> 39436
p air</w> 39435
re command 39429
ér ant</w> 39429
r uled</w> 39427
t ained</w> 39421
l ance</w> 39419
fau te</w> 39415
N H 39407
En ter 39407
ab use</w> 39374
in su 39367
B ach 39365
rap ide</w> 39358
mus ée</w> 39354
promo tion</w> 39354
fel low</w> 39341
graphi e</w> 39338
g ar</w> 39328
Pro gr 39324
mé mo 39313
requ est</w> 39311
Australi an</w> 39307
exp ensive</w> 39305
le agues</w> 39301
t él 39294
pul led</w> 39291
parti sans</w> 39273
Administr ation</w> 39271
ho t</w> 39266
L N 39250
c ap</w> 39249
M A</w> 39244
g li 39241
ur b 39235
stu dies</w> 39229
mon it 39225
f requ 39219
as ion</w> 39212
t aille</w> 39198
g - 39197
plain te</w> 39185
tou ché</w> 39184
fr aud</w> 39175
pro ce 39154
sh ir 39143
gre at 39142
actu al</w> 39139
G illes</w> 39134
qu ait</w> 39111
améric aines</w> 39109
Musli m</w> 39107
N AT 39106
extr ê 39084
ép ouse</w> 39083
direc trice</w> 39079
par avant</w> 39078
in aug 39069
pre h 39063
appro che</w> 39063
post - 39051
holi day</w> 39035
m ad</w> 39030
en th 39029
perf ect</w> 39010
rai d</w> 38988
le- ci</w> 38985
1 1, 38977
inter ests</w> 38973
ti ble</w> 38965
scr utin</w> 38957
fam ous</w> 38950
Col or 38943
néces saires</w> 38928
res cue</w> 38921
diff ic 38910
ex hi 38897
gi ant</w> 38891
H ur 38884
y l 38880
Se con 38868
ti a</w> 38859
mon g</w> 38856
Aug .</w> 38852
stimul us</w> 38852
P S 38847
Hosp ital</w> 38847
p iste</w> 38841
P E 38838
excell ent</w> 38828
min i 38827
w ind</w> 38812
G O 38808
head s</w> 38802
Wh y</w> 38800
représent ant</w> 38798
on e 38787
car rying</w> 38786
Ti me</w> 38778
restaur ants</w> 38774
tot alement</w> 38769
Christ ine</w> 38753
scre en</w> 38744
b at</w> 38726
sum mit</w> 38722
A N</w> 38709
rel ève</w> 38708
ho p</w> 38706
t ack 38688
rése aux</w> 38688
poin te</w> 38676
at mosp 38671
ul er</w> 38666
sou tenir</w> 38660
pic ture</w> 38659
spe aking</w> 38654
repr is</w> 38648
consommat eurs</w> 38647
in str 38644
H igh 38639
r ar 38635
Youn g</w> 38617
élec teurs</w> 38610
pu issance</w> 38607
nom in 38599
utilis er</w> 38599
loc ated</w> 38587
allow s</w> 38587
expan sion</w> 38583
acc ept</w> 38579
gre w</w> 38577
requ ire</w> 38573
in spi 38567
rem bour 38567
imp ôt</w> 38564
pos er</w> 38559
Wh it 38559
An th 38552
end a</w> 38542
Fir st 38541
bl ement</w> 38540
associ ated</w> 38538
rec ev 38535
W el 38530
Exec utive</w> 38526
neigh b 38519
so ins</w> 38514
declar ed</w> 38508
mo bili 38504
v o</w> 38500
résid ence</w> 38500
iv ers</w> 38497
ad en</w> 38489
B ell</w> 38484
Al so</w> 38479
cen tres</w> 38468
t age</w> 38463
Fer n 38450
writ er</w> 38439
R ights</w> 38432
religi ous</w> 38432
o te</w> 38406
eur es</w> 38406
éch app 38390
concl u</w> 38388
d is</w> 38383
Q a 38373
oblig ation</w> 38356
W om 38338
constru ire</w> 38317
determin ed</w> 38315
A mong</w> 38303
ren d</w> 38300
consé quences</w> 38300
un employment</w> 38298
déc ès</w> 38287
élec tricité</w> 38287
oul eur</w> 38286
ari an</w> 38286
b .</w> 38279
thè se</w> 38276
emis sions</w> 38275
p in 38274
com for 38265
cl és</w> 38261
beso ins</w> 38258
établi ssements</w> 38256
financi ères</w> 38251
S ix</w> 38247
cau ses</w> 38242
su me</w> 38240
ret ourn 38235
- based</w> 38232
exec utives</w> 38229
S in 38227
l ande</w> 38217
g ers</w> 38201
ret ail 38193
symp ath 38187
hom mage</w> 38186
vice- président</w> 38183
ad vice</w> 38180
. .</w> 38153
tion ally</w> 38153
L ag 38146
de voir</w> 38129
accep table</w> 38127
B oo 38126
men er</w> 38125
l ying</w> 38123
mé can 38123
num érique</w> 38121
prom ised</w> 38118
as sum 38110
Bu d 38108
Stand ard</w> 38104
Sen ator</w> 38102
A BC</w> 38082
exp lic 38081
gu y</w> 38059
y i 38052
E very 38039
Canadi an</w> 38035
mi que</w> 38030
Roc k</w> 38030
cent re- 38024
mobi lier</w> 38022
ci a</w> 38020
g ay</w> 38017
k et 38010
Sén at</w> 38008
ch i</w> 37997
si x 37997
ty pes</w> 37997
oeu vres</w> 37996
am pl 37955
cul te</w> 37945
P endant</w> 37942
ren seign 37937
m aisons</w> 37933
ré flex 37933
ate g 37931
1 20</w> 37926
re pas</w> 37924
nom mé</w> 37922
B ol 37916
a qu 37909
fé lic 37901
health y</w> 37880
ti rs</w> 37877
govern ments</w> 37877
b ai</w> 37874
C BS</w> 37867
coll ec 37862
Kore an</w> 37859
land ais</w> 37853
wat ching</w> 37852
p ounds</w> 37850
et ings</w> 37847
idé es</w> 37846
U N</w> 37842
esti mates</w> 37836
enti er</w> 37828
impro ved</w> 37812
y n</w> 37800
mon étaire</w> 37797
concer ne</w> 37789
franç aises</w> 37788
ph ilosop 37786
conflic t</w> 37786
invest ments</w> 37782
Color ado</w> 37777
ati n</w> 37769
Par t 37759
ving taine</w> 37753
pas sion</w> 37750
élector ale</w> 37746
establi shed</w> 37733
e yes</w> 37723
val oir</w> 37721
L ev 37714
dis ent</w> 37711
as ing</w> 37704
Améric ains</w> 37703
Mil an</w> 37701
1 3, 37692
off ices</w> 37692
travail le</w> 37689
télé phon 37679
J ord 37674
sc en 37672
dec ide</w> 37669
Ri o</w> 37658
t ap 37657
oc racy</w> 37655
in nings</w> 37652
ak s</w> 37638
proch ains</w> 37637
Hou ston</w> 37634
cer em 37629
individu als</w> 37629
f an</w> 37627
Jon athan</w> 37620
aho o</w> 37615
GA AP</w> 37612
al i</w> 37606
lit tér 37594
cur red</w> 37591
conci li 37590
de urs</w> 37586
gi ble</w> 37584
permet tra</w> 37580
e ye</w> 37563
lu mière</w> 37560
ab eth</w> 37544
Bu reau</w> 37544
écri v 37526
n at 37515
photo graph 37513
procéd ure</w> 37512
libér al</w> 37510
F A</w> 37496
terror ist</w> 37492
cu tting</w> 37491
k er 37485
permet tant</w> 37483
Y ahoo</w> 37478
L yn 37476
adver saire</w> 37473
um p</w> 37468
Go d</w> 37467
re mo 37466
V is 37463
Fré dé 37461
M ol 37444
Pe ti 37444
al ties</w> 37438
I ow 37432
z e 37411
ar en</w> 37402
ir ing</w> 37401
h att 37379
ten nis</w> 37379
we aring</w> 37378
d ite</w> 37376
vi l</w> 37365
organis me</w> 37364
ten sions</w> 37345
quit té</w> 37344
fe ars</w> 37339
B E 37336
sup érieur</w> 37329
r ally</w> 37328
In stead</w> 37322
consé cu 37311
fall ait</w> 37305
ass ault</w> 37296
exac tly</w> 37285
2 3 37278
fin ish</w> 37275
circu m 37273
tr ent 37266
C O</w> 37263
onn ant</w> 37261
di an</w> 37256
allem ande</w> 37254
exp ects</w> 37253
g by</w> 37244
v ê 37244
cou leurs</w> 37243
bat tre</w> 37234
complet ely</w> 37234
s ens 37231
M ir 37220
re ts</w> 37214
a- t-on</w> 37213
h man</w> 37207
fili ale</w> 37204
lin ois</w> 37199
-- --</w> 37198
ful l- 37187
us age</w> 37180
pren ant</w> 37164
res ses</w> 37160
is ode</w> 37158
appro val</w> 37148
t elling</w> 37147
z u</w> 37146
conc ept</w> 37124
forc ement</w> 37104
k ill</w> 37085
de als</w> 37085
P aul 37083
T enn 37082
f low</w> 37080
â gé</w> 37079
De fense</w> 37069
dé cro 37059
199 6</w> 37055
In come</w> 37052
Le g 37052
2, 000</w> 37044
L A</w> 37038
coun ts</w> 37034
protég er</w> 37034
visi ble</w> 37033
2 4 37026
car bon</w> 37011
musi cal</w> 37011
D eu 37008
Eas tern</w> 37006
Vend redi</w> 37004
Bret agne</w> 36995
L ind 36993
Mer kel</w> 36993
com mod 36983
banc aire</w> 36983
or ité</w> 36976
Mon de</w> 36974
reli ef</w> 36970
fermet ure</w> 36970
consi dé 36951
reb elles</w> 36935
alis m</w> 36927
découver te</w> 36926
K r 36923
trans action</w> 36922
B ab 36918
An dy</w> 36912
stat ut</w> 36898
W rit 36897
F BI</w> 36896
aéro port</w> 36893
rais ing</w> 36891
Sar ah</w> 36890
civi le</w> 36887
missi le</w> 36869
cher cher</w> 36863
ap pe</w> 36843
A T</w> 36839
M iller</w> 36825
prépar ation</w> 36820
sav ings</w> 36814
atta ques</w> 36802
rem ember</w> 36796
ap art 36773
Bl an 36769
prot ests</w> 36766
Qa eda</w> 36760
tra fic</w> 36753
œu vre</w> 36751
att endant</w> 36750
Rom ney</w> 36742
déc isions</w> 36735
T our 36732
B lu 36730
gé ant</w> 36713
to x 36711
expli quer</w> 36710
rem ely</w> 36705
atta quant</w> 36701
F il 36695
M et 36694
br inging</w> 36681
con v 36678
b ra 36675
un s</w> 36666
en de</w> 36663
G as 36659
déf enseur</w> 36658
séri es</w> 36658
Beno ît</w> 36629
Anth ony</w> 36626
struggl ing</w> 36624
en vers</w> 36623
auth ority</w> 36606
enregistr é</w> 36590
p auv 36579
mor al</w> 36572
log ement</w> 36572
Ren ault</w> 36569
S um 36566
Su per 36565
m ass 36564
p ér 36563
ate ver</w> 36556
br ain</w> 36541
larg er</w> 36538
dis crimin 36529
Publi shed</w> 36529
ch anc 36528
ver age</w> 36528
C ann 36526
ann uel</w> 36521
R em 36510
situ é</w> 36506
bi entôt</w> 36497
First Call</w> 36497
c ra 36494
ban krup 36480
Chr ys 36480
accep té</w> 36475
Bec ause</w> 36457
R ap 36425
éch ec</w> 36424
conduc t</w> 36410
d d</w> 36407
d ance</w> 36404
Fe b.</w> 36404
pen sion</w> 36396
ec tu 36382
us er</w> 36360
an n</w> 36356
Iow a</w> 36356
qu ées</w> 36355
per su 36355
f low 36354
driv en</w> 36347
my st 36345
Olym pics</w> 36327
Org an 36315
bro ken</w> 36311
h i</w> 36308
physi que</w> 36308
Democr at</w> 36301
Paci fic</w> 36297
ven ues</w> 36290
d den</w> 36258
H ay 36250
victi m</w> 36249
t esting</w> 36240
s ag 36234
az z</w> 36225
head ed</w> 36218
Fo x</w> 36215
Sy ri 36213
f ish</w> 36211
gu it 36207
univers ity</w> 36196
cou pe</w> 36188
seu ls</w> 36187
y ant</w> 36177
. A.</w> 36170
L im 36160
dist inc 36153
U kr 36145
em ic</w> 36136
ext remely</w> 36136
part ners</w> 36132
adh afi</w> 36132
pri or</w> 36113
Min istry</w> 36096
the - 36091
Ch an 36075
L t 36074
it ent</w> 36064
bot tom</w> 36048
C o</w> 36046
D E 36043
Scot tish</w> 36040
pro ve</w> 36035
mo tor 36035
Foo t 36027
s lightly</w> 36019
ver a</w> 36016
t onnes</w> 36012
defe at</w> 36011
Is land</w> 36007
We b 36002
Et ats</w> 36000
Ham ilton</w> 36000
Chrys ler</w> 35998
ti ennent</w> 35995
di um</w> 35994
compl ètement</w> 35990
condu it</w> 35987
re vol 35980
Lib ye</w> 35977
sur es</w> 35966
ak ed</w> 35956
v endre</w> 35951
Asi an</w> 35944
procu reur</w> 35943
confir me</w> 35934
uni ons</w> 35930
Bar cel 35925
S pr 35920
cath oli 35915
ch ans 35914
Il linois</w> 35910
fonc tions</w> 35904
pr ic 35898
mon ter</w> 35893
rè gl 35889
Qu ar 35887
d op 35881
ain ts</w> 35873
sh el 35868
F L</w> 35867
financ ing</w> 35867
present ed</w> 35856
am ents</w> 35855
organiz ations</w> 35845
né anmoins</w> 35844
mag istr 35842
excep tion</w> 35840
increas es</w> 35838
refu se</w> 35836
B es 35834
gol f</w> 35822
ag ric 35818
bo tt 35816
PRNewswire- FirstCall</w> 35806
pal estini 35803
An to 35800
do zen</w> 35782
f air 35780
des truc 35779
C r 35774
clo sing</w> 35770
uni or</w> 35769
pre gn 35757
inter ested</w> 35757
Canadi ens</w> 35757
ho l</w> 35737
int ended</w> 35737
cin qui 35734
ent am 35721
alleg ations</w> 35720
import antes</w> 35718
passeng ers</w> 35716
s low</w> 35715
ral enti 35715
H arry</w> 35712
appar ently</w> 35694
ch - 35691
ér ité</w> 35687
ai med</w> 35684
ali a</w> 35677
atti tude</w> 35676
imp lic 35665
illi on</w> 35658
essenti el</w> 35657
fou le</w> 35651
dis sement</w> 35650
ban de</w> 35650
di vers</w> 35645
w ounded</w> 35639
. -</w> 35638
Man uel</w> 35629
G ul 35625
Direc tor</w> 35621
fem ale</w> 35616
confi é</w> 35613
lic k</w> 35612
st ers</w> 35609
consen sus</w> 35602
b lu 35601
Gér ard</w> 35579
he licop 35576
er ry</w> 35574
li ens</w> 35567
pro file</w> 35557
199 4</w> 35557
un likely</w> 35555
il ement</w> 35555
Qu '</w> 35555
st ake</w> 35551
co c 35551
C iti 35544
célé br 35538
doc tor</w> 35535
Cu ba</w> 35525
F ig 35518
6 0 35508
main tenir</w> 35508
évi demment</w> 35508
Ju li 35492
Fon ds</w> 35490
k ne 35485
cle an</w> 35480
imm eu 35477
me d 35476
au x 35473
col li 35471
ti l 35463
suspec ted</w> 35458
ess ing</w> 35451
W ill</w> 35448
co le</w> 35445
to s</w> 35437
D S</w> 35409
bat ter 35406
in ent</w> 35400
ou l</w> 35394
Char est</w> 35394
my self</w> 35390
Fin ance</w> 35385
hi e</w> 35373
ay - 35369
ic ations</w> 35362
év acu 35361
incen die</w> 35355
cre ating</w> 35349
exp ression</w> 35344
es té</w> 35343
out standing</w> 35343
telep hone</w> 35343
is tique</w> 35335
â teau</w> 35320
s él 35318
sou tenu</w> 35316
Ro ad</w> 35301
rej ected</w> 35301
ann y</w> 35300
eas ily</w> 35298
studi o</w> 35292
z aine</w> 35289
appropri ate</w> 35288
S pi 35287
lé gi 35282
Bel gique</w> 35271
U r 35270
catég orie</w> 35267
Philadelphi a</w> 35266
démocr atie</w> 35263
ten sion</w> 35259
i Phone</w> 35242
B CE</w> 35238
proc ed 35230
libér ation</w> 35228
Stan ley</w> 35224
Pennsylv ania</w> 35219
infrastruc ture</w> 35213
1 4, 35202
s que</w> 35197
critic ism</w> 35197
ul l</w> 35194
exper tise</w> 35184
charac ter</w> 35179
immedi ate</w> 35177
ti ll 35176
competi tive</w> 35172
solidar ité</w> 35171
me etings</w> 35168
lanc ement</w> 35168
ay a</w> 35162
comb ined</w> 35155
j ail</w> 35153
fic es</w> 35142
ill ustr 35141
A A</w> 35139
P y 35135
par king</w> 35129
div or 35129
off s</w> 35128
pr ennent</w> 35121
port fo 35121
li min 35120
pres cri 35113
ter mes</w> 35100
ag s</w> 35098
K ab 35095
g all 35087
c ée</w> 35085
1 2. 35072
P C</w> 35071
Zim bab 35071
H amp 35060
Institu t</w> 35059
fashi on</w> 35051
jeun esse</w> 35045
e- t-il</w> 35028
sil ence</w> 35027
forec ast</w> 35025
au- delà</w> 35018
C a 35014
pro positions</w> 35010
Pakist ani</w> 35000
f êtes</w> 34999
confi dent</w> 34993
Re port</w> 34979
Christop he</w> 34968
R C</w> 34967
cru cial</w> 34959
MP s</w> 34950
end um</w> 34949
Ch airman</w> 34939
L I 34935
élec tron 34922
wid ely</w> 34912
prosecut ors</w> 34905
A B 34899
cro ss</w> 34885
coll ectif</w> 34878
stru gg 34870
vo irs</w> 34869
car di 34863
organis ée</w> 34861
i ors</w> 34857
H is 34854
ing éni 34854
gener ally</w> 34839
buil dings</w> 34837
j ad</w> 34836
aw ard</w> 34819
déf endre</w> 34808
minist ers</w> 34807
main tien</w> 34804
ég alité</w> 34802
star ts</w> 34796
J ason</w> 34795
patri moine</w> 34789
Cath erine</w> 34775
201 5</w> 34765
alli es</w> 34755
Ah mad 34742
régi onal</w> 34740
sor ti</w> 34739
engag é</w> 34735
adop tion</w> 34733
cinqui ème</w> 34706
con i</w> 34702
In t 34699
vé cu</w> 34698
Pro duc 34695
Pit ts 34693
dis positif</w> 34691
gu ide</w> 34685
or g</w> 34680
chan son</w> 34665
D al 34662
priv ée</w> 34655
bri ef 34650
P ent 34649
au to</w> 34648
Feder er</w> 34647
éd it 34646
Gu ill 34643
sugg est</w> 34639
me tho 34637
ap point 34636
réguli èrement</w> 34635
i h 34634
fac tion</w> 34630
threat ened</w> 34613
N ation 34612
A ra 34607
par liament</w> 34604
hom e 34599
may be</w> 34594
Pro t 34592
susp ension</w> 34589
Mar y 34584
eli min 34584
politici ans</w> 34584
réf ér 34582
it a</w> 34577
f ü 34570
batt u</w> 34570
ach eter</w> 34567
é die</w> 34564
M is 34554
ét o 34553
log ements</w> 34550
hop ing</w> 34549
T S</w> 34547
C ir 34547
per centage</w> 34537
adv anced</w> 34535
deli very</w> 34524
V ene 34512
ass is 34512
bas ic</w> 34506
impos er</w> 34496
hom o 34487
s an</w> 34464
C ru 34463
par quet</w> 34463
L an 34462
dé fil 34453
B il 34448
d as</w> 34444
ren trée</w> 34442
streng th</w> 34440
séri eux</w> 34434
col leagues</w> 34428
m am 34422
Don ald</w> 34422
conduc ted</w> 34421
St ar 34419
co ord 34418
s oul 34416
Ve gas</w> 34413
an tique</w> 34406
A gr 34400
v ité</w> 34397
prot est</w> 34396
Th é 34394
ti ed</w> 34367
régl ement 34364
pré occup 34363
physi cal</w> 34358
e in</w> 34353
chang ing</w> 34350
Ou est</w> 34324
arr on 34317
em ph 34304
br ut 34299
cher che</w> 34298
O k 34284
All en</w> 34276
ro oms</w> 34274
lign es</w> 34260
How ard</w> 34260
trad u 34248
mémo ire</w> 34246
at in 34245
gr y</w> 34240
pi eds</w> 34240
possi bility</w> 34240
dé plac 34239
chang ements</w> 34232
ho sti 34227
tour isme</w> 34221
im pose</w> 34210
M é 34209
L E 34208
marg in</w> 34206
tr and</w> 34205
An ge 34198
ac tes</w> 34197
P ap 34194
Georg es</w> 34190
introduc ed</w> 34186
médec in</w> 34185
H ond 34174
poss ession</w> 34174
cri tiques</w> 34170
Frédé ric</w> 34161
utilis é</w> 34157
Be fore</w> 34156
scén ario</w> 34156
consider ing</w> 34152
am oun 34151
ho le</w> 34142
tis me</w> 34135
R ic 34128
interp ell 34122
in cl 34118
prépar er</w> 34101
l eng 34100
Jean- Pierre</w> 34099
multi pli 34097
Min nes 34093
u tions</w> 34092
stre am</w> 34092
it ement</w> 34075
économ ies</w> 34070
én om 34064
et n 34055
o dy</w> 34051
off ert</w> 34041
proxim ité</w> 34036
Wil son</w> 34031
K adhafi</w> 34027
L as</w> 34024
Li ke</w> 34024
sond age</w> 34024
fu gi 34012
sever e</w> 34007
On ly</w> 34004
argu ment</w> 33993
si x- 33988
se ats</w> 33988
Ch e 33983
Bro ad 33972
d ates</w> 33970
susp ici 33969
hal f- 33962
déclar ation</w> 33956
pour su 33954
prof iter</w> 33954
li sted</w> 33948
chan tier</w> 33945
visit ors</w> 33944
pic ked</w> 33943
travail lé</w> 33941
ren contrer</w> 33938
Pas cal</w> 33933
écr an</w> 33929
de puty</w> 33928
assist ant</w> 33925
wor ried</w> 33922
at o</w> 33919
ret ard</w> 33918
b it 33911
contro vers 33905
stor ies</w> 33894
conn aissance</w> 33885
G ates</w> 33874
cour ts</w> 33868
manufactur ing</w> 33865
T I 33858
co équi 33850
Dall as</w> 33850
Ju dge</w> 33846
dé es</w> 33844
recor ded</w> 33831
sub i</w> 33829
cent aine</w> 33824
Fer r 33819
s ée</w> 33816
t to</w> 33814
read ing</w> 33812
citi zens</w> 33811
sw it 33807
sup ported</w> 33804
bloc k</w> 33799
lear ned</w> 33790
poll s</w> 33788
know le 33787
Al g 33779
dét ails</w> 33775
T rembl 33760
Jean- François</w> 33758
er reur</w> 33755
subsi di 33753
Mat t</w> 33751
c œur</w> 33747
ti ères</w> 33746
G ames</w> 33745
we ar</w> 33744
sk i 33742
ag i</w> 33730
princip ale</w> 33721
dossi ers</w> 33721
ell i</w> 33714
T ai 33710
chans ons</w> 33706
1 1. 33703
mis s 33699
bre aking</w> 33690
trans fer 33673
Pitts burgh</w> 33669
ent ered</w> 33664
Braz il</w> 33662
Ro d 33658
alli ance</w> 33656
ressi onal</w> 33652
neg ative</w> 33644
al a</w> 33642
men ée</w> 33640
co ast</w> 33620
rou tes</w> 33620
quel qu'</w> 33615
Pour tant</w> 33612
t t</w> 33608
d ding</w> 33605
loc ations</w> 33605
blo g</w> 33591
ai t-il</w> 33589
Moh amed</w> 33587
D I 33585
b en</w> 33584
oubli er</w> 33575
analy sis</w> 33570
Por t 33570
sc ul 33568
fl éch 33565
mar ch 33561
Man hatt 33558
rê ve</w> 33554
contr acts</w> 33544
re presents</w> 33540
impres si 33539
ail ing</w> 33535
ac ité</w> 33534
G on 33530
aut onom 33518
e ast</w> 33512
cour ses</w> 33507
R ac 33501
g agne</w> 33498
secon des</w> 33494
Su p 33491
N on</w> 33487
Pé kin</w> 33484
B N 33483
wal ked</w> 33483
bal le</w> 33481
un ité</w> 33480
ig ner</w> 33476
innov ation</w> 33474
ys ée</w> 33472
ac ad 33470
bas eball</w> 33464
b ond</w> 33461
s y</w> 33458
F ol 33455
mauv aise</w> 33448
big ger</w> 33440
S or 33437
H ere</w> 33422
L it 33413
we alth</w> 33412
vo ting</w> 33411
te z</w> 33399
ju sted</w> 33397
Minnes ota</w> 33393
génér ation</w> 33390
do is</w> 33388
Jus qu'</w> 33388
dé placement</w> 33385
Gre at</w> 33379
relati vely</w> 33377
grand - 33366
R af 33354
milit ant</w> 33348
un able</w> 33346
Ch urch</w> 33343
in e- 33342
sal aire</w> 33338
avoc ats</w> 33337
se as</w> 33331
rece voir</w> 33326
f ly</w> 33321
e v</w> 33319
N ick</w> 33316
é changes</w> 33306
ou x</w> 33301
dic t 33296
Mari o</w> 33280
D ie</w> 33278
dispu te</w> 33275
to w 33274
am end 33265
quoti di 33264
vi gueur</w> 33262
M ili 33247
collap se</w> 33246
r ent 33241
Sp ace</w> 33238
cor ner</w> 33236
s age</w> 33226
cont am 33225
découver t</w> 33217
ph énom 33208
p è 33205
pro p 33205
in son</w> 33204
vi r</w> 33197
wr ite</w> 33190
l au 33176
dra wn</w> 33176
o ther 33174
C C</w> 33166
sec teurs</w> 33160
ap porter</w> 33152
Eur o 33149
v ités</w> 33146
P .</w> 33134
conserv ateur</w> 33130
Span ish</w> 33120
go ût</w> 33094
Manhatt an</w> 33094
h r 33093
recu e 33083
n or</w> 33082
M rs</w> 33081
rass emb 33078
mati ques</w> 33076
ra f</w> 33073
Sh an 33072
In formation</w> 33062
qu ette</w> 33058
Fr ont</w> 33055
au paravant</w> 33051
civili ans</w> 33042
ine jad</w> 33041
multi ple</w> 33041
l er 33028
professionn elle</w> 33023
enc ad 33022
determin e</w> 33019
condu ite</w> 33013
atten te</w> 33012
conn ection</w> 33011
Vic tori 33009
cl é</w> 33007
in cidents</w> 33006
di vers 33000
D V 32999
eu ve</w> 32994
Christ mas</w> 32989
tic ket</w> 32986
effectu é</w> 32984
W oods</w> 32983
strate gic</w> 32979
ther e 32977
. org</w> 32967
po ses</w> 32967
g ement</w> 32959
Com m 32959
e ful</w> 32956
E ducation</w> 32955
Em plo 32955
Pour quoi</w> 32955
Ro dri 32954
2 7 32952
capit aine</w> 32951
déf i</w> 32948
C at 32947
w ins</w> 32947
ten ance</w> 32941
R I 32939
Ed wards</w> 32937
pay ment</w> 32934
re ques 32929
b ans</w> 32927
investig ators</w> 32923
ré mun 32911
el ines</w> 32909
ter ont</w> 32905
Brési l</w> 32898
p ts</w> 32893
parlement aire</w> 32889
cin qu 32888
li fe 32871
c ateg 32859
Die go</w> 32854
6 e</w> 32852
port ent</w> 32851
Yanke es</w> 32846
fall en</w> 32842
G h 32840
Grou pe</w> 32838
cherch eurs</w> 32831
offici ellement</w> 32828
ag ré 32825
I ris 32822
v it</w> 32815
att ers</w> 32793
sugg ests</w> 32790
M on</w> 32788
du r</w> 32783
int ell 32782
Up dated</w> 32777
sor tant</w> 32774
ab solu 32766
produ ire</w> 32765
suff ering</w> 32756
tou che</w> 32755
dur able</w> 32753
main tain</w> 32750
soci ales</w> 32747
A z 32743
religi on</w> 32737
car ds</w> 32734
do gs</w> 32731
p ace</w> 32724
r ay 32723
Ara b</w> 32715
rass embl 32707
9 00</w> 32705
Ber lus 32702
ver ing</w> 32693
itali en</w> 32692
anim ation</w> 32681
val ues</w> 32680
ti an</w> 32665
1 2- 32663
r oul 32658
he ar 32654
comm is</w> 32643
anim als</w> 32624
fe wer</w> 32620
Su per</w> 32617
h eur</w> 32602
Ahmad inejad</w> 32602
perman ent</w> 32595
H E 32590
F illon</w> 32587
sti tue</w> 32587
ç ait</w> 32583
dest ination</w> 32582
Ar t</w> 32580
To y 32575
L .</w> 32568
preu ves</w> 32564
Ye ar</w> 32564
immédi atement</w> 32563
Sy st 32562
f arm 32548
off res</w> 32543
t cy</w> 32537
gu ys</w> 32536
dem i</w> 32525
Ch aque</w> 32509
et ary</w> 32502
pass ée</w> 32499
inter prét 32493
Berlus coni</w> 32483
t ary</w> 32470
qu ête</w> 32470
circum st 32462
k ir 32460
H arr 32456
dem andes</w> 32448
C ent 32438
off er 32420
olympi que</w> 32420
rec ettes</w> 32417
trans actions</w> 32410
a tr 32390
plat form</w> 32385
ving t</w> 32381
équi libre</w> 32377
sec ours</w> 32375
g ars</w> 32374
sing er</w> 32370
se es</w> 32366
sac ri 32366
H ier</w> 32363
nécess ité</w> 32355
un its</w> 32346
av ant- 32323
spéci aliste</w> 32322
volun te 32322
In de</w> 32321
tu és</w> 32318
gg ed</w> 32314
les quels</w> 32313
rap proch 32308
clo ser</w> 32308
pê che</w> 32304
LN H</w> 32303
W it 32292
dis h</w> 32288
M ali 32286
ut ely</w> 32285
Offic er</w> 32284
lim ite</w> 32277
mé tier</w> 32271
br ut</w> 32263
p ers</w> 32262
M iss</w> 32250
mis s</w> 32248
deli vered</w> 32245
R angers</w> 32238
al sac 32232
er ous</w> 32230
Ar ch 32228
M S</w> 32221
p â 32213
cri ti 32201
ag an</w> 32200
Val ley</w> 32192
acti onnaires</w> 32191
T C</w> 32184
rencontr é</w> 32184
ge ant</w> 32171
initi atives</w> 32159
ati cally</w> 32148
ré ci 32148
vain queur</w> 32145
Vene zu 32143
li p</w> 32142
bat aille</w> 32138
coun ty</w> 32136
s .com</w> 32134
F al 32129
I II</w> 32124
T re 32114
s ch</w> 32104
B all 32098
experi enced</w> 32094
p es 32093
Mosco u</w> 32093
encour age</w> 32092
eth ni 32090
Som e 32084
lim it</w> 32083
est- ce</w> 32083
sen ator</w> 32079
seri ously</w> 32075
de ficit</w> 32072
has n</w> 32072
e in 32069
oper ate</w> 32067
we igh 32066
ambi ance</w> 32051
6- 3</w> 32050
so - 32040
P res 32025
Tr ust</w> 32021
c ells</w> 32018
f illed</w> 32016
el la</w> 32016
alleg edly</w> 32013
p - 32009
Res erve</w> 32009
k i 32007
b acks</w> 31998
signific antly</w> 31996
sit ting</w> 31994
stoc k 31984
d l 31977
reç o 31975
mo indre</w> 31969
Go v.</w> 31961
Portu gal</w> 31953
F ur 31938
am ateurs</w> 31932
our ce</w> 31923
eur o 31920
la x 31908
imp ôts</w> 31906
ri gh 31901
é missions</w> 31900
G ard 31896
ré formes</w> 31881
for tement</w> 31881
N FL</w> 31879
command er</w> 31876
it ely</w> 31869
A vi 31868
bur n</w> 31866
ter ing</w> 31863
Ber trand</w> 31859
clai rement</w> 31844
cri tics</w> 31843
3, 000</w> 31840
fron tière</w> 31833
T VA</w> 31827
présent ation</w> 31818
inten se</w> 31812
1- 0</w> 31795
f aux</w> 31793
am o</w> 31789
è n 31777
A G 31769
pres ti 31743
ven ait</w> 31740
Brun o</w> 31738
renforc er</w> 31735
reti red</w> 31729
L é 31728
En tre</w> 31728
comb att 31722
part age</w> 31714
onn a</w> 31710
ambi ti 31710
g ent</w> 31709
Al ber 31692
ing ue</w> 31691
un less</w> 31681
Soci ety</w> 31681
Cham bre</w> 31674
fin ancer</w> 31668
ag issait</w> 31664
l ending</w> 31663
T am 31662
ple ased</w> 31662
a poli 31659
on able</w> 31659
as tron 31659
ch ré 31653
se where</w> 31626
ph r 31625
re trait</w> 31624
B O 31609
Al an</w> 31606
b i</w> 31604
aff ect</w> 31602
Lav al</w> 31596
20 - 31594
o graphi 31590
ajou ter</w> 31587
fin dings</w> 31586
h air</w> 31575
scri ption</w> 31575
ic ks</w> 31570
youn ger</w> 31567
hand ed</w> 31560
ag en</w> 31559
per tes</w> 31551
bas tien</w> 31545
propri étaires</w> 31545
Mar k 31540
dis position</w> 31534
app ell 31523
L et 31520
o des</w> 31516
publi sh 31516
Pa tri 31511
ét er</w> 31505
le g</w> 31504
S ony</w> 31499
ah n</w> 31496
fru its</w> 31495
gri m 31490
trai ts</w> 31487
Lt d</w> 31484
Vi etn 31482
199 2</w> 31477
e fs</w> 31473
Sou thern</w> 31473
ré cl 31471
con stitue</w> 31469
aff ord</w> 31468
eur - 31461
mon tée</w> 31451
ag enda</w> 31448
ti rer</w> 31445
driv ers</w> 31442
s élection</w> 31440
F our</w> 31427
ré jou 31427
ur ing</w> 31426
ep tion</w> 31426
n és</w> 31424
renouv el 31422
D o</w> 31416
Pho to</w> 31416
ac qui 31415
ob st 31403
fav oris 31401
rem pli 31390
intell ectu 31387
curr ency</w> 31381
Ar senal</w> 31380
satel lite</w> 31372
push ed</w> 31368
sim ul 31365
mu tu 31365
fin als</w> 31355
vis age</w> 31355
att acked</w> 31355
cham p</w> 31352
p son</w> 31347
F und</w> 31346
la di 31345
h ori 31344
prim aire</w> 31336
dre w</w> 31331
bir th</w> 31325
insis ted</w> 31321
J eudi</w> 31318
pré visions</w> 31306
inv ités</w> 31305
In don 31303
argu ed</w> 31300
gén é 31290
C rai 31286
r ural</w> 31278
dan se</w> 31273
Alli ance</w> 31266
discipl ine</w> 31265
Develop ment</w> 31264
F 1</w> 31263
han dic 31261
M I 31260
foun der</w> 31251
c ant 31250
exclu si 31247
V ice</w> 31245
l ecture</w> 31241
8 e</w> 31241
Ander son</w> 31238
re joindre</w> 31228
Toy ota</w> 31226
Car los</w> 31223
end ront</w> 31222
bu yers</w> 31222
voc ation</w> 31218
prior ité</w> 31217
oc curred</w> 31216
com preh 31214
dis pens 31214
invol ving</w> 31214
he im 31209
chant eur</w> 31204
un anim 31203
kid n 31203
Tur key</w> 31198
ti endra</w> 31196
T ru 31188
PD G</w> 31187
s ong</w> 31184
tro poli 31176
écar t</w> 31176
L and 31169
h an</w> 31168
dé cri 31167
K ing 31159
rédu it</w> 31159
friend ly</w> 31158
Bo eing</w> 31154
a f</w> 31152
C D</w> 31150
1 6, 31149
dev ices</w> 31149
cho c</w> 31141
ash es</w> 31134
Mar di</w> 31125
arrê ter</w> 31124
plan ète</w> 31122
D ow 31119
Ri vi 31117
reg ard 31114
H O 31112
au- dessus</w> 31110
H a 31102
h all</w> 31099
pl i</w> 31094
candid ature</w> 31092
ress ing</w> 31091
ali gn 31084
Hum an</w> 31083
meur tre</w> 31070
p éd 31053
ti gh 31043
mat inée</w> 31029
dé tru 31028
ir d</w> 31028
sh ore</w> 31028
achi eve</w> 31028
te- t-il</w> 31015
f oul 31010
tion ed</w> 31002
the ast</w> 30997
prim arily</w> 30996
vis é</w> 30990
tent ative</w> 30974
exc ept</w> 30956
Au x</w> 30951
Con cer 30949
Se ver 30944
mas s</w> 30937
Wi th 30912
bar re</w> 30900
exécu tif</w> 30895
cam ps</w> 30892
tt en</w> 30888
ass et</w> 30886
D C</w> 30881
Wh o</w> 30880
vers er</w> 30877
public ly</w> 30863
knowle dge</w> 30863
pap e</w> 30858
6- 4</w> 30847
F ood</w> 30845
et ts</w> 30844
ri el</w> 30841
survi v 30840
g oods</w> 30833
complex e</w> 30816
shop ping</w> 30815
bo w 30812
réc ession</w> 30812
r and 30802
clo sely</w> 30796
her self</w> 30790
occas ions</w> 30788
sél ecti 30788
tou ch</w> 30787
dem eur 30782
st ages</w> 30778
qu ick</w> 30777
di ab 30763
favor ite</w> 30763
li és</w> 30762
in sul 30759
Ri ver</w> 30758
Ad am</w> 30748
nom ine 30743
ne ige</w> 30740
dem ocracy</w> 30734
mat ern 30720
par ent</w> 30703
déc en 30700
b is 30693
M ain 30692
indus tries</w> 30690
r h 30676
down turn</w> 30675
emb our 30674
im mobilier</w> 30668
th ly</w> 30654
M en 30645
s ister</w> 30643
mar i</w> 30629
nom s</w> 30621
2- 1</w> 30618
re grou 30617
cru de</w> 30616
On ce</w> 30610
199 3</w> 30606
V anc 30594
bas es</w> 30593
av enture</w> 30592
S qu 30591
B au 30583
sign er</w> 30580
ir y</w> 30577
w art</w> 30571
inter pr 30565
profession nel</w> 30560
Ray mond</w> 30559
T - 30557
coup les</w> 30554
sau f</w> 30545
trou pes</w> 30543
sup érieure</w> 30541
C ash</w> 30539
re moved</w> 30523
fédér ale</w> 30522
di vi 30519
on going</w> 30513
démocr ate</w> 30510
ch oc 30503
bo at</w> 30500
er o</w> 30495
u k</w> 30494
g ang</w> 30482
dirige ant</w> 30475
enter tainment</w> 30475
possi bly</w> 30464
auth ori 30461
happ ens</w> 30458
cont re 30450
clim at</w> 30450
Mus har 30436
teach ers</w> 30421
law suit</w> 30417
Nad al</w> 30414
démocr atique</w> 30413
Ear lier</w> 30408
pe ace 30406
N BC</w> 30400
dépos é</w> 30396
québéco ise</w> 30394
mas si 30392
ég ard</w> 30389
B est</w> 30387
N ancy</w> 30382
adop té</w> 30382
as i 30374
de dic 30372
t ours</w> 30366
Musi c</w> 30363
portfo lio</w> 30363
Mosco w</w> 30360
F ace</w> 30359
dar k</w> 30358
in al</w> 30355
Mushar raf</w> 30352
Thi erry</w> 30347
b ills</w> 30346
ou e</w> 30346
Mar y</w> 30340
198 0</w> 30338
propos als</w> 30331
sc oring</w> 30329
clin ical</w> 30319
fe ature</w> 30318
tourn er</w> 30315
de aux</w> 30313
NAT O</w> 30308
extrê mement</w> 30300
comman des</w> 30296
appar eil</w> 30295
Eur o</w> 30288
famili ar</w> 30287
we ak</w> 30285
cap tain</w> 30278
calend rier</w> 30271
gh ly</w> 30262
vis ed</w> 30258
gro wn</w> 30252
y ens</w> 30248
propos er</w> 30248
G all 30245
in dem 30245
p in</w> 30239
may or</w> 30238
A - 30233
att entes</w> 30230
st y 30226
Iris h</w> 30215
ni ce</w> 30212
e ine</w> 30208
ro i</w> 30206
Ren é</w> 30201
caract ère</w> 30200
personn age</w> 30195
vic toires</w> 30194
emb au 30191
end ers</w> 30189
emer ged</w> 30189
tem per 30183
Fran k 30172
targ ets</w> 30164
maj eur</w> 30155
ci ble</w> 30144
us al 30144
provi der</w> 30137
en forcement</w> 30128
emb arr 30124
sol eil</w> 30119
accep ted</w> 30118
Pho en 30113
et erre</w> 30109
az i</w> 30108
Rou ge</w> 30108
l en</w> 30103
prob able</w> 30098
b one</w> 30081
lead s</w> 30080
sett lement</w> 30074
Ni k 30067
b ol 30065
ved ette</w> 30063
3 0- 30060
y cl 30058
Ste ven</w> 30058
organis er</w> 30057
attent at</w> 30054
exp and</w> 30051
regi me</w> 30036
Anto ine</w> 30034
nav ig 30033
co o 30031
pit ch</w> 30029
Mar ois</w> 30025
D an</w> 30023
cour age</w> 30022
circumst ances</w> 30018
Franc is</w> 30014
enquê teurs</w> 30014
fonctionn ement</w> 30012
In de 30008
c ks</w> 30005
S how</w> 30004
fr ères</w> 30004
législ atives</w> 29999
suppli es</w> 29986
inaug ur 29977
thir d- 29970
air line</w> 29969
identi fy</w> 29967
Lu ci 29955
Ch o 29954
at t</w> 29951
adul ts</w> 29949
révél é</w> 29940
Tu be</w> 29934
S I 29929
tionn els</w> 29917
E B 29911
broad cast</w> 29910
Quel ques</w> 29903
Kel ly</w> 29898
Je ff</w> 29889
accueilli r</w> 29881
ré serve</w> 29880
soup ç 29875
b elles</w> 29864
ter ait</w> 29858
rou gh</w> 29858
re place</w> 29855
expl ained</w> 29852
Jean- Marc</w> 29848
municip alité</w> 29846
ist ant</w> 29834
D ut 29831
mat ely</w> 29821
Angl eterre</w> 29820
m él 29819
Int érieur</w> 29819
m ale</w> 29818
oll ah</w> 29815
adv ance</w> 29815
F O 29810
Dé fense</w> 29808
controll ed</w> 29807
déclar ations</w> 29798
manag ers</w> 29795
olog ist</w> 29790
Techn ology</w> 29789
de vice</w> 29788
Ange la</w> 29782
moder n 29768
Pow er</w> 29758
bankrup tcy</w> 29755
ver dict</w> 29753
San té</w> 29753
Re public</w> 29752
cerem ony</w> 29745
or row</w> 29743
h en</w> 29742
v ague</w> 29741
ide as</w> 29741
Ira k</w> 29737
P resse</w> 29732
f lights</w> 29730
h o</w> 29727
vari ety</w> 29724
Di eu</w> 29723
ch ain</w> 29722
ext ended</w> 29722
sh ut 29712
Jean- Claude</w> 29708
pr oud</w> 29695
repor ter</w> 29690
AN G 29689
ti ré</w> 29676
e ils</w> 29673
O w 29670
z o 29665
E st- 29655
ach us 29650
il ing</w> 29645
1 1- 29638
wel come</w> 29636
Net work</w> 29628
li ter 29627
Mar ia</w> 29626
esti ment</w> 29624
quali fié</w> 29624
app els</w> 29610
n aissance</w> 29609
produc teurs</w> 29609
f ê 29607
C I</w> 29605
à- dire</w> 29604
susp ended</w> 29602
gg ing</w> 29595
st a</w> 29594
fran cop 29573
fi er 29570
dis ant</w> 29562
évo qué</w> 29561
recher ches</w> 29557
est- à-dire</w> 29555
f ill</w> 29552
six th</w> 29546
hop ed</w> 29544
imm igrants</w> 29543
comfor table</w> 29531
Chil dren</w> 29530
convers ation</w> 29528
L eur</w> 29523
fond ateur</w> 29520
Sto ck</w> 29513
c able</w> 29505
pro ved</w> 29494
bro oke</w> 29493
Mass achus 29485
stu ff</w> 29481
produc er</w> 29470
de p 29464
A ma 29458
R and 29455
Bu t 29454
T S 29451
ang u 29451
vou dr 29451
F is 29449
ét ab 29449
en tion</w> 29446
int ég 29446
u li 29442
diffic iles</w> 29441
S av 29440
Tou tefois</w> 29432
musul mans</w> 29431
Bu ff 29427
alis ed</w> 29421
ju dges</w> 29420
wat ched</w> 29418
de vi 29416
di ble</w> 29415
N BA</w> 29414
ir ani 29413
M C</w> 29412
Trembl ay</w> 29409
R .</w> 29399
un ivers</w> 29399
com prend</w> 29390
e es</w> 29389
sk ills</w> 29380
mean ing</w> 29379
on i 29377
Al aska</w> 29374
situ ations</w> 29365
C lev 29360
F ort</w> 29351
po t</w> 29351
trent aine</w> 29343
Au tre</w> 29336
lin k</w> 29328
l o</w> 29327
per d</w> 29322
pu iss 29316
Thom pson</w> 29316
reconn aît</w> 29310
ch air</w> 29307
con ce 29301
po ver 29293
Per s 29291
tiv ité</w> 29291
Phoen ix</w> 29290
W ell</w> 29287
ar de</w> 29275
L at 29269
Offici als</w> 29266
it z 29256
E .</w> 29255
rom an</w> 29247
lo ad</w> 29243
entre vue</w> 29243
win ter</w> 29240
con science</w> 29237
conserv ateurs</w> 29237
matéri el</w> 29237
inv ité</w> 29234
proper ties</w> 29220
offici el</w> 29210
Alexand re</w> 29210
ann ing</w> 29208
Gi b 29206
squ are</w> 29202
pic tures</w> 29200
catastrop he</w> 29199
cri tici 29198
choo se</w> 29196
Su b 29194
men tion</w> 29193
ges te</w> 29188
fisc ale</w> 29188
Sp eci 29177
Mer credi</w> 29174
enseign ement</w> 29170
coll ective</w> 29169
provo qué</w> 29168
P L 29165
CI A</w> 29165
Ser ies</w> 29163
cir const 29163
ai da</w> 29161
con vi 29157
regis tered</w> 29157
bless ure</w> 29155
initi ally</w> 29149
fu tures</w> 29147
our i</w> 29145
envir onn 29144
lev é</w> 29137
I an</w> 29129
bl ue</w> 29125
p lic 29124
T élé 29122
alis és</w> 29120
wal king</w> 29114
commis saire</w> 29110
y é</w> 29109
heu reusement</w> 29102
fl at</w> 29100
Air bus</w> 29100
Vanc ouver</w> 29100
de ep 29098
él ève</w> 29097
ten ait</w> 29095
b al</w> 29093
Sé bastien</w> 29087
S un</w> 29082
der ing</w> 29082
ve y</w> 29081
Que en</w> 29081
Jo se</w> 29078
conclu sion</w> 29069
def ence</w> 29068
Ch ap 29047
B ris 29046
qu e 29044
199 1</w> 29039
empê cher</w> 29037
R ice</w> 29029
e at</w> 29021
sign ature</w> 29021
è vement</w> 29018
writ ers</w> 29016
se z</w> 29015
tic kets</w> 29008
apart ment</w> 29008
gu ez</w> 29006
cont re- 29005
emb ly</w> 29004
sal on</w> 29003
uni quement</w> 28997
pré venu</w> 28991
restric tions</w> 28989
ro ads</w> 28982
sal aires</w> 28977
D S 28974
emb ar 28965
electric ity</w> 28963
cust ody</w> 28962
aff ili 28959
re mer 28955
ille ts</w> 28952
prof ité</w> 28943
1, 5</w> 28941
heav ily</w> 28941
it z</w> 28931
vo té</w> 28931
7 0 28926
shar ed</w> 28923
iss ons</w> 28921
ev alu 28919
C - 28907
ess ay 28902
it age</w> 28901
pl ed 28895
mar ks</w> 28894
au f</w> 28893
bi ens</w> 28889
extr ême</w> 28888
indic ated</w> 28888
1 5, 28886
flex i 28882
Wat ch</w> 28874
sh oul 28872
Un i</w> 28865
s ending</w> 28863
s son</w> 28860
2- 0</w> 28856
administr ative</w> 28855
concili ation</w> 28855
ecti ves</w> 28854
shi ft</w> 28851
o re 28846
gé rer</w> 28846
table au</w> 28836
3 50</w> 28833
ir o</w> 28829
eas ier</w> 28826
Inv esti 28823
cuis ine</w> 28823
c ali 28822
health care</w> 28821
organis ateurs</w> 28820
ko vic</w> 28820
imag ine</w> 28820
p act</w> 28813
di men 28812
ins cr 28812
améli oration</w> 28810
emph as 28809
H 00</w> 28807
ep ing</w> 28805
reti rement</w> 28804
IN G</w> 28803
re duction</w> 28802
ser vir</w> 28797
install ation</w> 28794
part nership</w> 28782
under standing</w> 28780
ch auss 28779
ra dic 28779
O ld</w> 28774
ur ban</w> 28765
sem i- 28765
Ear th</w> 28754
eng age</w> 28753
Pri ce</w> 28753
R O 28746
Clev eland</w> 28742
net works</w> 28737
pl a 28732
enn y</w> 28732
F ree</w> 28730
th es</w> 28730
S ach 28727
acc ur 28726
Massachus etts</w> 28722
histor ic</w> 28715
sy ri 28703
is ent</w> 28702
Qu i</w> 28700
J eff 28697
du ty</w> 28696
pé ti 28690
acknowle dged</w> 28688
én ér 28677
Con stitution</w> 28673
béné vo 28666
15 - 28665
t ask</w> 28664
15 . 28663
O il</w> 28657
bure aux</w> 28656
Asi e</w> 28655
other wise</w> 28649
U l 28645
vo ient</w> 28643
P riv 28640
sen iors</w> 28637
Mon di 28632
ass é</w> 28630
regul atory</w> 28627
is ant</w> 28624
dev ons</w> 28618
Con grès</w> 28608
suc ce 28608
regar ding</w> 28604
Math i 28602
l ap 28597
r on</w> 28595
agricul ture</w> 28595
ét ér 28589
For mer</w> 28583
ci gar 28577
17 , 28576
tr é</w> 28574
psy chi 28570
lég èrement</w> 28567
dén oncé</w> 28566
musici ens</w> 28561
convainc re</w> 28560
Zimbab we</w> 28560
révol ution</w> 28559
NAS A</w> 28556
di r</w> 28554
co very</w> 28553
g et 28552
è lement</w> 28545
Be ach</w> 28545
s év 28535
just ement</w> 28522
sh ut</w> 28520
G A</w> 28519
pilo te</w> 28519
Mat the 28518
reb els</w> 28508
dé pend 28499
trans ports</w> 28499
polici er</w> 28499
exerc ise</w> 28497
envoy é</w> 28495
O range</w> 28494
esp ér 28491
sup porting</w> 28486
è tes</w> 28476
les quelles</w> 28464
sign al 28463
réalis ateur</w> 28450
v ast</w> 28449
bour si 28448
con sec 28439
inv ite</w> 28435
depend ent</w> 28414
pr atiques</w> 28412
Se attle</w> 28412
spor tif</w> 28405
plo t</w> 28395
alco hol</w> 28393
NY SE</w> 28392
pow ers</w> 28390
ampl eur</w> 28388
clô ture</w> 28383
C le 28362
ex cl 28360
c ence</w> 28358
pour suite</w> 28354
ti ful</w> 28350
pu ll</w> 28346
o les</w> 28335
ci er</w> 28335
respon d</w> 28335
p m</w> 28334
Le ban 28328
N ev 28324
col ère</w> 28324
princip ales</w> 28324
K ansas</w> 28322
bar rel</w> 28316
re turning</w> 28311
1. 5</w> 28309
feu ille</w> 28307
Air lines</w> 28303
mar ked</w> 28300
met tant</w> 28298
mo ves</w> 28297
k g</w> 28291
appu i</w> 28290
vis ited</w> 28289
pass ing</w> 28288
shor t- 28287
rappel er</w> 28287
constitu tion</w> 28286
vul ner 28285
parten ariat</w> 28278
effici ent</w> 28274
es que</w> 28271
hosp itali 28268
M ON 28260
J im 28256
éri eurs</w> 28249
fu r</w> 28247
adul tes</w> 28246
inten tions</w> 28237
C av 28219
m ol 28217
5 0,000</w> 28216
at aires</w> 28215
ch aîn 28214
free dom</w> 28209
v an 28194
is ie</w> 28193
Lib ération</w> 28192
Jan .</w> 28189
es tion</w> 28186
ed - 28181
El ysée</w> 28180
enti n</w> 28177
étab li</w> 28175
u te</w> 28172
Con tin 28168
riv als</w> 28168
o d</w> 28166
cel lu 28160
v ital</w> 28155
vers ary</w> 28154
Y our</w> 28149
teach er</w> 28148
contro versi 28147
situ ée</w> 28146
ad resse</w> 28144
qu ie</w> 28141
ti le</w> 28139
att ended</w> 28139
sc ores</w> 28138
it ations</w> 28136
conn ue</w> 28133
B .</w> 28122
Hen ri</w> 28111
lear ning</w> 28105
G 20</w> 28096
r oll</w> 28091
CG T</w> 28091
1, 3 28082
classi que</w> 28081
S él 28079
g us 28079
pap ier</w> 28072
vol ati 28070
pu m 28063
Tur quie</w> 28058
ré fléch 28057
L ong</w> 28054
oppos ed</w> 28048
internation ales</w> 28040
E u 28038
Atl antic</w> 28028
D A 28027
sign al</w> 28025
L ake</w> 28022
quo ted</w> 28017
k it 28016
G ary</w> 28015
F our 28012
dévelop p 28001
ec k</w> 28000
dis pose</w> 27990
shor t 27984
dé marche</w> 27983
X avier</w> 27982
R y 27978
ré per 27978
at edly</w> 27974
ach et 27974
tomb er</w> 27973
hum our</w> 27970
shor tly</w> 27968
do zens</w> 27966
exem pl 27966
cli ent 27960
sent enced</w> 27956
Gran de- 27954
mag ni 27953
A li 27952
bon ds</w> 27949
mén ages</w> 27946
c a 27933
S lo 27930
hospit als</w> 27916
tr au 27905
n one</w> 27903
for - 27901
cam ér 27901
de venue</w> 27898
poli c 27894
olo gies</w> 27888
GO P</w> 27887
dr y</w> 27877
ant an 27876
Ac ad 27875
privil égi 27857
princip alement</w> 27853
bl amed</w> 27845
ad is</w> 27834
Lun di</w> 27827
comment é</w> 27826
cy cli 27824
ow ns</w> 27821
Je wish</w> 27820
ri ver</w> 27818
effic ace</w> 27816
S uch</w> 27812
respec ter</w> 27803
compag nies</w> 27801
inter dit</w> 27797
parl é</w> 27790
dé grad 27789
lanc ée</w> 27787
O x 27786
au me- 27781
tr ains</w> 27773
Ze al 27773
wor ry</w> 27767
ais ses</w> 27766
déb ats</w> 27766
enjo y</w> 27756
dro ve</w> 27755
id en</w> 27748
Mus eum</w> 27745
vill ages</w> 27741
man age</w> 27738
po dium</w> 27734
pré h 27734
Mu g 27732
al ais</w> 27730
dis play</w> 27722
O ver 27721
fru it</w> 27720
ul lah</w> 27711
S on 27698
mo vies</w> 27698
exten sion</w> 27686
o v</w> 27683
a ï</w> 27670
ac re</w> 27670
ash ing</w> 27670
Di vision</w> 27664
b ap 27661
m atters</w> 27659
an xi 27657
disponi ble</w> 27649
s or</w> 27648
méd aille</w> 27643
Ro se</w> 27641
accu mul 27638
ris on</w> 27636
sou tient</w> 27632
c old</w> 27629
réflex ion</w> 27623
val oris 27618
intern al</w> 27618
bless ures</w> 27616
imm ense</w> 27615
materi als</w> 27611
S am</w> 27609
Al bert</w> 27609
Sing ap 27603
y our 27598
fo yer</w> 27593
ati onn 27592
indépend ance</w> 27585
H i 27581
Syst ems</w> 27579
st al 27575
certain ement</w> 27574
comb ats</w> 27573
voil à</w> 27571
bo î 27567
potenti ally</w> 27565
ass ess 27562
S op 27554
Gold man</w> 27553
tu des</w> 27551
S cho 27523
shar ing</w> 27514
v étér 27513
commis si 27511
Sau di</w> 27510
éch é 27501
Roy aume- 27499
b ail 27494
ré d 27489
acti f</w> 27485
N ice</w> 27477
ex port 27474
cont est</w> 27474
fer mé</w> 27474
eas tern</w> 27470
he at</w> 27466
enseign ants</w> 27464
ci de</w> 27462
provin ces</w> 27461
civ ils</w> 27460
cel ui-ci</w> 27456
L em 27454
olo giques</w> 27446
car tes</w> 27439
Ukr aine</w> 27439
Q aida</w> 27438
vent ure</w> 27438
absol utely</w> 27438
sup posed</w> 27436
Toul ouse</w> 27436
c esse</w> 27435
é ens</w> 27432
ap art</w> 27432
territ ory</w> 27425
é pou 27420
ad join 27418
statisti ques</w> 27417
squ ad</w> 27416
ten ues</w> 27414
appoint ment</w> 27411
receiv ing</w> 27410
th ique</w> 27408
sembl ent</w> 27404
on ey</w> 27403
g ained</w> 27400
Commer ce</w> 27400
targ eted</w> 27395
ann a</w> 27383
rel atives</w> 27377
e e 27373
en rich 27372
pru d 27372
esti mate</w> 27371
protest ers</w> 27367
te am 27362
ill ég 27353
Ch ez</w> 27347
beh avi 27339
établi r</w> 27334
practi ces</w> 27334
ar abe</w> 27332
em en</w> 27325
t rem 27324
1, 0 27324
E s 27321
neighbor hood</w> 27321
investi r</w> 27317
Moham med</w> 27317
Mo bile</w> 27312
A th 27307
au st 27306
al le 27303
ball on</w> 27295
Shan gh 27288
mod els</w> 27285
fr ac 27280
Cor ée</w> 27278
ap part 27277
Ass ad</w> 27277
ec es</w> 27267
199 0s</w> 27267
li on</w> 27265
Champi ons</w> 27263
Christop her</w> 27263
tur b 27256
s in</w> 27250
Cul ture</w> 27250
gl ace</w> 27243
Carol ine</w> 27243
emer ging</w> 27241
Royaume- Uni</w> 27239
Att orney</w> 27235
bro ad</w> 27231
form ed</w> 27227
sauv et 27224
dra w 27211
Mich elle</w> 27210
b ell</w> 27209
ju ges</w> 27204
mon tré 27194
men u</w> 27187
F un 27185
B at 27182
mon y</w> 27177
consec utive</w> 27176
poss ède</w> 27175
émer g 27174
cir con 27173
s ap 27172
cam pus</w> 27169
personn ages</w> 27159
Kar z 27154
arron dissement</w> 27149
cle an 27148
t ested</w> 27147
ap er 27147
ap prendre</w> 27144
dr aft</w> 27144
6- 2</w> 27144
ou er</w> 27134
An ti 27130
ess ence</w> 27128
priv és</w> 27126
Gul f</w> 27125
dev aient</w> 27124
Cô té</w> 27123
wh atever</w> 27118
P et 27117
pl enty</w> 27115
fonctionn aires</w> 27105
Bl air</w> 27104
1 0,000</w> 27102
er al</w> 27100
G ame</w> 27094
fai tes</w> 27091
du o</w> 27088
Ed ward</w> 27086
oli c</w> 27085
S ul 27075
therap y</w> 27075
manag ing</w> 27068
r ais</w> 27065
f ounded</w> 27065
es t-il</w> 27056
v aste</w> 27053
o es</w> 27049
Bou ch 27048
constat é</w> 27047
O ui</w> 27045
tric es</w> 27036
great est</w> 27032
deleg ates</w> 27025
réus site</w> 27023
b illets</w> 27021
dr ame</w> 27018
Mar tine</w> 27017
terr or</w> 27016
Q U 27014
st abilité</w> 27013
imag in 27013
Ken ya</w> 27013
Co ast</w> 27007
Can o 27003
habitu de</w> 27002
U. S 27000
fai th</w> 26997
refl ect</w> 26995
form ations</w> 26991
le f 26982
tot ale</w> 26972
l av 26969
Th er 26969
poin ting</w> 26965
quar tiers</w> 26956
scul p 26949
p ath</w> 26948
compreh ensive</w> 26946
G D 26943
re putation</w> 26937
impl ement 26937
tu rer</w> 26928
tru th</w> 26919
sur - 26914
was te</w> 26914
ou te</w> 26911
technolo gie</w> 26909
ré fugi 26905
Re gi 26905
cl er 26902
en er</w> 26897
Cré dit</w> 26889
expl ain</w> 26884
a e 26881
indem n 26881
Rodri guez</w> 26879
re turns</w> 26875
th row</w> 26871
ex emp 26871
uncertain ties</w> 26871
Jér ôme</w> 26867
l ac 26861
s at</w> 26855
thre w</w> 26853
head quarters</w> 26853
Oper ating</w> 26851
cor ri 26850
T H 26848
b oun 26828
p ause</w> 26816
ex ag 26810
cat ch</w> 26809
BN P</w> 26809
z o</w> 26805
Osc ar</w> 26800
res ts</w> 26795
Re porting</w> 26793
pr ac 26790
seg ment</w> 26788
insis té</w> 26787
Sci ence</w> 26781
198 9</w> 26779
stat e- 26778
for tune</w> 26771
ric ane</w> 26768
hy dro 26765
I I 26761
Te h 26758
L év 26753
usal em</w> 26744
Mug abe</w> 26743
c on</w> 26737
arg uments</w> 26734
su jets</w> 26728
repor tedly</w> 26726
Ab bas</w> 26726
shar p</w> 26720
perform ed</w> 26717
employe e</w> 26716
dé tention</w> 26713
sup prim 26712
beh av 26701
1 3. 26700
ic ket</w> 26697
Mal i</w> 26693
fe e</w> 26680
W right</w> 26679
G énér 26678
cre t</w> 26677
P on 26672
acqu is</w> 26665
Bud get</w> 26662
- to- 26649
S ales</w> 26642
D et 26640
j unior</w> 26639
fac tor</w> 26638
de but</w> 26636
2 9 26633
Australi e</w> 26631
repe atedly</w> 26631
autor ité</w> 26627
becom es</w> 26623
thè que</w> 26613
So x</w> 26606
h ang 26604
z i</w> 26604
techn ical</w> 26604
ri de</w> 26599
ré action</w> 26596
Pl an</w> 26592
Indi ana</w> 26589
détermin er</w> 26587
sy rien</w> 26586
You Tube</w> 26585
Bor deaux</w> 26583
progress é</w> 26582
spec ies</w> 26578
T ar 26576
assass in 26574
C ow 26571
e der 26570
visit ing</w> 26565
fl ying</w> 26562
inten si 26561
lo ved</w> 26556
collè gues</w> 26551
ic ale</w> 26549
bon heur</w> 26547
Ar th 26544
Colum bia</w> 26544
Ch avez</w> 26540
ap es</w> 26537
H ab 26535
tor al</w> 26532
réalis ation</w> 26530
phénom ène</w> 26521
Mary land</w> 26520
Anton io</w> 26515
spo t 26514
symbo li 26505
14 . 26500
M oun 26499
ak i</w> 26496
Ar ts</w> 26494
anim aux</w> 26494
région ale</w> 26494
civili an</w> 26492
end rait</w> 26483
le aves</w> 26478
V I</w> 26476
bon us</w> 26475
advis er</w> 26475
2 8 26473
trop h 26472
4, 000</w> 26471
relev é</w> 26467
Pl ace</w> 26455
spectac les</w> 26453
em a</w> 26438
Cann es</w> 26438
Ben jam 26437
dr inking</w> 26436
coll ège</w> 26432
té moins</w> 26425
Sél est 26422
accu se</w> 26421
sk in</w> 26416
gr ounds</w> 26407
v el 26406
gr aves</w> 26404
for tes</w> 26402
ajou tant</w> 26401
artic les</w> 26401
permet tent</w> 26396
trai té</w> 26394
w ine</w> 26388
chois ir</w> 26383
conse ils</w> 26378
10 0,000</w> 26375
journ alists</w> 26366
ni ers</w> 26365
cu le</w> 26365
cau sing</w> 26364
comb ination</w> 26361
se au</w> 26360
strugg le</w> 26358
t ells</w> 26346
Envir on 26346
ch ir 26344
occu pe</w> 26344
F au 26336
tri o</w> 26330
Wom en</w> 26329
Alexand er</w> 26321
dé faut</w> 26319
éch elle</w> 26316
T est</w> 26308
dé mission</w> 26295
A re 26291
sem estre</w> 26289
1 30</w> 26287
Ju lien</w> 26278
M a</w> 26276
re placed</w> 26271
at ar</w> 26271
vie wers</w> 26270
b au 26269
supplément aire</w> 26266
int ure</w> 26264
appar eils</w> 26261
trans fer</w> 26254
si eur</w> 26248
E very</w> 26245
Ch ev 26241
I ll 26238
trou bles</w> 26236
l am 26232
18 , 26232
es h</w> 26229
d ying</w> 26227
lic enci 26227
K ath 26222
po t 26220
enc ing</w> 26220
enreg ist 26204
all ég 26203
diff usion</w> 26202
Secon d</w> 26202
Rep .</w> 26198
accessi ble</w> 26188
reduc ing</w> 26181
S anta</w> 26180
Ste wart</w> 26180
nu l</w> 26179
Jord an</w> 26178
farm ers</w> 26172
S ad 26170
effic acité</w> 26168
H ir 26163
pro vis 26163
is son</w> 26155
t ext</w> 26153
K y 26153
st un 26151
Zeal and</w> 26151
Vietn am</w> 26150
and ing</w> 26141
is ses</w> 26138
ai mer 26136
Grande- Bretagne</w> 26133
pe in 26127
rel ative</w> 26126
montr ent</w> 26123
main ly</w> 26122
évalu ation</w> 26122
om ing</w> 26121
coup able</w> 26119
ég yp 26118
Se a</w> 26117
e x</w> 26116
eff ectively</w> 26115
tari fs</w> 26101
m onn 26095
champi onship</w> 26094
7 e</w> 26087
res sions</w> 26082
Gu ar 26080
Goo d 26079
mach ines</w> 26078
poll ution</w> 26077
li ts</w> 26075
2 6 26073
D ru 26072
am az 26068
inqu iry</w> 26062
do ors</w> 26055
multi - 26055
No bel</w> 26053
m ut 26052
cultu rel</w> 26052
libér aux</w> 26051
ac o</w> 26049
requi rements</w> 26042
P le 26036
dét ail</w> 26029
potenti el</w> 26025
Sy n 26021
pl af 26019
mortg ages</w> 26019
er son</w> 26016
dil uted</w> 26015
terri ble</w> 26005
centre- ville</w> 26005
cont ained</w> 25996
A re</w> 25994
dé ment</w> 25989
ali ve</w> 25988
et es</w> 25983
des per 25983
g az 25979
Ho tel</w> 25977
over seas</w> 25975
forc ément</w> 25974
Br ad 25972
be aten</w> 25962
Jo sé</w> 25960
respon ded</w> 25959
gouvern ements</w> 25959
ff e</w> 25958
es sive</w> 25951
Cath olic</w> 25950
fail ing</w> 25949
ch asse</w> 25946
amoun ts</w> 25939
cam era</w> 25934
susc ep 25933
bi an</w> 25928
T it 25921
parti san</w> 25906
Bl anche</w> 25901
p ont</w> 25899
disponi bles</w> 25893
di c</w> 25888
Po int</w> 25888
mo on</w> 25882
un ch</w> 25880
Ég lise</w> 25878
électri que</w> 25873
religi eux</w> 25867
Par liament</w> 25863
ouv é</w> 25862
fe els</w> 25862
s am 25859
h 00</w> 25858
jo ie</w> 25852
surpris ed</w> 25851
voul ons</w> 25845
l â 25840
ar do</w> 25835
vrai e</w> 25830
Y o 25810
hol der</w> 25809
fun dam 25806
li abilities</w> 25804
éri r</w> 25801
ne z</w> 25796
impro vement</w> 25796
ill age</w> 25794
S c 25789
char ity</w> 25782
Sever al</w> 25773
wor ker</w> 25772
Ex per 25770
frapp é</w> 25765
Dis ney</w> 25762
Mah mou 25762
r ons</w> 25758
vacc ine</w> 25741
explo si 25736
independ ence</w> 25735
islam istes</w> 25734
off en</w> 25733
or m 25728
prec ed 25727
tom orrow</w> 25726
veter an</w> 25726
per form</w> 25724
soli d 25722
el sewhere</w> 25718
controversi al</w> 25706
convic tion</w> 25698
ay ne</w> 25697
dis aster</w> 25689
discus sed</w> 25689
fil et</w> 25680
thou si 25667
L aw</w> 25666
ob jets</w> 25662
ev a</w> 25656
jug ement</w> 25656
pal ais</w> 25655
ol i</w> 25652
om o 25650
Vi e 25650
au quel</w> 25638
L ong 25636
Mex ique</w> 25635
Ad di 25627
accep ter</w> 25627
am bul 25623
Sher brooke</w> 25623
Hamp shire</w> 25622
ss a</w> 25621
s and 25619
g rec 25619
ch en 25619
te es</w> 25618
Tur k 25618
So vi 25610
St aff</w> 25602
P ur 25601
Blo om 25601
ci el</w> 25600
pass agers</w> 25597
Car ter</w> 25596
L af 25590
every body</w> 25588
onn ats</w> 25587
aliment aire</w> 25582
e b 25573
chant euse</w> 25573
sau ver</w> 25571
che ts</w> 25566
B as</w> 25565
B M 25564
co ordin 25564
ap preci 25555
ob s 25552
pi er</w> 25552
is ée</w> 25550
jap onais</w> 25549
w ave</w> 25542
rel ance</w> 25538
Mo ore</w> 25538
consult ation</w> 25535
e ply</w> 25529
répon d</w> 25527
Sch war 25521
f an 25519
arg ue</w> 25515
li é</w> 25509
occas i 25509
d ans 25508
so- called</w> 25508
S em 25503
pé rer</w> 25500
considér é</w> 25499
inform atique</w> 25498
arti st</w> 25498
ran ked</w> 25495
Nav y</w> 25494
com e 25492
head ing</w> 25487
do ig 25486
Li ve</w> 25486
P at 25480
ér on 25473
re present</w> 25472
ch èque</w> 25468
t elles</w> 25467
dit - 25466
f ts</w> 25464
Ko so 25464
Den ver</w> 25458
qu ake</w> 25451
r ares</w> 25449
nation wide</w> 25448
truc k</w> 25446
as ser 25423
ten s</w> 25420
bal les</w> 25419
f arm</w> 25410
st om 25410
er ia</w> 25409
D um 25405
U p</w> 25404
Mo tors</w> 25402
pir ates</w> 25401
low ing</w> 25400
song s</w> 25400
Teh ran</w> 25398
magas ins</w> 25391
ne ys</w> 25390
per d 25385
br is</w> 25384
cal me</w> 25383
pou voirs</w> 25378
ai m</w> 25365
rap porté</w> 25364
K le 25363
9 0 25362
st ated</w> 25358
tempor ary</w> 25348
inter diction</w> 25347
tr end</w> 25343
W im 25342
pe au</w> 25335
compl et</w> 25324
mét é 25322
ap ers</w> 25319
publi ée</w> 25315
graph y</w> 25313
restaur ation</w> 25312
es seurs</w> 25304
investig ating</w> 25300
o la</w> 25299
E ch 25298
di gn 25297
ex pul 25297
promo te</w> 25293
su isse</w> 25291
p av 25290
franch ise</w> 25289
précéd ente</w> 25288
Ou tre</w> 25283
dén on 25282
bi bli 25280
fu ite</w> 25278
g el 25277
sign es</w> 25274
intro duction</w> 25273
de v</w> 25270
S U 25259
en thousi 25259
pos é</w> 25251
h itting</w> 25247
ac trice</w> 25244
Is ab 25243
cel le-ci</w> 25236
suff ici 25236
struc tures</w> 25232
man uel</w> 25231
ro bo 25226
ad mir 25222
B hu 25220
L et</w> 25209
plu ie</w> 25207
cr it 25202
comman de</w> 25201
v as 25192
choc ol 25192
concer ts</w> 25190
accus ation</w> 25188
C S</w> 25186
eng ine</w> 25185
SE C</w> 25181
t ac 25179
Acad emy</w> 25165
t aient</w> 25162
par all 25156
anni versary</w> 25154
espagno l</w> 25154
bann ed</w> 25144
gro sse</w> 25143
sai sons</w> 25137
G ren 25131
pr endra</w> 25131
accomp li 25130
mus eum</w> 25127
essenti ellement</w> 25126
hi re</w> 25123
Mahmou d</w> 25123
H aguen 25117
vol s</w> 25115
progr ès</w> 25114
co ol</w> 25110
aff airs</w> 25109
lux e</w> 25109
din ner</w> 25108
S ho 25107
i ding</w> 25096
questi oned</w> 25093
Ser ge</w> 25091
un usual</w> 25083
ambass ad 25075
vois ins</w> 25071
di am 25070
tour istes</w> 25064
ar ity</w> 25063
dé gu 25063
pres sions</w> 25061
ch a 25060
amp les</w> 25060
dép ôt</w> 25057
expli que- 25056
1 000</w> 25043
en ess</w> 25026
tr ained</w> 25025
on ary</w> 25023
19 , 25023
v é</w> 25016
cam er 25009
im a</w> 25008
K in 25000
ap ply</w> 24999
C li 24997
Mathi eu</w> 24995
re min 24984
de pos 24984
than ks</w> 24984
fréqu ent 24983
dem an 24981
A wards</w> 24978
1 3- 24977
ari a</w> 24974
dé lég 24968
gr en 24968
ush ed</w> 24968
at é</w> 24966
Bec k 24966
Ar c 24965
lab or</w> 24961
sond ages</w> 24960
kne e</w> 24954
G O</w> 24953
tal ked</w> 24952
ri ches</w> 24945
d enti 24942
y right</w> 24942
ri ve</w> 24942
clo sure</w> 24938
L ec 24937
Sw iss</w> 24932
Est- ce</w> 24931
strong er</w> 24921
su mé</w> 24920
ON G</w> 24919
Lo ve</w> 24916
ur a</w> 24908
mu r</w> 24906
Th ough</w> 24905
ong side</w> 24902
Ex press</w> 24902
caf é</w> 24894
v ins</w> 24889
th or 24889
o ires</w> 24888
di es 24886
ru gby</w> 24886
Crai g</w> 24883
con spir 24879
sur pris</w> 24876
correc t</w> 24875
St adium</w> 24874
public ité</w> 24858
pend ing</w> 24856
sal les</w> 24855
he b 24854
omb re</w> 24852
destruc tion</w> 24849
environn ement 24846
sw ine</w> 24841
Eli z 24838
g y 24834
cy cl 24823
fr appe</w> 24820
pilo t</w> 24820
identi ty</w> 24819
mem ory</w> 24815
te en</w> 24809
quali fication</w> 24809
J un 24808
Guill aume</w> 24808
suiv ant</w> 24805
presti gi 24799
pri ority</w> 24788
k ick</w> 24787
iv ed</w> 24782
re aching</w> 24778
go tten</w> 24775
ré nov 24774
sp lit</w> 24769
- là</w> 24767
ri che</w> 24766
on s- 24764
beg un</w> 24761
charg ée</w> 24759
requ ires</w> 24756
Commun ications</w> 24754
aî ner</w> 24753
end ants</w> 24752
bour ge 24752
au s</w> 24751
oo m</w> 24750
alco ol</w> 24746
ED F</w> 24745
th inks</w> 24737
m ail 24733
impro ving</w> 24728
lev ard</w> 24727
bo ss</w> 24720
trouv ait</w> 24718
g ate</w> 24713
forec lo 24710
Chan nel</w> 24710
is és</w> 24704
f it 24703
t ter 24697
se ized</w> 24697
mer ie</w> 24697
install ations</w> 24697
propri été</w> 24689
20 20</w> 24687
fix é</w> 24687
le ans</w> 24685
beg ins</w> 24685
sh ops</w> 24684
satis faction</w> 24683
j a 24681
ear n</w> 24678
War ner</w> 24678
instr uments</w> 24678
ple aded</w> 24674
a ël</w> 24667
temp ér 24661
t aining</w> 24658
municip ales</w> 24657
on de</w> 24656
pe te</w> 24655
départ ement 24655
soci alistes</w> 24653
pharmac eu 24653
mi x</w> 24647
inter esting</w> 24639
Ju lie</w> 24638
Shangh ai</w> 24636
ra dical</w> 24633
as er</w> 24630
del ay</w> 24627
K ate</w> 24626
Rel ations</w> 24625
M E 24623
li ées</w> 24622
l ay 24621
asp ect</w> 24620
be dro 24618
in tit 24614
conclu ded</w> 24612
V ati 24606
port és</w> 24603
agg ressive</w> 24602
ON D 24601
con dem 24598
W he 24591
F ire</w> 24585
dr ama</w> 24584
su i 24581
attemp ts</w> 24578
w are</w> 24572
ron de</w> 24571
i der</w> 24559
fo i</w> 24554
vér ité</w> 24551
1- 1</w> 24547
f en 24541
ath on</w> 24537
techn ici 24537
inter views</w> 24532
br û 24522
rap porte</w> 24522
th a</w> 24513
Egyp te</w> 24510
archit ec 24508
mon thly</w> 24506
Di dier</w> 24499
sci ences</w> 24498
arti stique</w> 24496
amén agement</w> 24495
représent ent</w> 24493
g are</w> 24489
predic ted</w> 24489
im mobili 24485
de par 24479
serv i</w> 24479
P eter 24475
et ti</w> 24474
pi eces</w> 24474
sou rire</w> 24473
maî tre</w> 24472
destro yed</w> 24472
sle ep</w> 24471
b ars</w> 24468
reconn aissance</w> 24462
fédér ation</w> 24462
abili tés</w> 24457
resp ectivement</w> 24454
inter ne</w> 24449
inc enti 24447
re joint</w> 24445
Foot ball</w> 24443
sen sible</w> 24442
m ente</w> 24439
meille ures</w> 24433
dem ands</w> 24427
co opération</w> 24422
Rob inson</w> 24418
du - 24410
f ati 24409
in age</w> 24407
immeu ble</w> 24407
contin ent</w> 24402
no ire</w> 24401
énor me</w> 24394
push ing</w> 24389
en try</w> 24388
ack ers</w> 24388
tor ture</w> 24386
él o</w> 24381
soli de</w> 24376
V ers</w> 24375
gu ards</w> 24375
mon str 24364
règl ement</w> 24360
W is 24358
Tele graph</w> 24357
faul t</w> 24357
construc teur</w> 24352
de hors</w> 24351
agn on</w> 24351
V ladi 24349
gl ass</w> 24349
annonc er</w> 24348
success fully</w> 24341
j a</w> 24339
sust ain 24339
Mar ket</w> 24337
ten ed</w> 24335
dé si 24333
pre vent 24332
Jus tin</w> 24330
b ble</w> 24329
y me</w> 24328
nu tri 24328
popul ations</w> 24326
artis ts</w> 24324
con server</w> 24323
pouss é</w> 24322
de aling</w> 24319
E ver 24316
su pr 24306
resol ution</w> 24306
low est</w> 24305
instruc tion</w> 24293
gam me</w> 24289
Sélest at</w> 24288
wh el 24286
N at 24285
ab road</w> 24281
vers é</w> 24281
sched ule</w> 24276
dow ns</w> 24272
quin ze</w> 24268
ou reux</w> 24267
EB IT 24265
è re- 24259
tél é</w> 24258
pre ad</w> 24252
dis ait</w> 24250
com pete</w> 24249
es tr 24248
relev ant</w> 24246
C an</w> 24245
lo gique</w> 24245
br ands</w> 24244
dou ze</w> 24243
C ep 24241
mar quer</w> 24241
Indon es 24231
br ings</w> 24228
to ols</w> 24224
Benjam in</w> 24216
sh ad 24212
trouv ent</w> 24210
lin ing</w> 24208
defin itely</w> 24206
fü r</w> 24203
co tis 24201
agn es</w> 24199
Ti bet</w> 24198
Lou ise</w> 24191
2 4- 24177
de eply</w> 24175
announ ce</w> 24175
mani pul 24173
e h</w> 24172
ri ce</w> 24172
éner gé 24171
re action</w> 24161
Alg érie</w> 24155
scol aires</w> 24154
hé ros</w> 24148
exprim er</w> 24145
eri ff</w> 24143
1, 4 24141
Organ isation</w> 24141
P R</w> 24132
Prof essor</w> 24127
si ch</w> 24123
m its</w> 24122
Ri en</w> 24117
Bro ok 24116
R ach 24112
L loy 24106
Y .</w> 24106
L aden</w> 24089
main tenance</w> 24088
beau tiful</w> 24088
M and 24084
li ament 24083
Bar cl 24081
br ill 24076
fai tement</w> 24076
G om 24072
remar ks</w> 24072
bl ame</w> 24071
dé tenus</w> 24065
fab ri 24061
behav ior</w> 24060
20 . 24057
annu elle</w> 24057
nive aux</w> 24056
Bri g 24053
Qu atre</w> 24048
t âche</w> 24042
r or</w> 24032
circonst ances</w> 24029
B ai 24028
in ing</w> 24020
any ah 24019
bi tion</w> 24013
er ved</w> 24011
engag er</w> 24010
s és</w> 24009
Gi ants</w> 24008
perform ing</w> 24005
E ach</w> 24004
fro id</w> 24004
N ath 24002
min ority</w> 24002
amp a</w> 24001
ré pli 24000
dis missed</w> 24000
Ac c 24000
for ts</w> 23994
E st 23992
un ve 23992
Tun isie</w> 23991
j azz</w> 23989
or able</w> 23986
ban lieu 23986
b ag</w> 23982
elec tric</w> 23981
li ty</w> 23977
Ma x</w> 23973
dynam ique</w> 23972
t ants</w> 23967
fa x</w> 23962
met tent</w> 23958
Le on 23956
embour g</w> 23952
g el</w> 23950
thre ats</w> 23950
So cial</w> 23947
v aut</w> 23941
j ac 23938
lig ence</w> 23935
electron ic</w> 23929
ethni c</w> 23929
syst èmes</w> 23927
ev acu 23922
Venezu ela</w> 23921
o eil</w> 23918
le gi 23918
Koso vo</w> 23918
tex tes</w> 23913
g ang 23912
your self</w> 23909
B ob 23900
ti ght</w> 23896
acquisi tions</w> 23896
ed itor</w> 23894
se vent 23891
uti le</w> 23890
tor ies</w> 23889
poly val 23888
gro ss</w> 23885
m in</w> 23883
es tri 23881
sol o</w> 23875
clai ming</w> 23874
asp ects</w> 23871
chaîn es</w> 23870
part ager</w> 23869
ab led</w> 23859
dre am</w> 23855
windo w</w> 23850
Ch amp 23849
B ah 23848
attend ent</w> 23848
Fl ori 23842
con tenu</w> 23839
t aires</w> 23838
Pier re- 23838
provin cial</w> 23835
ol ine</w> 23830
gi en</w> 23830
diver ses</w> 23830
[...]
