, 279909572
. 222769357
the 196503525
a 106751235
to 104612832
" 97039312
of 95209105
and 89631410
in 77783273
de 71658749
's 42192048
that 38497566
on 36641111
for 36349718
la 35819790
is 33942391
The 28592706
à 27801116
was 27629605
le 27582792
with 26267413
l' 24540662
said 24024354
et 23494372
it 22985763
as 22407303
les 21546003
at 21422020
: 21088509
des 20507711
en 19544314
d' 19541310
he 18792868
by 18572719
) 18350165
be 18252222
( 18208555
I 18129755
have 17593366
from 17575035
- 16695550
his 16459050
has 16411805
are 16379590
un 15921192
an 15837827
du 15589759
est 13287255
not 13128065
une 12954469
will 11644599
who 11607939
pour 11317059
but 11231498
had 11010871
they 10995994
this 10898776
que 10833244
' 10806792
their 10517206
qui 10237181
dans 10042321
were 9848595
been 9838635
or 9640968
more 9199443
au 9165312
't 9155004
which 8780091
about 8556483
you 8412321
we 8353379
her 8239789
would 8135490
It 7951146
up 7788816
one 7785774
its 7774601
sur 7767504
after 7646990
out 7594061
par 7456831
pas 7101870
? 6875071
il 6787493
can 6746760
she 6674276
$ 6581038
also 6535978
than 6524620
when 6484284
son 6416103
people 6355210
all 6351565
A 6092733
He 6092532
plus 6087219
year 5894445
Le 5749271
over 5697854
But 5640157
there 5598077
into 5573291
time 5448480
se 5412226
qu' 5409646
In 5340432
two 5316578
first 5268210
ce 5151442
last 5032905
s' 5024863
ne 4970918
new 4924066
ont 4918133
could 4876161
avec 4838959
so 4816285
n' 4800624
years 4797627
what 4789543
other 4778286
just 4736040
/ 4731275
We 4622566
them 4572375
some 4563039
like 4450654
if 4437894
% 4435760
no 4397440
him 4290314
été 4228941
; 4221697
La 4192803
do 4156610
our 4117721
only 3826656
y 3784712
aux 3782670
now 3774487
Les 3760181
back 3714788
before 3662673
my 3584814
sont 3584554
because 3549994
says 3525664
me 3518332
most 3496036
get 3470133
being 3427334
told 3350129
where 3335687
government 3304781
sa 3276322
against 3250913
Il 3219522
Mr 3191098
made 3175292
million 3137410
off 3130301
down 3128598
-- 3106192
how 3070781
any 3067779
New 3056092
three 3037980
way 3026972
ans 3012681
ses 2997600
make 2982646
This 2950837
many 2929713
... 2914932
while 2901016
very 2829999
through 2786043
week 2785583
those 2777008
ou 2770537
L' 2763619
police 2750350
And 2745557
cette 2721426
per 2716000
then 2700922
even 2693850
They 2693532
man 2676566
mais 2667306
10 2652027
day 2650393
world 2626243
U.S. 2625465
us 2621954
well 2613894
part 2613521
home 2612559
much 2607628
work 2605909
such 2594674
fait 2593712
deux 2593550
since 2591202
going 2590277
still 2588026
say 2572629
your 2571563
-@@ 2552056
're 2546859
should 2534834
'@@ 2527498
percent 2517263
place 2509496
did 2508551
On 2505317
take 2487166
may 2463259
don 2449592
1 2447738
un@@ 2446931
avait 2440684
think 2423459
during 2410802
between 2383544
public 2376356
There 2341807
including 2340575
go 2324244
around 2314702
country 2305310
leur 2280868
see 2267850
good 2262703
company 2250903
comme 2241916
S@@ 2211185
next 2205531
re@@ 2203495
£ 2171455
s 2161195
found 2144246
être 2139945
under 2135051
était 2132084
elle 2121424
nous 2119188
! 2118382
state 2101661
these 2101605
She 2096660
That 2086637
know 2073364
long 2059634
2 2046036
team 2045117
second 2044368
aussi 2035213
want 2031997
Obama 2013480
game 2011898
right 2011421
former 1997505
If 1991585
c' 1990712
end 1976236
France 1969798
able 1954538
20 1951234
tout 1946981
US 1944335
another 1939097
've 1935934
l 1916401
cent 1913782
30 1911456
life 1883027
four 1882927
family 1878202
own 1876679
o 1875310
United 1873437
set 1866725
both 1862493
group 1859022
too 1856961
in@@ 1852910
left 1844966
need 1843370
Mr. 1827385
help 1827096
T@@ 1821128
même 1798369
used 1795945
faire 1795197
same 1770032
come 1761821
show 1747744
got 1728218
d 1726021
point 1720674
'm 1720147
children 1715809
après 1712418
really 1699530
season 1698763
days 1698643
As 1695489
face 1685242
best 1680910
points 1678890
month 1665310
York 1663217
Trump 1659179
C' 1658353
months 1657797
ing 1650240
3 1648290
ces 1640112
called 1635869
D@@ 1633068
B@@ 1629497
put 1617267
En 1615950
K@@ 1614672
American 1613165
i 1612802
use 1609390
je 1608253
You 1607746
women 1606384
depuis 1603260
15 1602010
night 1600457
six 1599410
five 1592233
avoir 1590230
market 1586653
lui 1581105
never 1579465
business 1575804
report 1573902
A@@ 1572162
ils 1560426
won 1560071
President 1558078
R@@ 1557731
P@@ 1551170
M@@ 1550562
took 1549984
entre 1544979
ed 1541574
top 1539328
less 1532594
number 1529730
12 1527682
très 1527212
case 1526466
according 1522096
might 1518261
support 1515968
here 1514165
4 1514143
president 1512305
For 1512264
away 1512193
bien 1503493
car 1496127
city 1484925
play 1483450
added 1482727
came 1481709
Friday 1481404
contre 1481086
later 1480973
5 1479059
er 1478810
few 1472291
money 1465722
G@@ 1457802
court 1449794
win 1444037
China 1443374
F@@ 1440870
high 1440648
am 1434781
d@@ 1433886
E@@ 1431551
When 1430727
Monday 1421359
little 1419755
Tuesday 1412740
lot 1406046
où 1404499
big 1403708
officials 1402759
11 1402450
every 1397021
past 1396621
ai 1396496
H@@ 1385198
without 1384831
k@@ 1382797
Mais 1370056
better 1365850
N@@ 1363129
men 1362993
Wednesday 1346459
Thursday 1344364
plan 1343697
millions 1342358
ago 1341616
h 1340624
si 1339022
early 1337689
information 1337494
something 1336970
look 1335188
& 1334916
ers 1331752
e@@ 1324702
change 1323209
far 1321332
political 1320996
billion 1317862
already 1317320
deal 1316657
al 1316226
whether 1315899
didn 1315742
W@@ 1312151
each 1310325
John 1309974
Sunday 1307473
until 1306473
seen 1300690
match 1300659
school 1298676
party 1297466
t@@ 1295099
least 1290146
head 1288268
side 1286739
pays 1284722
House 1283993
London 1283602
Un 1281573
dont 1281022
Europe 1277628
2012 1277291
autres 1276649
important 1276025
age 1275105
reported 1274174
Je 1272807
One 1271927
L@@ 1271527
encore 1269844
health 1268545
went 1266092
y@@ 1265761
service 1263380
led 1257925
sans 1257560
2014 1256880
again 1255076
2013 1253171
UK 1250563
campaign 1248226
local 1242871
South 1242805
services 1241164
C@@ 1240871
things 1240823
David 1236383
expected 1235020
g@@ 1231560
run 1230650
making 1230212
At 1227565
across 1227278
great 1225837
today 1218402
national 1217478
es 1213725
system 1212185
start 1210560
6 1207657
statement 1207573
power 1198218
7 1196517
avant 1194663
s@@ 1193136
M. 1190785
does 1190413
[ 1188583
b@@ 1187735
] 1186773
h@@ 1186549
recent 1185941
euros 1185436
law 1183415
British 1181963
Saturday 1171275
security 1168522
news 1165573
saying 1165466
military 1164753
18 1164717
likely 1163991
among 1163970
club 1163963
trois 1162885
taken 1160570
2008 1159090
become 1157963
film 1155535
final 1155108
find 1155042
hit 1153065
line 1151676
14 1150952
young 1148004
8 1146963
times 1144819
premier 1144096
always 1143103
States 1137435
50 1135462
having 1129732
possible 1127371
working 1126652
death 1125243
minutes 1122462
members 1120454
Australia 1119385
Ce 1118124
25 1115212
site 1114374
Une 1111150
World 1110731
f@@ 1110422
What 1109453
Washington 1109203
half 1105951
So 1103943
international 1102437
media 1102197
give 1101402
sera 1100373
North 1097266
several 1096947
third 1096276
ant 1095319
players 1094690
different 1093512
moment 1092112
chief 1090155
m 1089572
City 1089389
président 1088161
2011 1087510
leurs 1082940
dit 1081010
though 1080075
future 1079570
dernier 1077464
companies 1077442
killed 1076131
enough 1073781
pay 1073540
National 1072960
en@@ 1071814
ate 1071806
question 1071430
t 1071040
16 1068555
Pour 1068401
moins 1068156
asked 1066447
financial 1066427
n 1064633
given 1064400
lead 1063297
n@@ 1061157
State 1056404
house 1056311
p@@ 1056182
13 1056147
2009 1054942
move 1052924
keep 1051523
must 1050964
o@@ 1043524
course 1043262
Paris 1043163
9 1043155
After 1043007
I@@ 1042414
area 1042204
known 1040885
mois 1038650
action 1037498
tax 1037232
O@@ 1037038
decision 1036532
England 1035737
woman 1033491
May 1030146
major 1029250
taking 1029166
ar@@ 1028815
'll 1027837
2015 1025607
vote 1023943
2010 1022847
European 1022320
17 1021276
leader 1020866
University 1018666
record 1018606
fois 1015415
weeks 1012110
tous 1011490
alors 1009420
job 1007658
dis@@ 1005667
année 1005485
Et 1004544
lost 1003770
water 1002973
k 1002091
peu 998082
close 993324
attack 992919
small 989047
social 988217
ministre 987434
va 985919
thought 985244
issue 984757
thing 983998
selon 983174
director 981732
why 981197
monde 979284
old 978111
behind 977003
ever 976966
100 975245
With 973865
economic 972726
ts 970581
His 969175
er@@ 968496
ent 966794
gouvernement 961379
trying 958067
hard 957406
held 957401
done 955219
care 952860
40 952852
often 950115
March 949726
field 949406
yet 948046
continue 946337
office 945717
once 945134
air 944325
fin 942566
following 941954
ch@@ 941398
economy 940224
America 939587
looking 938864
series 937903
ated 937510
almost 937499
further 935573
ar 934699
believe 932881
temps 931804
plans 931606
hours 929988
West 929705
election 928025
p 927798
No 925998
Police 925648
e-@@ 924955
w@@ 924302
clear 922946
countries 922532
situation 922036
première 920880
late 920763
near 920720
large 920367
i@@ 918760
déjà 917549
lors 915091
forces 914972
al@@ 914153
free 912825
earlier 912399
doing 912040
é 910913
J@@ 910890
V@@ 910176
getting 909986
died 909845
Dans 909634
real 907756
an@@ 907305
announced 906168
call 905877
games 904771
24 903653
'd 902814
try 902360
peut 900281
Québec 899865
growth 899683
feel 899031
e 898701
autre 897987
vous 897322
war 895453
parents 895452
study 895098
5@@ 894875
industry 892841
News 892778
based 885543
others 884284
June 882253
using 879741
due 878224
outside 877584
played 876288
groupe 875964
risk 871903
shot 870842
Britain 869202
policy 868513
within 865494
ée 865241
along 865019
However 864699
full 864473
started 863707
comes 863456
également 863169
return 862889
open 861496
official 859942
together 859488
z@@ 858777
data 856921
Michael 852329
doesn 850193
cut 848641
Nous 847367
While 845995
19 845824
oil 845656
coming 844640
personnes 843654
executive 842247
capital 841659
person 841388
meeting 840741
share 840373
4@@ 839565
21 838409
ainsi 837422
key 837176
food 836875
live 836749
3@@ 835998
control 835791
ation 835504
toujours 835244
ça 834142
c@@ 830887
body 830566
position 830547
6@@ 828961
2007 828357
quarter 827607
r@@ 827024
Minister 826846
ons 826251
force 826232
wanted 826011
rate 823260
role 821608
name 821152
cause 821130
began 821112
sales 817299
whose 815429
couple 815179
plusieurs 814441
m@@ 814180
level 812635
federal 812632
released 812139
April 812107
strong 811952
ted 809661
interest 807810
de@@ 805729
l@@ 804989
TV 804838
price 804518
global 803562
22 803557
mother 802943
White 801021
history 800818
chance 800132
story 799837
cost 796204
j' 795531
To 794480
ating 793428
Australian 792763
Some 792414
main 792013
O 791858
video 791445
current 790542
Canada 790483
fire 789550
bank 787511
Russia 786313
dollars 785069
ly 783781
spokesman 783370
bit 783298
U@@ 782729
staff 781712
ting 780591
fact 780259
el@@ 779909
L 779882
nearly 778604
himself 777984
By 776877
total 776489
child 776396
leaders 775895
soit 775517
front 774105
wrote 774051
équipe 772714
morning 772126
on@@ 771505
ait 770832
let 770804
love 769640
st@@ 768957
low 767227
process 763511
prices 762128
room 761693
increase 761582
Ch@@ 760940
administration 760556
building 759290
saw 759161
années 759122
July 758649
board 757423
research 756796
James 756199
centre 756011
Re@@ 755256
u 754832
community 754001
co@@ 753501
program 752747
Clinton 751785
8@@ 751062
Y@@ 750620
forward 750508
2016 750368
production 750113
ahead 750063
star 749652
Reuters 749404
as@@ 748838
order 747821
reports 746725
playing 746088
problem 745998
Paul 745251
All 744360
7@@ 744149
és 744084
rather 743986
book 743109
kind 742959
sure 739694
grand 739570
rights 739398
Cup 739357
Department 738474
sous 736902
shows 736720
wife 736043
private 734670
online 734579
seven 734016
Z@@ 733520
vie 731617
Scotland 729734
De 728970
performance 727479
In@@ 727129
tour 725498
became 724837
League 724160
evidence 723147
es@@ 721693
land 721423
notamment 720667
23 719925
notre 719415
conditions 718916
father 717562
minister 717385
opposition 716327
9@@ 715925
el 715541
include 715486
donc 715098
quelques 715082
am@@ 714695
makes 714660
result 713192
g 712620
Last 712136
nouveau 710098
recently 709332
.@@ 709233
questions 707898
li@@ 707332
Al@@ 706987
met 706140
results 706103
Street 705556
eu 704778
September 704202
biggest 703740
stop 701722
race 701415
Court 699536
sent 699158
Now 698248
issues 697216
ées 697173
j@@ 695536
January 695392
000 694932
ville 694888
investigation 694886
black 694389
leave 694300
hui 692641
energy 692258
gave 692117
students 691598
town 691047
event 690144
Republican 689855
fans 689783
higher 688658
Elle 688649
sh@@ 687734
period 686985
means 686256
groups 684483
loss 684297
An 684266
budget 684066
leading 683917
coach 683886
workers 683750
dé@@ 682826
French 681398
eight 681237
Iran 681082
football 680847
crisis 679118
comment 677633
De@@ 677612
involved 677137
experience 675481
ti@@ 674469
u@@ 674449
player 674123
received 673816
foreign 673764
provide 673524
als 672656
general 672283
average 671836
te 671461
vers 670755
a@@ 670754
prison 670650
ab@@ 670624
at@@ 670106
authorities 668644
Des 667902
showed 666970
available 665294
impact 664901
despite 664798
b 664465
latest 663866
problems 663839
anything 663568
nation 663464
ad@@ 662758
Chinese 662736
goal 662501
senior 661174
faut 660200
ball 659308
manager 659106
offer 658901
nothing 658850
a-t-il 658830
running 657992
December 657599
friends 657417
needs 656820
jours 656705
needed 656091
non 655768
member 655535
human 654660
Facebook 654494
hope 654004
politique 653553
violence 653166
Union 651814
v@@ 650545
career 649832
art 649389
potential 648630
26 647780
however 647024
28 646309
ton 645852
hand 645489
hospital 645446
BBC 645095
27 644962
J' 644652
legal 644004
charge 643729
projet 643722
over@@ 643076
Bank 642387
costs 640726
International 640063
turn 639997
Russian 639623
th@@ 638820
60 638335
states 638258
someone 638147
beaucoup 637934
AP 637658
charges 637454
California 637239
My 637041
jobs 637028
visit 636914
turned 636730
November 636101
Au 635557
Co@@ 635109
list 634266
George 634105
Twitter 634078
ty 632988
pressure 632808
EU 632218
difficult 632058
nouvelle 631336
stage 631073
spent 630018
wasn 628489
ailleurs 628357
di@@ 628218
fell 628140
cours 627731
Cette 627399
fight 627138
doit 626542
le@@ 626532
red 625721
lives 625688
spending 625150
patients 624309
interview 624159
em@@ 624128
31 623240
Le@@ 621210
actually 620064
summer 619804
bad 619663
Mar@@ 619653
paid 619563
worked 618291
probably 616558
attacks 616102
chez 616050
bring 615325
cas 615092
quatre 614528
phone 613760
Ms 613076
form 612245
ter 611731
heard 611270
fall 610973
partie 610421
devant 610387
idea 609871
round 609554
areas 609487
living 609085
ground 609053
Sh@@ 609008
claims 607774
themselves 607633
c 606516
Ar@@ 606322
étaient 605361
efforts 605247
chef 605095
music 604226
changes 604210
victory 603478
ley 603156
semaine 601837
white 601521
À 600719
Times 600025
travail 599759
trial 599200
base 598801
population 598705
test 597457
era 595951
Iraq 595869
ma 595667
remains 595041
published 594165
October 593184
ine 592712
short 592217
technology 591683
avaient 591620
Los 591132
début 591105
C 590166
cases 589926
hold 589833
der 589514
soon 589368
jusqu' 588577
release 587228
Mo@@ 586964
rates 586318
vendredi 586235
ended 585418
+ 585217
trade 584798
près 584538
homme 584128
ous 583129
ad 582997
weekend 582805
certain 582731
region 582632
bill 582404
source 581708
agency 581686
investment 580150
officers 580121
These 579509
San 578315
serious 578091
similar 577766
everything 577551
cancer 577268
rise 576789
development 576012
single 575917
jour 575158
wants 574889
felt 574853
gas 574814
matter 574575
remain 574057
or@@ 573599
Selon 573235
aide 572750
lower 572685
dimanche 572266
500 572263
r 572230
space 571743
conference 571603
Si 571426
nos 570270
banks 569982
message 568968
inside 568483
brought 568353
Syria 567437
firm 566137
worth 565185
ations 564759
light 563889
largest 563275
special 563038
os 562846
markets 562771
saison 562455
longer 562147
29 561825
se@@ 561256
East 561181
heart 561105
Ils 561040
programme 560811
stay 560548
prix 560152
eux 560081
training 559758
Angeles 559606
th 559474
suis 559048
helped 558931
quand 558925
date 558877
accused 558821
be@@ 558495
.com 558126
described 556845
ways 556732
talk 556628
thousands 555751
August 555708
Senate 555576
1.@@ 555042
lundi 554999
tried 554993
previous 554369
ally 553475
rest 552825
Americans 552458
ro@@ 552339
February 551891
dead 551834
net 551780
mardi 551531
quite 551117
jeudi 550735
happened 550709
whole 550663
bo@@ 550587
everyone 550463
déclaré 550245
project 550072
ates 550022
customers 549892
français 549755
especially 548552
income 547092
T 546492
daughter 546348
incident 546306
view 545868
Park 545740
drug 545727
huge 545273
significant 545099
meet 545011
2006 544219
break 543731
failed 543715
nuclear 543700
Smith 543167
seems 542605
tell 541853
pourrait 541785
al-@@ 541783
growing 541773
access 541410
samedi 540873
officer 540745
aujourd' 540495
medical 540126
personal 539666
soir 539433
debt 539334
families 538921
toute 538536
ac@@ 538016
Labour 537415
although 537089
arrested 536987
t-@@ 536839
Martin 536780
central 536685
mercredi 536252
ag@@ 535577
Ro@@ 535327
im@@ 534682
talks 533577
elles 532332
appeared 531072
ability 530982
attention 530804
road 530083
allowed 529572
it@@ 529506
train 529223
milliards 528103
enfants 527750
jamais 526985
effort 526109
cet 525805
cela 525662
How 525603
compte 525511
Germany 525188
ch 525173
R 523543
products 523180
a-@@ 522897
buy 522561
either 522479
Mark 520950
anyone 520832
allow 520642
safety 520117
Brown 519908
isn 519360
People 519243
Congress 519056
India 519050
ici 518951
zone 518128
looked 517981
dernière 517927
king 517911
cash 517318
voir 517255
con@@ 517142
compared 516633
Japan 515690
terms 514860
Bo@@ 514279
response 514190
avons 514150
sense 513875
non-@@ 513859
anti-@@ 513358
Commission 511902
charged 511784
ol@@ 511295
winning 511117
forced 511019
included 510890
aurait 510813
More 510491
investors 509846
Israel 509823
value 509733
Car@@ 508586
particularly 507379
example 506981
to@@ 506648
35 506248
shares 505977
ity 505940
200 505427
step 504794
table 504241
ri@@ 503933
nine 503263
justice 502886
credit 502735
takes 502179
term 502150
et@@ 501712
ap@@ 501152
cinq 501125
Robert 500872
Premier 500326
Korea 499654
presidential 499637
ds 498956
Con@@ 498873
parties 498822
marché 498433
miles 498258
schools 497406
lieu 497349
côté 497238
calls 496922
treatment 496449
po@@ 496382
claimed 495964
moved 495472
deuxième 495196
direction 495000
rules 494737
S 494623
press 494536
cannot 494289
B 493955
www.@@ 493534
quickly 493284
Even 493229
focus 493187
property 492853
Sydney 492844
Prime 492369
continued 491527
om@@ 491203
Afghanistan 491167
Group 490763
voters 490734
Center 490237
mo@@ 489608
events 488785
car@@ 488555
D 488460
grande 488244
Cor@@ 488115
friend 487858
lo@@ 487690
create 487562
80 487018
County 486531
currently 485909
Jones 485767
popular 484770
agreement 484466
above 484352
concerns 483577
decided 482361
dire 482226
reason 481971
increased 481864
Two 481617
per@@ 481583
figure 481208
success 481031
demand 479710
70 479362
agreed 478997
pendant 478800
image 478638
levels 478335
pris 478163
jeunes 478091
sign 478061
wrong 477880
pm 477860
45 477721
opportunity 477506
knew 477193
seront 477158
2@@ 476679
Texas 476217
annoncé 476210
Google 476075
television 476015
= 475921
works 475885
minute 475405
Chris 475094
mis@@ 474912
Government 474713
fourth 474596
itself 474510
believed 474092
mean 473420
opening 473207
gone 473194
rapport 472935
Johnson 472919
giving 472827
range 472756
mis 471829
homes 471751
Après 471428
named 470640
heures 469970
raised 469437
Peter 468598
Our 468579
debate 468339
là 468257
ale 467950
serait 467916
husband 467744
Republicans 467355
Council 467171
gens 466847
rose 466803
Party 466685
coup 466049
figures 465924
reach 465763
reste 465539
mission 465295
management 464881
sold 464791
born 464286
words 464237
is@@ 463877
par@@ 463694
relationship 463634
m' 463232
si@@ 463204
Africa 462566
ings 462435
Association 462266
goes 461919
mon 460688
ie 460475
review 460446
website 460260
Be@@ 459764
annual 459291
travel 459256
culture 459218
Apple 458429
toutes 458100
An@@ 457842
looks 457586
die 457154
18@@ 456952
instead 456594
Day 456555
rien 455867
bon 455786
revealed 455780
stock 454984
version 454811
happy 454656
education 454560
experts 454128
Bar@@ 454024
read 453784
ist 453472
challenge 452926
Mc@@ 452752
Scottish 452627
Dr 452451
Richard 452358
Democrats 452334
According 452276
Cameron 452085
y-@@ 452024
tion 451945
crime 451888
self-@@ 451486
François 451461
jeune 451310
confirmed 451170
suite 450960
90 450802
actions 450370
* 450215
tête 450188
scene 449665
girl 449267
prendre 449164
expect 448382
général 448265
pouvoir 448265
simply 447445
station 447445
operations 446884
trop 446690
teams 446295
account 446267
judge 445957
Montréal 445863
St@@ 445761
style 445283
candidate 445158
double 444692
Williams 444641
Many 444519
act 444179
parts 444029
majority 444018
else 443990
construction 443819
pretty 443784
beat 443749
title 443660
stand 443342
Democratic 442948
2017 442889
fully 442293
scored 441398
leaving 441345
Donald 440398
numbers 440394
P 440348
build 439519
ard 439041
caused 439038
ner 438908
sex 438458
victims 438103
followed 437710
condition 436951
places 436895
devrait 436644
Not 436585
tr@@ 436127
speech 435915
nombre 435651
prime 435606
hour 435393
E 435298
he@@ 435125
effet 435077
Bush 434544
inter@@ 434399
ancien 434231
out@@ 434086
Her 434070
type 433564
boy 433420
simple 433043
understand 432725
10@@ 432308
common 432133
amount 431395
sector 430107
euro 430007
hands 429733
Health 429554
CNN 429425
sort 429207
cuts 429204
di 429111
claim 428876
op@@ 428845
loi 428574
injury 428403
do@@ 428397
German 428312
chose 427464
immediately 427395
man@@ 427287
chairman 427107
AFP 426799
effect 426017
€ 425783
General 425039
runs 424893
kids 424830
x 424630
via 424484
ready 424450
threat 424298
border 423683
track 423451
sécurité 423428
1@@ 423384
tant 423326
fighting 423085
built 422908
created 422880
Mac@@ 422618
Manchester 422577
ling 422204
contract 421727
ens 420699
afin 420558
adding 420317
ps 420235
veut 419345
supporters 418912
Par@@ 418808
warned 418698
positive 418594
ties 418294
pass 417831
network 417750
Internet 416983
details 416885
aura 416753
gets 416718
pe@@ 416455
2005 416323
happen 416191
Press 416097
cars 415732
D' 415500
certains 415084
aient 414476
Etat 414256
offered 414039
includes 413929
kept 413924
approach 413282
movie 412826
indiqué 412767
search 412295
watch 412056
note 411771
poor 411638
Thomas 411532
post 411504
M 411386
drive 411350
W 411146
murder 410967
aid 410944
ran 410578
photo 410379
ke 410288
cap@@ 409779
related 409476
businesses 409474
ter@@ 409351
mars 409111
ones 408998
Islamic 408982
previously 408907
residents 408878
ic 408540
mettre 408441
yesterday 408290
z 407996
celui 407952
re-@@ 407789
ask 407328
considered 406471
explique 406470
pre@@ 404936
model 404818
opened 404333
Royal 404278
histoire 403844
ker 403807
Barack 403668
champion 403490
ks 403481
starting 403310
s-@@ 402705
funding 402636
contact 402517
En@@ 402351
Of 402326
directeur 402215
moving 401931
From 401838
ensemble 401625
reached 401357
competition 401205
Then 400982
troops 400921
easy 400903
shooting 400671
signed 400491
jeu 400078
Bill 399903
School 399798
ten 399658
flight 399451
injured 398669
Justice 398571
ding 398481
Pakistan 398313
mobile 397580
changed 396967
juin 396824
returned 395864
quality 395324
hearing 394947
committee 394482
qu@@ 394424
Office 394231
decades 394154
mise 393824
Scott 393603
trip 393491
f 393355
missing 393097
class 393092
English 393084
occasion 393001
Br@@ 392949
fund 392901
letter 392813
ceux 392491
janvier 392326
Florida 392031
sport 392021
ensure 391709
eau 391539
posted 391239
Secretary 391030
route 390914
sell 390772
page 390417
true 390382
raison 390246
ban 389802
niveau 389779
sexual 389511
target 389490
chaque 389422
King 389402
First 389263
ey 389220
benefits 388934
closed 388765
Tom 388472
alone 388437
launched 388280
under@@ 388149
famille 388101
ka 388047
um 387844
on-@@ 387718
ing@@ 387592
straight 387540
researchers 387382
couldn 387278
br@@ 387088
te@@ 386711
co-@@ 386532
driving 386015
towards 385944
ants 385931
drugs 385676
v 385463
images 385200
Photo 385198
accord 385090
baby 384903
2.@@ 384816
Se@@ 384711
raise 384524
talking 384478
Lo@@ 384352
ou@@ 383920
killing 383889
ur@@ 383338
ré@@ 383193
funds 383016
Ms. 382940
UPI 382496
matin 382207
blood 382073
région 381932
droit 381804
parce 381784
p.m. 381717
gr@@ 381383
certainly 381023
league 380831
safe 380258
employees 380232
sites 380045
address 379839
ment 379455
student 379220
hundreds 378908
mind 378780
comments 378657
Po@@ 378492
demande 378074
street 377950
ul@@ 377828
measures 377666
beyond 377126
passed 376806
Most 376395
disease 376301
hier 375754
lack 375456
protect 374950
tough 374783
sale 374593
pu 373566
goals 373234
defense 373068
camp 372817
Or 372783
provided 372589
seem 372532
Mexico 372196
entreprises 371932
civil 371923
w 371911
commission 371472
Company 371325
sources 371005
appear 370598
leadership 370546
@ 370516
presse 370154
issued 370152
entreprise 370073
ler 369756
feet 369671
politics 369625
bonne 369620
ir@@ 369543
bid 369534
300 369461
trading 369308
joueurs 368884
seemed 368570
we@@ 368048
union 367808
perhaps 367757
battle 367675
insurance 367259
nature 367198
sp@@ 367033
ins 366917
Melbourne 366735
Image 366696
audience 366582
natural 366460
El@@ 366453
cover 366345
septembre 366197
Mike 365874
dollar 365808
décision 365798
clients 365738
damage 365365
ante 365147
passé 364920
Andrew 364890
ed@@ 364366
société 364247
Although 364036
protection 363779
reporters 363623
ages 363620
avoid 363454
ci@@ 363408
revenue 363328
ni 363240
designed 363153
seulement 363062
profit 362347
32 361927
below 361833
é@@ 361799
respect 361601
membres 361373
planned 360931
pair 360840
attempt 360825
partner 360267
users 360253
center 359394
dropped 359066
hotel 359016
Du@@ 358941
ni@@ 358915
ex@@ 358851
spend 358837
appears 358606
score 358290
suggested 357954
alleged 357897
ay 357785
newspaper 357680
go@@ 357516
der@@ 357445
War 357410
ak@@ 357354
climate 357117
mai 357002
joined 356976
Christmas 356836
rue 356802
ver@@ 356789
mieux 356621
Chicago 356488
store 356400
door 356374
decade 356128
suffered 356112
Com@@ 356068
retour 355941
calling 355661
titre 355603
bl@@ 355366
size 355284
lose 355193
accident 355149
independent 355073
save 354827
arrived 354522
Another 354407
puis 354311
Western 354082
Air 353452
plane 353280
finally 353200
Ces 353137
crise 353078
ec@@ 352802
2004 352718
Steve 352627
commercial 352333
No@@ 352275
St 352130
Dr. 351926
relations 351917
maire 351900
Ukraine 351872
Ben 351815
emergency 351667
Me@@ 351386
affaires 351269
Security 350631
improve 350526
weapons 350524
product 350396
choice 350315
additional 350243
ina 350074
confidence 350035
vu 350012
Bre@@ 349914
sometimes 349903
enquête 349845
organisation 349829
successful 349609
afternoon 349464
surprise 349263
dès 349220
toward 349045
ho@@ 348885
spoke 348733
driver 348256
femmes 348013
seeking 347844
Since 347789
host 347460
original 346957
north 346825
américain 346696
row 346671
av@@ 346614
mes 346550
Romney 345817
launch 345581
intelligence 345580
abuse 345497
written 345442
santé 345339
paper 345264
vi@@ 345152
aller 345089
Wales 344972
km 344676
council 344453
documents 344279
laws 344227
guilty 344201
housing 344198
il@@ 343943
ana 343816
juillet 343805
internet 343736
believes 343689
novembre 343584
throughout 343371
Ireland 343359
Th@@ 343349
0@@ 343228
fear 342930
complete 342789
surtout 342753
Italy 342722
Ryan 342644
About 342610
parti 342166
reduce 342092
fine 342005
Is 341785
Service 341647
winner 341613
autant 341500
bus 341257
Syrian 340989
nationale 340940
crowd 340912
wouldn 340828
worst 340823
solution 340488
mal 340201
hopes 339906
rule 339843
ah 339594
highest 339460
partir 339382
ex-@@ 339238
extra 338992
crash 338842
direct 338666
celle 338493
caught 338326
Just 338141
Di@@ 338129
ve 338121
domestic 337976
served 337973
stars 337731
album 337722
carried 337722
girls 337218
ary 337148
spot 337038
holding 336879
present 336855
marriage 336791
Other 336784
journée 336622
elections 336407
assets 336289
practice 336235
selling 335986
required 335819
mer 335748
consider 335410
troisième 335325
admitted 335319
avril 334890
Despite 334730
Wall 334662
Committee 334524
whom 334507
Centre 334402
strategy 334389
Grand 334333
hommes 334204
IS@@ 333838
word 333671
sports 333453
er-@@ 333407
matches 333366
brother 333287
sw@@ 333240
Daniel 333187
tes 333156
me@@ 332973
Man@@ 332765
secretary 332676
box 332431
operating 331979
hausse 331934
bi@@ 331914
foot 331897
criminal 331867
IS 331801
thinking 331639
bar 331434
female 331307
Pro@@ 331265
finale 330801
movement 330043
greater 330030
Avec 329956
peace 329834
75 329755
deep 329635
33 329509
femme 329243
injuries 328984
3.@@ 328875
benefit 328541
picture 328525
films 328360
ance 328321
ligne 328173
sides 328162
declined 328077
den 328035
Inc 327950
Ho@@ 327938
finished 327893
speak 327883
begin 327842
lines 327742
Red 327638
faces 327494
Mon@@ 327453
http 326976
showing 326848
photos 326749
activity 326642
coalition 326602
secteur 326350
ship 326024
Open 325964
planning 325628
concern 325389
hear 325337
owner 325246
da 325195
gold 324991
ne@@ 324827
Q@@ 324358
addition 324213
concerned 324136
department 323978
mort 323954
weather 323740
taux 323596
association 323510
gu@@ 323439
piece 323177
quelque 322887
ked 322763
ence 322616
Christian 322557
massive 322382
Go@@ 322362
particular 321952
weight 321876
radio 321779
middle 321710
denied 321685
strike 321681
soldiers 321614
victoire 321479
février 321470
formation 321398
Lee 321315
pl@@ 321136
restaurant 321073
entire 321057
So@@ 321006
bed 320341
Both 320074
rising 319749
ness 319636
evening 319560
souvent 319540
wide 319515
ator 319304
cher 319257
us@@ 319017
octobre 319016
fl@@ 319000
décembre 318811
province 318779
vehicle 318600
join 318540
bu@@ 318385
shown 318225
Sur 318199
X 318109
unique 318105
losing 318031
operation 318001
so@@ 317597
continues 317573
normal 317384
Spain 317347
powerful 317228
village 317221
ai@@ 317077
sommes 316976
ite 316917
appeal 316811
allegations 316684
N 316139
reality 315956
candidates 315768
answer 315593
semaines 315407
systems 315210
feeling 315097
immigration 314912
seul 314910
ia 314746
personne 314632
During 314393
receive 314322
34 314305
cities 314076
offers 313881
Today 313725
Tony 313590
ber 313491
design 313309
facing 313289
gun 313140
F 313109
walk 313078
prevent 313061
meant 313039
2000 312725
drop 312471
in-@@ 312317
books 312245
William 312231
Those 312012
critical 311426
lawyer 311104
article 310984
card 310904
overall 310716
36 310603
individual 310554
putting 310427
century 310387
militants 310188
no@@ 310178
période 310158
subject 310085
au@@ 310045
policies 310024
heavy 309889
taxes 309597
Federal 309569
1,@@ 309326
aw@@ 309261
économique 309109
ruling 309076
0.@@ 308415
proposed 308279
Ad@@ 308107
older 307971
estimated 307950
Chelsea 307910
Why 307840
ir 307799
européenne 307621
campagne 307586
Su@@ 307479
Ne@@ 307356
traditional 307333
cadre 307246
ge 307223
ette 307095
aged 307053
Nations 307037
ge@@ 306880
ats 306644
Joe 306377
Kim 306013
nouvelles 305913
ice 305894
beginning 305853
south 305853
2003 305600
font 305498
signs 305262
option 305032
els 304867
push 304841
Institute 304455
Hollywood 304291
20@@ 304221
floor 304113
plutôt 303977
influence 303892
legislation 303293
ane 302923
doctors 302807
Pe@@ 302764
reform 302758
petit 302714
fi@@ 302600
mark 302513
Charles 302357
eventually 302305
Depuis 302253
serve 302015
green 301647
ajouté 301531
amid 301506
becoming 301475
façon 301289
Nicolas 301194
tu@@ 301156
ani 301033
peuvent 301004
broke 300931
rare 300869
pick 300835
Yet 300791
stopped 300599
discovered 300516
seeing 299737
African 299654
Ex@@ 299573
res@@ 299541
bar@@ 299530
statements 299407
_ 299335
affected 299299
Plus 299039
Israeli 298853
He@@ 298650
sanctions 298616
clearly 298467
responsible 298462
offering 298315
Jackson 298219
prochain 298218
records 298130
balance 298129
consumers 297949
army 297922
dangerous 297647
clubs 297643
helping 297424
lin 297386
twice 297348
plant 297245
toutefois 297071
ves 297067
primary 296826
committed 296752
Per@@ 296734
follow 296689
Here 296643
0 296603
G 296443
brand 296268
bought 295935
communiqué 295781
attend 295510
secret 295345
Meanwhile 295336
environment 295266
Ab@@ 295247
du@@ 295245
Son 295066
seat 295052
identified 295047
rencontre 294969
wearing 294929
managed 294803
croissance 294627
character 294451
ent@@ 294190
Sir 294106
environ 294054
gives 293922
Prince 293912
progress 293901
knows 293709
suspect 293653
système 293617
brain 293365
ze 293232
telling 293041
programs 292972
struck 292882
ra 292879
moi 292849
Central 292711
college 292703
Their 292576
ky 292490
exemple 292433
55 292418
conseil 292265
fellow 292198
ering 291990
Boston 291942
baisse 291685
one-@@ 291525
yards 291362
Un@@ 291340
savoir 291285
Do@@ 291211
pain 291165
ending 291121
haven 291087
scheduled 291052
cr@@ 291005
mar@@ 290909
options 290839
gh@@ 290663
48 290617
asking 290584
Murray 290578
Etats-Unis 290477
donné 290466
terrain 290014
carry 289928
limited 289796
measure 289767
Big 289547
X@@ 289486
fuel 289483
inflation 289368
wood 289195
add 289042
d-@@ 288937
tests 288924
writing 288879
waiting 288795
remained 288710
increasingly 288499
remember 288439
for@@ 288418
magazine 288388
park 288183
loin 288034
missed 287862
ters 287826
society 287808
completely 287775
band 287668
Stephen 287594
victim 287546
science 287489
65 287480
difference 287454
x@@ 287369
learn 287341
noted 287252
désormais 287053
married 286963
état 286798
yn 286515
400 286502
38 286492
shared 286479
developed 286433
tri@@ 286428
agit 286243
Muslim 285855
survey 285838
Mme 285684
tard 285590
agent 285563
eyes 285545
nom 285436
plays 285280
derniers 285228
projects 285207
Fox 285203
gauche 285193
trust 285175
ingly 285080
ak 285036
views 284885
maison 284721
bs 284591
streets 284498
storm 284493
placed 284441
ement 284402
ber@@ 284150
perfect 284019
highly 283923
sea 283842
myself 283732
risque 283664
dog 283385
daily 283347
fair 282971
ded 282736
send 282721
largely 282685
série 282571
personnel 282451
reasons 282368
Ber@@ 282350
earnings 282310
dernières 282246
paying 282233
modern 282226
vue 282109
airport 282051
vont 282033
refused 282009
37 281959
Post 281955
gain 281898
doubt 281876
terme 281862
Turkey 281825
filed 281804
risks 281752
nombreux 281714
Chief 281626
Act 281358
Green 281317
eye 281095
High 281057
usually 280937
prepared 280925
ists 280902
Hollande 280898
supply 280591
fit 280539
Ver@@ 280348
II 280344
fired 280280
content 280223
penalty 280217
long-term 280120
grâce 280119
church 280100
2001 280077
owners 280066
Li@@ 280048
développement 280006
reporting 279854
vehicles 279583
holiday 279473
votes 279466
Tour 279431
Daily 279303
recovery 279203
ative 279092
regular 279011
ayant 278844
cents 278796
focused 278565
spokeswoman 278337
faced 278330
backed 278177
opinion 278176
Editing 278041
fort 278002
sub@@ 277906
festival 277607
Har@@ 277563
suicide 277553
exactly 277517
sur@@ 277481
rival 277352
watching 277279
Don 277171
professional 277117
actor 277104
CEO 277054
ong 276966
Patrick 276933
warning 276802
ta 276739
attorney 276672
Black 276596
Kevin 276483
armed 276451
vient 276258
linked 276167
defence 275931
fast 275878
responsibility 275823
tic 275735
44 275624
illegal 275367
appel 274985
eur 274679
collection 274659
suit 274628
Hill 274546
Asia 274496
patient 274368
Mrs 274275
aircraft 274222
pi@@ 274156
ell 274066
heure 274045
screen 273965
sc@@ 273877
Par 273870
produced 273662
re 273498
dy 273459
vraiment 273283
Alex 273143
voice 273081
scène 273021
Sarkozy 272967
cl@@ 272960
active 272860
ic@@ 272467
mostly 272467
42 272445
Research 272253
française 272249
Français 272155
protests 272144
US@@ 272135
wait 272131
standing 272081
fiscal 272029
nouveaux 271825
Coast 271807
lived 271735
governor 271717
unit 271582
Bu@@ 271444
conflict 271348
maintenant 271056
worse 271037
treated 271020
hi@@ 270994
passer 270794
4.@@ 270656
chances 270640
Italian 270578
consumer 270518
donner 270456
résultats 270391
succès 270321
fun 270102
names 269941
arrest 269915
author 269828
jury 269685
standards 269463
mesure 269404
super@@ 269335
famous 269236
Tr@@ 269191
ill 269171
assault 269056
ordered 269031
protest 268770
Ko@@ 268556
necessary 268546
fr@@ 268519
keeping 268465
cor@@ 268374
poll 268276
stories 268264
basis 268206
block 268192
traffic 268178
transport 268084
generation 268066
su@@ 267971
grands 267896
cast 267802
ABC 267684
Bay 267612
ade 267549
speaking 267475
Olympic 267470
août 267449
affaire 267417
ford 267256
speed 267246
vision 267192
État 267183
gi@@ 267171
ars 267161
Army 267141
language 267041
ish 267030
gay 267006
owned 266986
Hall 266810
grow 266804
various 266771
cu@@ 266534
district 266304
fresh 266245
produits 266221
id@@ 266193
end@@ 266092
Indian 265921
fashion 265833
# 265665
status 265631
finance 265592
boys 265565
analysts 265173
Club 265164
surgery 265118
St. 265002
MP 264963
Japanese 264867
États-Unis 264834
Qu@@ 264638
2002 264608
exchange 264488
Virginia 264336
decisions 264275
island 264152
Pierre 264019
failure 263917
ini 263762
sein 263656
ore 263402
northern 263323
départ 263320
Am@@ 263265
deaths 263147
Ri@@ 263099
Associated 263007
ously 262964
ru@@ 262947
porte-parole 262695
professor 262615
Liverpool 262501
giant 262366
ais 262335
choix 262298
draw 262258
advantage 262210
Beijing 262063
finish 261970
accounts 261901
captain 261876
hot 261563
agents 261443
st 261358
Bl@@ 261242
boost 261021
tournament 261006
17@@ 260940
aware 260577
ministère 260519
ensuite 260490
ies 260486
eted 260374
aren 260281
effective 259835
finding 259711
seek 259649
broken 259426
estate 259291
aucun 259273
port 259122
économie 258906
separate 258822
ales 258683
computer 258609
complex 258534
besoin 258468
hair 258175
autour 258154
scientists 258148
increasing 258089
Hillary 258066
nearby 258023
resources 257976
rock 257947
conservative 257849
Foreign 257841
wall 257773
seconds 257731
southern 257534
mental 257413
Gu@@ 257160
PM 257047
corruption 256992
shop 256707
expliqué 256658
ered 256456
advice 256455
directly 256306
af@@ 256187
spread 255957
herself 255910
pro@@ 255641
tel 255637
mid-@@ 255434
guy 255404
Ke@@ 255386
steps 255348
com@@ 255344
Taylor 255236
Supreme 255232
dossier 255088
américaine 254905
Louis 254897
corporate 254632
sound 254498
activities 254468
losses 254370
pulled 254352
Jack 254275
defeat 254251
university 254136
lie 254066
explained 253988
39 253949
combat 253865
H 253841
onto 253394
crimes 253302
fifth 253281
Tim 253279
passengers 253245
tions 253237
allegedly 253191
nations 253082
joint 253022
ino 252662
Sch@@ 252634
ali@@ 252600
suggests 252408
danger 252387
parliament 252300
Man 252234
proposal 252204
ya 252136
Gr@@ 252120
Fed 252107
estime 252079
ger 251959
permis 251877
providing 251863
politicians 251523
difficile 251496
Carolina 251449
shots 251439
école 251386
Northern 251249
west 251133
firms 251080
autorités 251066
protesters 250884
jouer 250847
Instead 250725
approved 250708
division 250656
annonce 250653
College 250411
physical 250373
effects 250311
announcement 250247
pr@@ 250230
ig@@ 250219
Michel 250211
moments 250196
Three 250051
regime 249991
ines 249596
arrive 249527
12@@ 249450
allowing 249395
For@@ 249377
develop 249298
guys 249275
Brazil 249219
kill 249039
ach@@ 248972
high-@@ 248951
Reporting 248904
votre 248565
discuss 248461
Eric 248205
birth 248189
J 248181
Greece 247913
produce 247906
Ford 247847
District 247740
features 247584
arm 247462
index 247441
Or@@ 247438
publique 247293
grew 247272
Comme 247270
hu@@ 247209
Pi@@ 247148
sens 247126
organization 247020
uses 246979
Jo@@ 246908
Mal@@ 246907
Nick 246844
squad 246842
suggest 246836
upon 246812
ez 246778
rich 246541
setting 246485
Putin 246478
citizens 246377
secure 246366
up@@ 246309
premiers 246302
ends 246256
responsable 246206
ads 246136
lancé 245815
mon@@ 245673
Tout 245532
43 245358
ery 245316
maybe 245310
tive 245219
loans 245058
falling 244942
Sal@@ 244849
ruled 244825
41 244607
doivent 244308
ain 244275
1,000 244029
arms 243981
buying 243926
ches 243886
ise 243553
sentence 243341
Hospital 243288
Simon 243193
unlikely 243159
recherche 243098
mesures 243097
dark 242930
rôle 242888
Y 242870
ma@@ 242807
auprès 242605
ten@@ 242582
request 242491
droits 242488
argent 242443
session 242320
Under 242317
Toronto 242275
specific 242104
Lord 242088
carrying 241755
15@@ 241645
loan 241624
Road 241620
Over 241576
impossible 241568
initial 241566
declared 241525
anti@@ 241450
changing 241346
dix 241344
offre 241342
sitting 241263
bigger 241078
Egypt 241046
cre@@ 241031
healthy 241009
equipment 240968
bodies 240932
passe 240672
affirmé 240530
Cela 240515
Matt 240322
ful 240132
violent 240130
emploi 240087
Korean 240019
check 239988
provides 239749
religious 239445
49 239298
expert 239269
Her@@ 239105
Queen 239027
positions 238917
deliver 238841
ors 238644
surface 238551
Jean 238540
absence 238464
juste 238421
agencies 238342
stores 238330
communities 238241
ess 238194
institutions 238189
multiple 238064
material 237954
importance 237940
Zealand 237918
Middle 237868
smaller 237818
choses 237775
two-@@ 237687
back@@ 237681
regional 237640
47 237595
sujet 237455
jail 237419
petite 237160
Conseil 236851
guerre 236782
a.m. 236649
ay@@ 236607
MPs 236597
standard 236543
profits 236499
politiques 236495
idée 236472
appearance 236333
remaining 236330
elected 236329
reading 236319
marketing 236280
ff 236214
sister 236168
email 235887
Davis 235785
46 235703
fo@@ 235658
presence 235596
ys 235588
ring 235487
Star 235273
um@@ 235250
criticism 235101
trouble 235070
McCain 235065
id 235027
offensive 234767
extremely 234612
CBS 234597
wins 234565
Still 234511
Pl@@ 234509
accept 234504
ables 234295
scheme 234295
Web 234285
ph@@ 234268
pre-@@ 234143
song 234142
application 234083
décidé 234019
aucune 234015
Dis@@ 233917
oc@@ 233809
bringing 233526
urged 233404
governments 233379
Saint-@@ 233305
permet 233084
Its 233045
reportedly 233027
150 232990
agree 232916
rec@@ 232881
hasn 232865
panel 232777
negotiations 232727
messages 232706
alongside 232655
challenges 232611
fan 232610
semble 232605
dec@@ 232453
Q 232433
individuals 232396
problème 232377
loved 232274
introduced 232232
Test 232225
sought 232153
Sen. 232151
terrorist 232127
objectif 232100
Francisco 232072
mer@@ 231864
Harry 231824
slightly 231654
coverage 231588
contributed 231559
Hu@@ 231532
expensive 231515
decide 231507
tw@@ 231505
Anthony 231352
Because 231342
Energy 230996
Former 230963
writer 230947
dr@@ 230798
and@@ 230710
developing 230710
Madrid 230700
vice 230651
durant 230615
hurt 230574
activité 230560
trouver 230492
ang@@ 230296
Mor@@ 230097
camera 229963
updated 229960
salle 229942
completed 229906
east 229883
male 229860
fish 229820
Victoria 229629
serving 229565
interests 229552
sk@@ 229549
expressed 229503
digital 229423
haut 229336
meilleur 229313
discussions 229229
intervention 229147
Like 229144
wind 229119
turning 229108
bottom 229078
52 228981
voted 228940
mass 228922
unable 228880
Ça 228783
manière 228760
principal 228726
Saudi 228706
Canadian 228673
K 228617
droite 228539
confident 228521
seule 228459
boss 228448
struggling 228400
Taliban 228390
opportunities 228271
colleagues 228232
Great 228209
determined 228131
blue 228045
ve@@ 228014
pictures 227835
convicted 227811
laquelle 227771
Pr@@ 227698
00 227670
picked 227369
nuit 227285
Sept 227283
prove 227213
ff@@ 227158
ism 227140
decline 227121
Hong 227074
95 227046
16@@ 227042
slow 226926
Labor 226906
doctor 226888
starts 226833
capable 226792
FBI 226623
happens 226524
Young 226441
Ohio 226399
younger 226371
larger 226360
well-@@ 226310
joueur 226295
Real 226273
existing 226203
Jim 226088
houses 225913
coast 225838
mal@@ 225653
antes 225527
trans@@ 225483
structure 225443
deals 225377
99 225313
minimum 225169
hits 225114
Sam 225027
policiers 225011
eat 224984
pense 224927
crew 224827
ely 224742
animal 224704
NS@@ 224663
removed 224626
Services 224540
milieu 224493
Home 224464
Island 224258
payments 224202
abord 224107
600 224068
Financial 224006
emerged 223792
GOP 223698
spring 223690
studies 223600
acting 223495
section 223447
learned 223336
winter 223332
ba 223202
bomb 223134
covered 223124
expectations 223121
5.@@ 223109
Quand 223109
Will 223097
Col@@ 222954
notes 222861
père 222850
walking 222827
analyst 222674
creating 222674
Media 222667
GMT 222540
min@@ 222526
assez 222521
U 222478
talent 222474
sets 222460
Festival 222198
Spanish 222101
passage 221909
Gar@@ 221762
migrants 221722
Adam 221645
Queensland 221283
scale 221276
capacity 221191
nice 221146
2,@@ 221109
require 220948
hoping 220891
allows 220783
peine 220754
NHS 220342
singer 220302
arrivée 220172
write 220112
wing 220074
fonds 220035
corps 220004
closer 219902
Parliament 219850
wear 219845
dû 219772
pu@@ 219716
potentially 219629
Super 219619
tie 219506
ry 219205
voix 219114
Who 219019
yn@@ 218972
U.N. 218963
Journal 218947
AF@@ 218916
guard 218794
heads 218774
animals 218601
Fe@@ 218581
Allemagne 218568
51 218508
driven 218496
Iraqi 218442
Bi@@ 218347
Lewis 218259
mine 218124
54 218116
plenty 218097
ant@@ 218074
Chine 218020
té 217926
earned 217858
tells 217790
willing 217737
three-@@ 217712
Vous 217619
items 217601
cabinet 217575
handed 217544
suffering 217463
fe@@ 217460
Agency 217432
analysis 217383
ash 217372
established 217343
Kong 217270
Sp@@ 217111
sept 217096
85 217064
ue 217056
God 216993
supported 216958
concert 216866
majorité 216748
easily 216692
0,@@ 216688
étude 216621
cold 216615
software 216604
seats 216552
touch 216548
03 216541
yard 216511
stuff 216497
Year 216451
ched 216125
apparently 216014
stood 216010
Alors 216002
post-@@ 215998
fears 215978
Afghan 215947
ski 215768
Force 215682
rally 215651
rescue 215604
Me 215539
che@@ 215539
pace 215538
strength 215528
recorded 215472
ms 215403
beautiful 215245
alternative 215173
Moscow 215094
headed 215054
drivers 214991
solutions 214650
lawyers 214610
str@@ 214565
14@@ 214548
Min@@ 214492
Cl@@ 214365
précisé 214245
virus 214123
forme 214110
location 214049
argued 213905
clean 213729
Im@@ 213535
debut 213528
Games 213499
journal 213488
Mer@@ 213420
ministers 213222
Jersey 213193
infrastructure 213065
buildings 212875
ology 212790
ordre 212767
53 212650
raising 212565
sl@@ 212533
visitors 212398
feels 212276
porte 212220
Ge@@ 212187
UN 212128
seriously 211890
continuing 211884
deputy 211851
negative 211822
ob@@ 211713
ko 211592
activités 211547
Rio 211533
findings 211361
Arsenal 211342
feature 211312
Capital 211277
13@@ 211182
to-@@ 211107
interested 211083
Gre@@ 210961
doute 210916
To@@ 210835
sit 210761
currency 210671
respond 210663
PS 210649
artist 210533
authority 210518
ep@@ 210515
pushed 210495
approval 210311
rendre 210253
lawmakers 210149
Far@@ 210064
peut-être 210053
demandé 209956
Before 209942
Kelly 209806
> 209636
path 209614
promised 209585
reduced 209467
Brian 209396
Ligue 209387
cur@@ 209387
referendum 209278
gains 209178
Life 209171
fees 209072
Edinburgh 209065
quick 209002
ping 208968
distance 208915
Ville 208902
powers 208834
enter 208732
all-@@ 208728
possibility 208706
devices 208667
gar@@ 208626
sed 208588
commitment 208584
limit 208508
dress 208504
scoring 208476
pop 208348
enjoy 208326
aff@@ 208223
relatively 208171
leg 208150
perdu 208102
retail 208067
corner 208045
Bernard 207984
bout 207924
Arab 207867
by@@ 207839
conversation 207829
surveillance 207818
We@@ 207779
tor@@ 207698
absolutely 207692
inquiry 207604
freedom 207567
Stadium 207540
stands 207399
widely 207233
victimes 206937
entrée 206851
Do 206748
sait 206673
delivered 206634
charity 206607
code 206585
1er 206557
eu@@ 206485
Once 206392
Wilson 206378
Ste@@ 206249
présence 206162
ste@@ 206034
juge 206012
grandes 205959
Lu@@ 205800
che 205768
worried 205702
the@@ 205701
sel@@ 205627
skin 205588
walked 205564
Morgan 205436
rejected 205257
maker 205158
document 205149
feu 205146
Miss 205082
threatened 205051
rain 205049
7.@@ 205047
ble 205044
sing 205036
internationale 204990
Among 204963
immediate 204958
tribunal 204888
affirme 204884
Earth 204851
travaux 204792
56 204768
pro-@@ 204714
Van 204706
morts 204681
Sea 204501
Miller 204442
musique 204405
57 204384
Only 204366
Treasury 204322
ère 204298
après-midi 204268
Philippe 204240
Women 204138
stone 204057
ano 204037
stocks 204023
head@@ 203947
suspended 203890
mi@@ 203889
Bob 203813
meaning 203777
enforcement 203769
opération 203732
factors 203690
xit 203645
anger 203631
display 203529
suspected 203495
severe 203339
banking 203215
Public 203130
heat 203122
proud 203089
connu 203058
Ali 203052
controversial 203041
Miami 202947
quoi 202837
considering 202755
breaking 202702
étant 202529
teacher 202473
informations 202441
participation 202432
sortie 202346
air@@ 202345
candidat 202335
initiative 202318
western 202310
défense 202306
thanks 202259
Andy 202192
forte 202068
ongoing 201939
ying 201792
É@@ 201745
industrial 201457
drama 201449
contrôle 201410
Bel@@ 201397
conducted 201357
voting 201309
att@@ 201282
lies 201236
ati@@ 201228
stress 201163
leaves 201122
Al 201044
twe@@ 200926
eastern 200895
Irish 200659
sy 200514
boat 200503
forecast 200464
ev@@ 200361
transition 200346
Brisbane 200330
Coupe 200242
possibly 200198
insisted 200122
5-@@ 200113
equity 200062
four-@@ 199996
discussion 199939
avenir 199901
ing-@@ 199870
crucial 199803
watched 199791
soutien 199651
5,000 199634
NFL 199559
58 199520
800 199322
unemployment 199206
Cas@@ 199189
Asian 198959
associated 198892
client 198845
pen@@ 198840
ably 198817
est@@ 198786
partners 198761
app 198735
armée 198699
malgré 198680
edge 198666
polls 198645
Business 198631
listed 198477
deficit 198474
Si@@ 198415
réseau 198400
alcohol 198398
Foundation 198390
device 198354
independence 198315
van 198303
initially 198287
Earlier 198237
assistant 198215
skills 198195
pitch 198152
core 198133
pool 198013
attacked 197979
Ni@@ 197915
ain@@ 197828
scandal 197803
award 197760
can@@ 197732
nor 197701
venir 197659
prosecutors 197620
Source 197547
pourtant 197527
participants 197429
shift 197416
den@@ 197406
moyenne 197324
recession 197221
Arizona 197185
testing 197179
fly 197101
intention 197068
responded 196963
contrat 196961
ideas 196921
Frank 196834
az@@ 196759
critics 196681
mortgage 196679
occurred 196517
communication 196487
euse 196399
experienced 196394
régime 196378
actress 196341
ang 196308
parmi 196256
Berlin 196158
Jordan 196147
shopping 196072
ching 195930
choose 195930
élections 195905
cells 195897
technique 195889
degree 195805
aimed 195768
truth 195753
acts 195735
Fl@@ 195717
67 195698
6.@@ 195680
sky 195622
rebels 195546
mère 195544
mann 195518
fin@@ 195453
an-@@ 195411
Libya 195390
targets 195317
machine 195209
entered 195162
cap 195160
européen 195128
enfant 195094
bond 195083
involving 195078
Valley 194998
grown 194822
ster 194796
chiffre 194714
Global 194695
definitely 194660
pictured 194605
ators 194553
proved 194543
iPhone 194517
Em@@ 194468
miss 194448
sleep 194423
presented 194338
médias 194312
teachers 194174
huit 194109
Getty 194064
reçu 194043
ns 193945
easier 193800
za 193783
Jason 193767
mondiale 193752
improved 193703
carrière 193657
fallen 193574
replace 193551
ver 193504
ped 193493
kers 193474
Microsoft 193384
knowledge 193265
relief 193172
pc 193147
conduct 193140
generally 193117
ham 193092
ell@@ 192867
cell 192850
confiance 192742
Sports 192374
Jonathan 192338
Ac@@ 192323
Gordon 192245
ran@@ 192197
Judge 192141
attended 192019
whatever 191970
des@@ 191945
flights 191894
59 191873
publicly 191849
count 191838
spectacle 191732
Well 191700
époque 191683
Mu@@ 191671
environmental 191670
donne 191491
Palestinian 191486
adults 191328
Best 191305
yourself 191305
Adel@@ 191272
eating 191245
Ru@@ 191120
Nord 190948
accès 190937
Même 190852
Gaza 190827
year-old 190793
activists 190725
aire 190671
parfois 190655
produit 190641
trouve 190633
argument 190629
orders 190542
apartment 190448
dem@@ 190348
compagnie 190327
mayor 190062
passing 189978
flat 189974
pointed 189941
kin 189935
inspired 189906
ouverture 189846
68 189828
Cal@@ 189821
bridge 189648
combined 189639
assistance 189619
explain 189428
fraud 189398
Also 189341
filled 189332
maximum 189130
bro@@ 189077
customer 188977
returns 188971
poste 188963
roads 188938
Time 188931
72 188884
lots 188842
pension 188785
connection 188774
facility 188763
competitive 188720
phase 188704
tied 188656
Mary 188510
engagement 188432
targeted 188432
gl@@ 188420
Kennedy 188411
interesting 188401
Rangers 188385
familiar 188369
terrorism 188216
conférence 188153
flying 188110
repeatedly 188109
pounds 188101
fewer 188099
kes 188096
so-called 188082
ek 188022
turns 187983
disaster 187969
wh@@ 187949
cutting 187834
soirée 187822
création 187784
controlled 187603
RE@@ 187519
Yes 187488
WASHINGTON 187316
greatest 187255
ban@@ 187186
El 187165
Top 187158
88 187086
welcome 187004
66 186987
matière 186894
Russie 186868
ft 186867
visited 186819
capitale 186794
ality 186763
gros 186759
USA 186560
shut 186469
pré@@ 186426
learning 186362
fer@@ 186329
intended 186215
Str@@ 186206
ney 186194
causing 186090
circumstances 186073
Glasgow 186064
platform 186043
yes 186028
historic 185994
retired 185939
NEW 185841
nomination 185756
fighters 185751
communications 185711
exercise 185704
ceremony 185684
meetings 185608
certaines 185560
rapidement 185560
Instagram 185559
tu 185483
bag 185473
Radio 185457
causes 185366
équipes 185331
returning 185327
origine 185301
parler 185282
Church 185262
Olympics 185251
projets 185204
supporting 185118
terror 185071
refugees 184925
Let 184921
determine 184871
derrière 184859
cross 184834
ack 184782
ick 184720
bur@@ 184703
64 184697
distribution 184559
drink 184493
wi@@ 184391
holds 184293
prochaine 184277
vast 184233
Fr@@ 184129
plants 183966
Your 183962
basic 183929
prend 183887
banned 183747
J. 183741
rivals 183706
Four 183589
Marc 183581
Justin 183561
données 183530
sees 183422
heading 183408
Wil@@ 183400
Bro@@ 183355
62 183302
AS@@ 183291
champions 183250
har@@ 183249
propos 183225
leads 183206
tandis 183141
10-@@ 183071
Georgia 183057
closely 183019
struggle 182984
becomes 182963
zed 182892
actuellement 182887
instance 182770
tôt 182667
AL@@ 182646
River 182599
ari@@ 182486
dozen 182472
helps 182414
expérience 182283
unless 182232
liste 182223
file 182163
Val@@ 181995
livre 181918
Houston 181863
duty 181825
Blue 181782
dinner 181770
behaviour 181769
Inter@@ 181743
ash@@ 181669
dogs 181608
Board 181601
Sarah 181476
attaque 181462
réussi 181461
estimates 181380
stake 181319
claiming 181304
marchés 181155
mode 181150
ws 181104
buts 181060
lawsuit 181033
Pacific 181014
hole 180995
générale 180966
No. 180912
Ki@@ 180705
âge 180700
prise 180658
fond 180612
Ottawa 180599
investigators 180581
Beach 180557
affect 180527
worldwide 180435
vente 180403
As@@ 180371
pull 180344
window 180337
mouvement 180325
belle 180303
package 180278
marque 180178
investigating 180166
Champions 180146
plein 180124
Defense 180063
intérêt 180058
chain 180015
ure 180013
wine 180013
pages 179975
Human 179950
shortly 179630
journalists 179628
tro@@ 179591
précise 179581
rugby 179566
split 179547
reforms 179508
lu@@ 179462
moves 179387
species 179131
Kar@@ 179123
Game 179087
maintain 179064
facilities 179055
emotional 179001
ill@@ 178995
heavily 178909
bri@@ 178863
Pre@@ 178852
davantage 178837
beach 178589
Parti 178445
qualité 178417
executives 178179
wish 178177
gender 178135
happening 178096
Bal@@ 178057
phones 177986
savings 177936
quant 177930
genre 177912
Ministry 177896
understood 177877
ach 177875
permettre 177838
footage 177739
increases 177709
souligne 177704
cas@@ 177661
ac 177632
Telegraph 177619
groupes 177552
garde 177520
AN@@ 177487
link 177472
Old 177471
V 177454
ret@@ 177413
understanding 177380
finalement 177352
prévu 177284
Kate 177267
identify 177114
overseas 177110
extended 177095
Deux 177059
wake 176949
Pal@@ 176941
3,@@ 176904
strikes 176883
Every 176882
territory 176855
explosion 176798
and-@@ 176763
dies 176691
pe 176651
mu@@ 176576
Show 176513
Bur@@ 176456
atory 176438
mondial 176364
achieve 176363
sûr 176323
iste 176269
1999 176187
lorsque 176079
Au@@ 176065
sending 176034
emb@@ 176027
models 175945
all@@ 175900
Medical 175809
matters 175801
11@@ 175785
alive 175761
Hamilton 175725
obviously 175664
qu 175639
tackle 175618
Moore 175610
supposed 175573
Nov. 175531
accepted 175520
ride 175388
none 175375
fils 175372
propose 175340
worry 175331
pourraient 175313
Ed 175299
Images 175262
700 175193
suspects 175115
wounded 174982
Marine 174964
surprised 174939
copyright 174931
failing 174857
Merkel 174837
restaurants 174815
débat 174714
dream 174705
voiture 174663
threats 174653
cho@@ 174633
our@@ 174514
sociaux 174492
cards 174488
deeply 174482
gestion 174447
advertising 174399
Ju@@ 174398
Hor@@ 174371
Henry 174357
longtemps 174344
veteran 174335
8.@@ 174319
stations 174272
Car 174199
transfer 174115
catch 174030
63 173998
weak 173989
pushing 173957
Joseph 173922
reaction 173744
Detroit 173740
Er@@ 173720
Southern 173720
perform 173711
Watch 173668
19@@ 173655
Iranian 173646
ren@@ 173545
ements 173498
hand@@ 173483
expansion 173452
ques 173424
éviter 173406
République 173400
captured 173396
-based 173387
2,000 173371
dozens 173325
types 173291
nu@@ 173267
wedding 173259
stable 173235
worker 173206
secrétaire 173186
retirement 173165
Gold 173106
71 173104
gap 173036
ki 172822
elling 172782
Democrat 172619
1-@@ 172525
ticket 172508
encourage 172501
friendly 172460
low-@@ 172202
Anderson 172132
carbon 172130
entirely 172087
pied 171995
significantly 171982
Abbott 171981
salariés 171957
percentage 171937
founder 171929
ours 171872
2018 171869
Charlie 171852
allies 171824
Ian 171794
performed 171676
venue 171663
Senator 171609
Oct. 171581
jo@@ 171566
her@@ 171551
3-@@ 171549
sat 171499
lorsqu' 171442
co 171420
closing 171370
Rights 171294
receiving 171289
gs 171236
pose 171213
bas 171191
bn 171165
dispute 171147
producer 171146
attempts 171139
Professor 171121
passes 170979
promise 170969
Eastern 170963
journey 170877
square 170865
Iowa 170845
courts 170830
berg 170744
Greek 170731
studio 170690
shareholders 170658
pieces 170648
apart 170621
écrit 170494
glass 170472
inc@@ 170416
ser@@ 170406
ultimately 170357
fille 170316
69 170302
vo@@ 170273
trimestre 170175
.com. 170161
flow 170091
cool 170089
summit 170073
o-@@ 169927
sentenced 169920
delivery 169908
performances 169899
drawn 169883
likes 169873
Though 169787
imagine 169698
ath@@ 169584
Michigan 169581
remove 169548
es-@@ 169470
rer 169351
missile 169295
Tu@@ 169293
ents 169233
souligné 169232
presque 169193
tend 169151
ow@@ 169111
AM 169097
advance 169032
internal 169030
bills 168979
vulnerable 168974
golf 168938
Conservative 168887
'I 168876
ot 168867
wave 168861
Amazon 168836
aim 168794
drinking 168604
applications 168601
premières 168550
Pas 168519
episode 168459
trend 168438
compensation 168336
250 168255
eurs 168242
travers 168184
présent 168161
accusations 168019
otherwise 167956
amazing 167892
identity 167890
adds 167888
settlement 167881
Colorado 167814
yer 167743
task 167656
values 167598
Assad 167555
devait 167552
cultural 167462
Museum 167413
shape 167351
visite 167264
moyens 167254
voit 167249
ouvert 167236
agenda 167210
opposed 167207
Alan 167179
indique 167074
FC 167032
reputation 167024
communauté 166877
ments 166872
Can 166838
regard 166785
hoped 166742
2-@@ 166741
tiny 166719
NBC 166648
memory 166540
draft 166538
Love 166504
Steven 166499
tries 166389
met@@ 166376
civilians 166362
eront 166316
appointed 166093
Mi@@ 166085
nombreuses 166031
Sun 165958
faith 165952
represents 165750
attempted 165709
contest 165708
purchase 165707
ke@@ 165699
chair 165660
Fo@@ 165613
Vi@@ 165536
89 165528
Del@@ 165512
na 165483
vidéo 165186
innings 165138
anniversary 165127
war@@ 165067
snow 165065
valeur 165025
61 165020
stronger 165004
weren 164982
Dan 164967
ron 164958
five-@@ 164933
knee 164863
Te@@ 164862
problèmes 164852
9.@@ 164843
vite 164840
blog 164805
fied 164798
a-t-elle 164775
ee 164766
instant 164672
victime 164664
Speaking 164563
tennis 164561
prior 164496
incidents 164492
élection 164487
blame 164446
grave 164379
enc@@ 164367
characters 164243
opponents 164241
revenues 164227
Francis 164213
manufacturing 164170
avance 164128
pression 164082
travailler 164076
ap 164034
apply 164021
proche 163996
puisque 163944
goods 163886
Du 163761
ty@@ 163682
ake 163653
Tokyo 163567
particulièrement 163510
lock 163488
Management 163478
novel 163412
faits 163382
expects 163363
musical 163360
quotidien 163347
publié 163311
bas@@ 163298
shock 163288
unusual 163226
texte 163100
off@@ 163059
favourite 163047
replaced 163047
Matthew 162987
tensions 162938
Six 162902
bin 162897
contracts 162868
factor 162817
gained 162727
Gov. 162693
excellent 162623
dialogue 162594
Ti@@ 162588
Gary 162579
appropriate 162565
YouTube 162528
Ben@@ 162484
habitants 162473
tomorrow 162444
immigrants 162337
dance 162204
sons 162193
assure 162172
ab 162152
Mail 162148
manque 162137
emissions 162045
expenses 161983
writes 161928
enne 161897
Red@@ 161831
Dar@@ 161802
Jeff 161768
Total 161767
movies 161702
text 161685
ington 161626
thinks 161496
-up 161410
Vegas 161368
ically 161310
employment 161309
cependant 161284
sch@@ 161224
ven@@ 161170
vital 160794
Children 160753
entraîneur 160752
treat 160752
youth 160617
hitting 160616
ah@@ 160575
ace 160484
Republic 160462
Turkish 160425
Tri@@ 160393
ym@@ 160376
pilot 160319
assurer 160308
oeuvre 160304
seasons 160251
vrai 160212
q@@ 160185
bureau 160166
Jan. 160126
obtenir 160081
Video 160061
Wi@@ 160051
guide 160033
everybody 159999
Dr@@ 159994
truck 159915
ard@@ 159913
impression 159904
alised 159872
democracy 159862
député 159853
effectively 159847
viewers 159846
tly 159839
Bou@@ 159787
elsewhere 159776
Good 159765
estimé 159725
beau 159655
énergie 159640
artists 159562
Director 159508
editor 159484
permanent 159392
erait 159386
bre@@ 159335
Education 159251
payment 159230
sharing 159176
lequel 159173
Alexander 159150
proposals 159135
ian 159126
quartier 159087
AT@@ 159051
kick 159022
sti@@ 159010
présenté 158906
Channel 158905
McC@@ 158844
parent 158681
sun 158638
chi@@ 158440
Perry 158418
UMP 158310
k-@@ 158281
locked 158268
en-@@ 158265
Square 158205
1998 158189
Are 158164
cro@@ 158117
Graham 158069
Roger 158037
hospitals 157991
wild 157945
advanced 157865
stick 157838
begins 157817
pp@@ 157808
harder 157776
résultat 157740
ass@@ 157711
Cour 157683
ventes 157674
acknowledged 157667
dramatic 157608
ao 157599
tree 157599
ann@@ 157554
Gl@@ 157527
tur@@ 157466
intense 157459
Las 157421
Jewish 157415
actual 157400
airline 157385
auteur 157373
custody 157304
Rose 157272
Ma@@ 157197
reporter 157197
Can@@ 157138
Social 157138
ss@@ 157133
possession 157126
Oscar 157103
ships 157096
dirigeants 157073
lift 157037
mix 157007
false 156965
Allen 156913
coeur 156867
micro@@ 156858
tested 156833
enjoyed 156776
comfortable 156754
acquisition 156724
sen 156698
judges 156678
argue 156595
tickets 156520
4-@@ 156496
10,000 156483
responsables 156472
7-@@ 156467
Football 156433
concept 156416
Diego 156387
le-@@ 156382
réunion 156358
A-@@ 156323
demands 156316
2020 156313
mor@@ 156248
élus 156169
Che@@ 156164
banques 156157
publication 156116
formed 156087
FA 156020
sixth 155992
bal@@ 155978
73 155962
Is@@ 155932
Ser@@ 155921
mètres 155874
horse 155870
angry 155861
vent 155846
em 155830
Feb. 155825
collapse 155803
makers 155803
NATO 155802
tonight 155769
Power 155742
emplois 155709
truly 155690
ine@@ 155686
im 155654
Elizabeth 155531
Kerry 155530
Harris 155527
inger 155505
non@@ 155459
outcome 155440
ami 155428
Howard 155338
rel@@ 155338
emerging 155261
Society 155186
Jacques 155183
NBA 155156
technologies 155126
petits 155091
buyers 155030
Syrie 155010
Don@@ 154953
Hol@@ 154804
volume 154707
surrounding 154530
ently 154501
tenu 154486
post@@ 154476
74 154463
DNA 154459
mile 154430
managing 154353
soient 154341
nord 154317
iz@@ 154307
rooms 154271
favorite 154232
banque 154228
songs 154207
Cro@@ 154181
hood 154086
neuf 154044
usual 154020
ara 154010
afford 153942
struggled 153923
managers 153835
sal@@ 153835
perspective 153749
Laurent 153728
ory 153692
de-@@ 153644
busy 153634
leg@@ 153607
directed 153509
fut 153502
Cu@@ 153497
tradition 153484
Ham@@ 153468
questioned 153459
Academy 153445
Reserve 153399
visiting 153394
réforme 153276
classes 153193
escape 153169
priority 153123
organisations 153115
located 153064
offices 152937
Walker 152923
Credit 152806
connected 152780
Jeremy 152772
clothes 152722
Sud 152687
aside 152653
obvious 152615
77 152607
broadcast 152548
sou@@ 152522
Josh 152467
propre 152463
destroyed 152421
Administration 152366
gagner 152337
Rome 152174
talked 152167
matchs 152136
dismissed 152082
fought 152062
expand 152061
ét@@ 152060
aggressive 152048
mat@@ 152008
Ger@@ 151986
créer 151895
atteint 151840
excited 151839
regularly 151817
of-@@ 151797
Lake 151787
Market 151758
electricity 151748
properties 151697
notice 151685
Sw@@ 151636
roughly 151619
comedy 151537
candidats 151487
puts 151485
ut@@ 151474
ett 151248
background 151222
cycle 151172
CH@@ 151133
luxury 151114
Tory 151041
pourquoi 150998
adviser 150856
rester 150817
j 150809
Hotel 150799
Manhattan 150796
rape 150791
remarks 150632
dry 150597
100,000 150575
lucky 150550
drove 150480
War@@ 150435
ster@@ 150426
mention 150409
wealth 150367
units 150277
represent 150276
tens 150186
brings 150117
gy 150054
Londres 149968
6-@@ 149935
warm 149927
Family 149877
arts 149875
blow 149871
gathered 149868
sm@@ 149847
publics 149746
consequences 149737
édition 149715
sentiment 149673
Atlanta 149643
ga 149512
Sky 149457
bou@@ 149448
1997 149400
Awards 149374
requires 149367
Cuba 149364
dealing 149322
rural 149300
manage 149298
stated 149298
complaints 149269
falls 149263
typically 149211
centres 149162
contribution 149143
lights 149131
damaged 149114
suspension 149039
chemical 149013
throw 148995
lutte 148991
Art 148952
extreme 148904
witness 148863
coffee 148790
regulations 148788
birthday 148744
comité 148732
9-@@ 148685
hôpital 148671
abroad 148591
aider 148573
Where 148462
user 148445
gan 148403
funded 148383
bonds 148378
impressive 148370
rou@@ 148336
coal 148322
sters 148314
Bor@@ 148292
relation 148271
avais 148241
YORK 148195
0-@@ 148159
Navy 148138
Muslims 148111
Craig 148086
milliers 148079
Vincent 148038
threw 148029
québécois 148016
sociale 148009
ier 147997
ning 147995
originally 147944
brief 147940
Fre@@ 147931
ics 147905
rang 147895
discours 147888
performing 147875
liberté 147828
La@@ 147801
reveal 147776
Trust 147775
A. 147736
présidentielle 147719
trained 147638
ada 147559
Sand@@ 147530
AR@@ 147513
tech 147489
cricket 147482
ata 147434
strategic 147434
aries 147425
unclear 147408
8-@@ 147362
76 147352
sud 147307
lire 147304
labor 147148
Canberra 147105
Philadelphia 147078
journalist 147072
ail 147067
commencé 147054
britannique 147037
ajoute 147029
Stewart 147027
Dallas 147026
Mat@@ 146997
indicated 146996
variety 146948
gg@@ 146906
Sur@@ 146866
employee 146819
contrast 146791
élèves 146738
resolution 146729
ateur 146680
territoire 146647
Mil@@ 146629
Dé@@ 146621
Je@@ 146621
keen 146599
trees 146566
coups 146544
agence 146495
3,000 146477
tight 146476
citoyens 146405
Woods 146385
avis 146271
compete 146225
fat 146191
industrie 146160
techniques 146134
plupart 146079
bound 146004
Evans 145996
yeux 145900
S' 145857
devraient 145846
Fire 145822
championship 145695
videos 145691
numéro 145667
terrible 145630
strongly 145605
int@@ 145588
county 145525
78 145514
Afrique 145510
voie 145492
technical 145490
mistake 145477
parle 145461
attitude 145405
spoken 145347
organizations 145331
négociations 145253
militaire 145227
concluded 145215
museum 145200
Rep. 145149
Wal@@ 145120
Catholic 145056
Anne 145032
grounds 145000
registered 144993
Long 144988
lay 144981
zing 144970
quatrième 144922
Roy 144919
crude 144882
signing 144854
silence 144763
headquarters 144715
Cook 144707
employés 144670
NASA 144655
blamed 144631
Mas@@ 144600
alisation 144553
bord 144513
Char@@ 144505
promote 144501
GM 144499
différents 144490
parking 144393
harm 144392
farm 144320
sharp 144207
fonction 144202
scores 144165
ains 144129
Maria 144018
Mel@@ 144002
behavior 143879
commerce 143835
healthcare 143809
quiet 143734
ca 143729
prompted 143689
web 143661
bon@@ 143617
Arabia 143585
Des@@ 143581
Bowl 143573
defend 143533
Co 143449
Italie 143394
Liberal 143371
Bureau 143367
overnight 143332
Conference 143303
ards 143229
marked 143202
mainly 143199
please 143187
Santa 143174
follows 143165
lowest 143158
centrale 143138
neighborhood 143078
exposed 143068
Cre@@ 143055
pregnant 142967
teen 142949
finances 142916
ised 142872
long-@@ 142857
retraite 142854
affairs 142845
Fund 142814
rendu 142814
Manuel 142771
profile 142733
Thompson 142675
ls 142669
second-@@ 142668
joué 142572
minor 142564
sortir 142557
Asked 142541
chi 142534
engine 142506
inf@@ 142448
01 142410
chacun 142408
couples 142407
présente 142394
beauty 142390
chiffres 142351
82 142340
1995 142295
waste 142273
defensive 142264
Fer@@ 142254
neither 142219
patron 142197
Airport 142194
supplies 142189
investments 142096
familles 142092
restrictions 142058
stuck 142038
passion 142002
ri 141986
Championship 141937
Z 141934
prospect 141870
retrouver 141850
ju@@ 141844
Atlantic 141790
smart 141785
granted 141779
Music 141774
Such 141754
Watson 141744
dad 141730
longue 141708
recalled 141680
financement 141643
gate 141619
networks 141606
assuré 141588
Mus@@ 141559
événement 141554
baseball 141399
faisant 141372
espère 141363
Sanders 141329
Bell 141310
consecutive 141299
amis 141243
garden 141232
terre 141171
stepped 141154
uc@@ 141069
revenus 141052
villes 141044
espace 141014
essential 140996
classic 140989
suivi 140989
cited 140986
qui@@ 140970
Up 140952
stayed 140931
discussed 140915
Several 140810
beating 140792
Ross 140780
drew 140777
adult 140760
dette 140740
Gi@@ 140701
Rock 140673
desire 140655
ders 140570
reprise 140536
compris 140533
4,@@ 140509
Food 140432
Vo@@ 140383
Mitchell 140377
objet 140346
featured 140298
solid 140281
programmes 140280
83 140249
ol 140204
Hamas 140152
Exchange 140122
practices 140101
selection 140045
combination 140030
Disney 140028
mid@@ 139938
lets 139816
Swiss 139808
down@@ 139780
oo@@ 139764
Mayor 139753
Mad@@ 139673
win@@ 139666
Michelle 139627
bench 139584
zones 139503
meilleure 139474
racing 139416
Pri@@ 139410
ast 139373
voter 139338
procès 139329
Pu@@ 139321
poverty 139320
revanche 139266
existence 139228
delay 139124
finds 139095
Vladimir 139083
ministry 139036
celles 139012
avocat 138998
Science 138997
Sa 138986
Sou@@ 138979
links 138970
Harper 138962
seized 138909
Airlines 138897
shoot 138867
fee 138858
fer 138849
partnership 138815
tle 138756
Live 138733
Alain 138731
passenger 138730
journalistes 138729
russe 138716
veulent 138688
aine 138647
Jose 138634
1990 138625
religion 138625
lic@@ 138611
Little 138603
multi@@ 138536
reaching 138531
forms 138527
Fin@@ 138489
widespread 138477
trouvé 138475
shoulder 138446
joining 138378
ori@@ 138344
innovation 138325
deadly 138311
Law 138268
CA 138232
Oh 138188
backs 138175
doors 138174
30@@ 138134
guests 138128
confirmé 138118
lieux 138100
elli 138052
ical 138006
THE 138000
devenir 137977
moral 137975
sn@@ 137968
flag 137947
armes 137889
intérieur 137871
vivre 137837
particulier 137749
Picture 137744
earn 137713
importante 137712
Sweden 137670
Gulf 137654
ko@@ 137595
races 137552
pourra 137530
six-@@ 137505
relatives 137468
preparing 137456
minority 137419
improving 137417
ese 137414
dd 137412
wonder 137378
legs 137344
rating 137334
Mur@@ 137322
therefore 137254
faster 137225
ished 137205
engaged 137188
regarding 137157
fruit 137054
upset 137046
counts 137035
84 137007
obtenu 136991
rent 136959
behalf 136892
jumped 136869
half-@@ 136848
designer 136829
girlfriend 136789
celebrate 136773
tourists 136772
fill 136757
hero 136751
ra@@ 136745
rail 136735
Russell 136704
W. 136690
pleased 136682
environnement 136652
owns 136613
IN@@ 136608
wage 136572
Brussels 136548
entry 136547
ena 136481
tis 136464
diplomatic 136445
Aujourd' 136428
vert 136285
Ferguson 136276
challenging 136264
quel 136193
solar 136174
jump 136137
réalisé 136115
bars 136099
cal@@ 136056
ast@@ 136051
Corporation 136035
reduction 136028
disappointed 136015
urgence 136006
except 136003
backing 135936
00@@ 135933
oned 135913
winds 135904
accusé 135872
stadium 135829
indeed 135783
bright 135777
mixed 135769
broad 135758
valeurs 135754
financière 135750
récemment 135695
temporary 135674
86 135512
locaux 135500
inning 135481
tic@@ 135431
mandat 135428
Barcelona 135390
complaint 135373
Newcastle 135283
saved 135261
shouldn 135219
Massachusetts 135208
Université 135198
Por@@ 135190
begun 135181
awards 135092
Christopher 135082
campus 134998
commune 134990
kitchen 134962
dating 134943
moyen 134940
sensitive 134870
Notre 134859
exciting 134833
Pennsylvania 134826
rouge 134813
entertainment 134794
et-@@ 134738
fled 134700
cer@@ 134660
represented 134658
peur 134616
winners 134608
Dun@@ 134593
chaîne 134493
hors 134480
ologist 134468
Guardian 134344
sounds 134308
sugar 134260
operate 134257
purpose 134230
Cruz 134205
farmers 134163
Espagne 134100
quoted 134099
ord@@ 134084
moitié 134070
Port 134040
neck 133989
marks 133982
télévision 133969
Cam@@ 133966
outstanding 133899
ti 133890
burn 133883
off-@@ 133875
Golden 133851
bear 133847
circuit 133840
numerous 133829
explains 133820
suggesting 133757
institution 133720
pa@@ 133717
Neil 133673
auraient 133647
bat 133638
américains 133625
Lyon 133584
ha 133582
top-@@ 133581
tent 133569
Having 133533
peak 133493
expression 133484
reflect 133471
prepare 133421
extraordinary 133415
Perhaps 133395
ear@@ 133364
Officials 133353
Care 133343
engage 133317
handle 133182
week-end 133171
jailed 133156
materials 133115
étais 133060
Net 133059
députés 133023
79 133010
05 132971
Perth 132949
Assemblée 132934
montant 132923
confirm 132920
electric 132886
meat 132863
gaz 132861
Executive 132841
études 132815
Mexican 132804
New@@ 132791
Ed@@ 132752
changer 132742
ari 132729
suddenly 132729
Cr@@ 132710
investigations 132698
teenager 132696
fil@@ 132669
Warner 132641
remporté 132563
81 132555
prize 132540
atic 132522
margin 132505
devra 132484
reducing 132464
réalité 132461
She@@ 132460
cameras 132454
bit@@ 132393
pleaded 132382
OK 132284
seraient 132284
chosen 132275
chefs 132257
900 132255
plastic 132225
river 132142
S. 132038
mas@@ 132014
IT 131976
letters 131950
Front 131935
clash 131884
dd@@ 131834
lunch 131805
approximately 131795
devenu 131761
Sar@@ 131758
Bruxelles 131756
ité 131749
Standard 131702
hate 131661
06 131651
changement 131635
Carter 131605
Minnesota 131588
Maybe 131549
del 131535
sick 131535
Fi@@ 131520
creative 131508
processus 131465
collaboration 131457
th-@@ 131403
achieved 131395
gang 131382
radical 131355
predicted 131340
Crown 131320
scenes 131317
improvement 131308
Dec. 131296
D.C. 131266
Phil 131220
bilan 131174
apparent 131144
ries 131113
limits 131043
clo@@ 130996
hockey 130993
equal 130974
guns 130938
hom@@ 130911
investissement 130893
eng@@ 130887
ances 130886
Each 130878
Lady 130877
Price 130867
eting 130846
ourselves 130840
Dave 130819
athletes 130815
ki@@ 130795
Gal@@ 130750
dominated 130708
rappelle 130619
royal 130619
formal 130564
ser 130523
enfin 130505
Celtic 130497
Seattle 130497
domicile 130496
Strasbourg 130460
schedule 130426
Tur@@ 130411
souhaite 130382
Team 130366
involvement 130365
fac@@ 130333
Philip 130317
laid 130305
87 130280
ath 130275
founded 130247
invited 130231
Local 130225
municipal 130224
verdict 130211
pack 130207
referring 130168
wonderful 130124
militant 130117
NR@@ 130111
stolen 130059
wider 130039
beaten 130016
resort 129970
cinéma 129934
illness 129928
Comment 129902
master 129891
prêt 129889
waters 129862
ton@@ 129858
Mag@@ 129789
unions 129780
étape 129751
properly 129750
Bon@@ 129735
ella 129719
Sans 129700
consommation 129656
Palace 129577
CO@@ 129576
classement 129555
1996 129536
enti@@ 129520
Pan@@ 129456
asset 129418
honest 129382
Five 129366
witnesses 129365
striker 129353
étudiants 129239
augmentation 129227
motion 129209
thrown 129120
tiers 129119
bedroom 129109
symptoms 129101
Free 129095
veille 129085
20-@@ 129048
investigate 129043
pping 129031
AT 129013
92 128978
planet 128978
bles 128925
interviews 128908
jet 128893
Jennifer 128892
telephone 128876
Greg 128848
Maryland 128839
recovered 128801
voyage 128798
stade 128797
Angela 128775
ado 128764
Network 128753
invest 128753
Attorney 128729
mining 128621
5,@@ 128598
multi-@@ 128593
réduire 128567
pas@@ 128553
SA 128530
locations 128515
Cleveland 128488
Bruce 128418
brands 128388
1.5 128329
atmosphere 128304
parliamentary 128299
Ren@@ 128280
privacy 128242
tés 128239
exit 128211
Stanley 128179
relationships 128072
ny 128067
soft 128064
sight 128056
trains 127983
Back 127964
ani@@ 127957
Bas@@ 127955
laisser 127883
signal 127780
relative 127772
convention 127740
nouvel 127714
Corp 127710
bags 127684
Ra@@ 127656
AM@@ 127650
ille 127641
Bourse 127630
Portugal 127609
shops 127609
1994 127570
informed 127552
telle 127550
Dutch 127530
impose 127507
survived 127487
staying 127385
olo@@ 127371
detailed 127351
brothers 127341
spotted 127337
LA 127322
ente 127317
facts 127303
extend 127262
Robinson 127255
preuve 127250
ist@@ 127220
smoke 127214
ther@@ 127209
sem@@ 127163
12.@@ 127147
ail@@ 127145
length 127052
Bri@@ 127018
anywhere 127007
extent 126974
welfare 126932
rendez-vous 126832
metal 126801
ira 126798
flu@@ 126791
seconde 126790
ward 126736
nie 126721
Nigeria 126712
Pen 126711
50,000 126707
tier 126706
Cooper 126643
Jamie 126625
Calif 126603
96 126591
writers 126581
Blair 126550
senator 126542
pur@@ 126537
Series 126511
vin 126506
alist 126482
ites 126426
appelé 126414
pollution 126396
regions 126309
signé 126273
destination 126265
ts@@ 126254
08 126229
super 126227
prévoit 126204
citing 126185
financier 126184
ens@@ 126177
ello 126155
Bridge 126117
sang 126117
saving 126115
detail 126093
My@@ 126058
temperatures 126023
ce@@ 126018
referred 126009
opposite 125921
émission 125903
fields 125867
iner 125824
payer 125799
membre 125745
faisait 125734
Ag@@ 125699
prisoners 125696
bons 125678
por@@ 125677
blo@@ 125662
parcours 125649
aime 125613
grade 125612
chômage 125600
compétition 125600
Dow 125595
promotion 125466
detained 125458
franchise 125457
Sean 125424
Ainsi 125415
ths 125379
awarded 125364
bail 125356
Kansas 125311
Jon 125310
lying 125297
prosecutor 125291
Al-@@ 125216
sol 125206
partly 125160
Edward 125124
hall 125122
120 125049
Dem@@ 125048
native 125039
prominent 124949
tered 124915
ST@@ 124879
lim@@ 124822
1990s 124804
mouth 124790
entendre 124766
speculation 124732
Corp. 124692
proper 124677
Tous 124664
lit 124647
barely 124635
représente 124595
roll 124582
adi 124569
1980s 124565
alliance 124542
ram@@ 124456
tre@@ 124450
pal@@ 124438
Sel@@ 124423
spirit 124421
fête 124352
factory 124262
boo@@ 124244
ass 124233
D-@@ 124223
char@@ 124219
Mul@@ 124086
ene 124054
toll 124034
feed 124015
attendre 123968
201@@ 123960
Guy 123944
tab@@ 123944
lier 123932
gen@@ 123914
Aug. 123901
volonté 123855
Milan 123846
ams 123825
fail 123825
cour@@ 123813
Boeing 123810
ades 123810
50@@ 123801
bombing 123792
sorte 123758
Tor@@ 123752
civilian 123734
expense 123729
estimate 123715
frais 123647
lien 123641
totally 123633
Prix 123625
necessarily 123598
ire 123567
beer 123522
planes 123508
Sol@@ 123487
2-1 123451
faveur 123425
roles 123414
Federer 123401
collective 123373
badly 123346
pound 123337
ational 123319
EN@@ 123303
alism 123294
journaliste 123277
Hal@@ 123270
outs 123218
ily 123156
favour 123120
survive 123112
continuer 123093
revenir 123051
milliard 123029
stretch 123005
ung 123005
terrorists 122934
occasions 122861
establish 122787
dates 122772
dedicated 122738
satellite 122703
amounts 122662
conclusion 122645
zz@@ 122644
welcomed 122616
fu@@ 122571
93 122533
auction 122507
conviction 122499
fying 122423
Pakistani 122410
junior 122398
AC@@ 122383
hy@@ 122380
Securities 122360
chat 122347
tor 122331
knowing 122295
98 122268
plot 122253
abortion 122219
pon@@ 122217
Cri@@ 122208
producers 122193
simplement 122192
nécessaire 122162
yen 122151
Next 122147
lui-même 122138
fera 122081
dos 122062
equivalent 122051
commander 122038
ama 122033
imposed 122022
Argentina 121996
routes 121969
bras 121953
fix 121926
ong@@ 121890
proof 121823
finals 121819
announce 121803
Authority 121798
proches 121792
regulatory 121787
differences 121776
ave 121766
sey 121744
helicopter 121740
09 121689
aj@@ 121687
Development 121642
vos 121602
Claude 121589
chute 121582
bola 121565
exploitation 121553
hor@@ 121530
Roberts 121529
incredible 121512
settled 121500
Antonio 121483
ets 121465
Clarke 121457
Second 121447
dri@@ 121421
tru@@ 121343
Super@@ 121340
bull 121322
Lions 121318
Jimmy 121278
swe@@ 121253
1-0 121223
Parlement 121220
hardly 121215
forget 121147
atteindre 121143
exception 121118
Men@@ 121115
AD 121034
capture 121020
ming 121014
humans 120987
répondre 120957
pouvait 120931
Nice 120925
compter 120906
ion 120906
blocked 120887
choisi 120872
Khan 120815
ving 120811
auront 120786
Ap@@ 120780
Ram@@ 120769
entering 120760
wore 120760
controversy 120731
iss@@ 120706
dic@@ 120657
chemin 120625
marijuana 120611
zi@@ 120600
Campbell 120552
Ré@@ 120549
ES 120539
européens 120506
concernant 120497
ture 120462
économiques 120429
Vietnam 120362
aides 120361
Sun@@ 120334
coût 120317
At@@ 120306
marche 120301
lin@@ 120297
Yemen 120282
situations 120232
25@@ 120180
walls 120165
Authorities 120157
Haw@@ 120153
cheap 120149
Gri@@ 120115
extension 120088
Rick 120045
différentes 120044
momentum 120035
diagnosed 120029
function 120024
Islam 120017
resident 120006
reg@@ 119972
Plusieurs 119950
hadn 119945
threatening 119939
surge 119898
channel 119890
titles 119859
metres 119857
assessment 119787
dépenses 119778
CIA 119764
All@@ 119755
Ontario 119728
associations 119718
gre@@ 119668
regulation 119661
encouraged 119592
Updated 119572
promises 119562
shocked 119557
basketball 119521
R-@@ 119497
camps 119493
paix 119484
defender 119477
ministres 119473
aires 119467
Read 119415
PC 119411
somebody 119350
Terry 119342
representing 119337
Rou@@ 119292
listen 119280
diet 119278
Toyota 119251
gro@@ 119241
keeps 119214
sad 119201
sommet 119190
11.@@ 119189
istes 119189
protected 119165
Mars 119154
véhicule 119153
réponse 119145
regulators 119111
ush@@ 119101
défaite 119078
Shi@@ 119064
Qatar 119062
May@@ 119057
modèle 119050
arguments 119030
risques 119021
Any 118971
at-@@ 118937
° 118932
ston 118925
exhibition 118917
eless 118880
bio@@ 118876
print 118876
soldier 118875
sweet 118871
contained 118865
Independent 118850
tea 118850
ack@@ 118788
esprit 118776
bury 118729
empty 118708
Cour@@ 118702
tering 118701
dev@@ 118607
degrees 118597
dressed 118592
Brooklyn 118588
Oklahoma 118515
substantial 118510
Parmi 118494
belief 118478
arrival 118370
scientific 118351
hired 118297
éléments 118270
UN@@ 118250
officially 118247
ind@@ 118234
missions 118167
Chi@@ 118131
stability 118102
Lam@@ 118093
signature 118079
ov 118061
proposition 118057
holes 118014
tons 117986
milk 117968
libre 117953
normally 117942
ala 117928
demanding 117898
comp@@ 117895
07 117795
refuse 117781
clinical 117772
investisseurs 117702
Ker@@ 117690
kilomètres 117687
newly 117632
dge 117619
requirements 117584
consensus 117577
acy 117561
economist 117549
delayed 117510
weapon 117485
cat 117457
taste 117453
breast 117430
rely 117430
shadow 117400
vis@@ 117398
correct 117392
Ku@@ 117385
Enfin 117382
Hampshire 117364
tée 117310
Wright 117294
replied 117290
rebel 117272
Wh@@ 117246
judiciaire 117242
ambassador 117241
centaines 117230
balls 117220
ratings 117187
reconnu 117169
ease 117133
Ter@@ 117130
smoking 117122
Suisse 117113
publiques 117108
repeated 117104
handling 117045
creation 116990
desperate 116975
exports 116945
Luke 116896
gn@@ 116879
Osborne 116878
fy 116874
silver 116868
imp@@ 116860
ck 116853
Sport 116836
Indonesia 116831
gri@@ 116768
militaires 116764
gagné 116763
controls 116718
venture 116702
consistent 116701
lis 116682
joue 116675
zer 116656
ONU 116652
possibilité 116636
q 116604
applied 116584
Bat@@ 116573
suffer 116563
experiences 116561
actors 116495
véhicules 116463
def@@ 116461
rem@@ 116457
stratégie 116430
calm 116404
02 116400
91 116398
West@@ 116377
uncertainty 116333
eman 116328
mots 116328
tion@@ 116325
lan 116322
Dor@@ 116305
adopted 116288
Pol@@ 116254
uni@@ 116244
ile 116243
amour 116233
tone 116207
mountain 116178
véritable 116161
tension 116146
SE@@ 116136
tonnes 116105
defending 116093
probe 116008
und 116006
avez 115975
cher@@ 115969
Bloomberg 115968
Cur@@ 115962
seventh 115934
Banque 115928
presidency 115909
slowly 115871
CA@@ 115833
dés@@ 115806
Quant 115796
exposure 115779
stages 115776
therapy 115771
producing 115749
aking 115718
partis 115637
broader 115608
UE 115607
bel 115607
col@@ 115600
ranked 115597
noticed 115586
departure 115571
réseaux 115547
4,000 115542
Whit@@ 115525
tournoi 115522
ned 115514
remote 115506
circulation 115486
ér@@ 115484
12-@@ 115470
Leader 115456
menace 115431
tools 115314
ili@@ 115296
sparked 115243
analyse 115213
Others 115205
15-@@ 115200
Egyptian 115185
mains 115153
monitoring 115141
acteurs 115134
Soviet 115106
discrimination 115090
Space 115073
ans@@ 115071
montre 115067
forcing 115047
featuring 115042
chers 115023
sec@@ 115021
Malgré 115018
fantastic 114923
allait 114919
Lors 114905
gal@@ 114905
unknown 114875
Baghdad 114860
exposition 114804
abandoned 114785
opens 114780
04 114774
packed 114772
rest@@ 114767
tt@@ 114767
blessés 114763
historical 114722
ettes 114695
parole 114672
Budget 114661
championnat 114632
laissé 114624
breaks 114616
posts 114615
courses 114598
resulted 114589
rap@@ 114515
eighth 114512
Week 114511
Coalition 114501
elite 114490
prosecution 114429
Nadal 114411
Samsung 114409
ere 114398
tragedy 114336
ES@@ 114318
striking 114311
raisons 114280
documentary 114220
mood 114190
Christie 114148
travelling 114124
capacité 114114
Yo@@ 114111
tically 114080
contexte 114046
Islamist 114045
cul@@ 114028
hal@@ 113985
directors 113950
régions 113949
AS 113931
marqué 113920
monthly 113874
aging 113867
Reporter 113830
nominee 113830
earthquake 113805
portfolio 113804
del@@ 113799
Pentagon 113797
94 113796
theory 113771
Olivier 113768
contain 113736
1992 113735
io@@ 113720
arrêté 113719
thoughts 113717
liberal 113707
recall 113687
retailers 113675
electronic 113656
map 113627
specialist 113621
Pope 113589
noir 113587
carte 113570
Illinois 113567
favor 113541
Der@@ 113536
Out 113532
bor@@ 113507
fédéral 113462
Vice 113429
Mario 113426
Avenue 113400
visits 113397
isme 113356
ed-@@ 113346
classe 113273
reprises 113257
drawing 113236
historique 113201
demander 113164
Tom@@ 113162
Everyone 113131
existe 113119
industries 113095
soccer 113075
app@@ 113058
porter 113048
funny 113041
employers 113016
routine 113016
frequently 113013
urban 112977
convinced 112971
PA 112955
successfully 112941
Hi@@ 112911
visible 112865
voulu 112862
étranger 112832
io 112825
Han@@ 112784
selected 112753
activist 112743
22@@ 112713
97 112702
remarkable 112689
gift 112682
Netanyahu 112679
complained 112673
tics 112658
kicked 112630
babies 112583
campaigns 112551
hundred 112551
élu 112510
siècle 112502
Cat@@ 112469
Abu 112461
obtained 112434
hire 112429
2-0 112426
Denis 112411
raconte 112397
populaire 112347
obligations 112291
celebrity 112285
fake 112282
investor 112275
ges 112261
landed 112247
Rob 112242
iness 112187
congressional 112184
fil 112171
appris 112160
crashed 112147
Columbia 112133
Indeed 112068
cleared 112029
py 112029
née 111973
ordinary 111914
jeux 111883
présenter 111869
sais 111853
Avant 111779
deadline 111760
Clark 111696
enormous 111672
23@@ 111654
upcoming 111641
complicated 111634
comprendre 111613
rarely 111599
papers 111593
Singapore 111538
Cambridge 111534
meanwhile 111526
encouraging 111519
criticized 111497
salary 111481
opérations 111472
parc 111461
ethnic 111459
mph 111458
affair 111454
Grèce 111403
Mohamed 111402
Sk@@ 111399
fixed 111397
mate 111396
artistes 111360
Wayne 111332
grav@@ 111326
sustained 111320
Birmingham 111314
Without 111305
ink 111288
sis 111261
Chancellor 111246
attacking 111240
nobody 111237
Information 111231
surprising 111162
Mohammed 111157
poursuit 111139
Sony 111126
Chairman 111118
od@@ 111111
lending 111093
tin 111067
posed 111062
yellow 111031
representative 111016
Giants 110994
specifically 110957
Orange 110953
lists 110952
killer 110928
label 110918
SP@@ 110910
shirt 110896
expecting 110879
sho@@ 110878
bo 110860
fun@@ 110857
tribute 110857
Wimbledon 110767
hosts 110751
cable 110735
divorce 110735
ises 110683
Tro@@ 110675
règles 110673
viennent 110669
Given 110664
Carlos 110650
asylum 110643
thank 110627
relevant 110616
Max 110601
pres@@ 110579
typical 110567
ancienne 110557
ising 110549
Belgique 110545
ze@@ 110542
infection 110534
Alabama 110518
no-@@ 110507
ancient 110495
engineering 110480
pic@@ 110446
string 110415
recommended 110414
exercice 110399
tors 110393
Men 110361
menu 110332
constant 110305
ich 110249
Gen@@ 110207
1970s 110193
durée 110147
Welsh 110135
Catherine 110079
Sto@@ 110058
liked 110047
6-3 110018
fro@@ 110016
Euro 110005
pledged 109969
arm@@ 109963
tient 109954
tir 109929
avions 109926
childhood 109917
20,000 109916
Miliband 109876
séance 109852
Warren 109831
destruction 109821
theme 109766
tracks 109691
birds 109670
replacement 109605
midfielder 109585
Fort 109494
Technology 109489
pipeline 109482
Trans@@ 109458
Goldman 109428
dly 109405
ta@@ 109403
Ray 109380
clothing 109363
emails 109360
men@@ 109270
yl@@ 109210
serves 109159
min 109148
kid 109106
Marie 109104
cup 109092
det@@ 109091
category 109063
machines 109059
Duke 109047
comptes 109034
chaos 109028
photographs 109020
el-@@ 109001
porté 108963
roof 108955
veux 108915
collapsed 108896
outre 108870
ert 108847
elderly 108838
Cross 108826
discipline 108797
discovery 108764
anc@@ 108757
duo 108733
arrêt 108707
Lisa 108703
iron 108701
je@@ 108679
medicine 108633
0,000 108610
readers 108600
ER 108572
eth 108560
expertise 108549
criticised 108546
outlook 108535
la@@ 108526
gathering 108525
Additional 108485
Right 108478
participer 108469
largement 108450
recover 108425
anglais 108395
alise 108373
Nelson 108372
Cap@@ 108369
Edwards 108330
mêmes 108330
appointment 108327
lancer 108327
collected 108320
Trade 108300
Officer 108241
Air@@ 108228
veterans 108218
aps 108103
lendemain 108103
Go 108064
ères 108051
1993 108012
flu 107999
legacy 107972
afraid 107957
Vatican 107929
land@@ 107894
load 107845
spots 107840
Sim@@ 107817
Blues 107765
Elles 107758
sorry 107662
answers 107630
présidente 107596
Switzerland 107569
revenu 107516
Following 107470
40@@ 107462
brilliant 107454
lia 107453
attractive 107431
Australians 107409
ish@@ 107371
Brad 107366
alized 107346
Report 107330
viewed 107286
10.@@ 107238
cour 107238
ye 107238
supports 107186
checks 107161
Den@@ 107147
reference 107132
elled 107117
vais 107079
bli@@ 107067
ken 107057
Certains 107051
shoes 107023
permission 106996
ores 106974
Sam@@ 106950
Baltimore 106949
work@@ 106883
wealthy 106865
Jay 106856
defended 106785
household 106785
6-4 106778
divided 106777
exist 106758
ures 106751
SNP 106745
describe 106738
Phoenix 106724
EL@@ 106720
conflit 106698
nucléaire 106698
elements 106684
landing 106678
Reid 106614
ase 106592
Palestinians 106589
weekly 106580
hôtel 106572
Rugby 106554
fairly 106518
III 106506
switch 106502
aise 106493
consumption 106479
quarterback 106479
connaître 106468
quit 106464
covering 106459
mot 106452
coin 106437
ateurs 106428
advised 106422
PRNewswire 106311
théâtre 106309
blast 106288
Pittsburgh 106263
Ash@@ 106250
throwing 106243
bi 106241
iles 106227
manner 106200
adi@@ 106167
bel@@ 106154
eurozone 106149
jusqu 106148
play@@ 106134
Jan@@ 106122
rapidly 106116
2.5 106101
guidance 106061
croire 106043
praised 106025
opponent 106014
ick@@ 106011
lifted 105982
maladie 105977
ved 105971
stream 105970
iser 105926
retrouve 105905
targeting 105896
Benjamin 105876
mentioned 105864
trillion 105854
Oil 105833
Jane 105832
Project 105831
alité 105828
Djokovic 105802
livres 105792
requests 105767
billions 105760
tenir 105748
error 105729
Marseille 105725
responsabilité 105683
depression 105673
Indiana 105670
actuel 105641
Which 105620
Pa@@ 105606
Pen@@ 105561
cooperation 105532
honor 105501
poids 105486
first-@@ 105485
demanded 105468
guess 105466
Que 105462
comprehensive 105451
iv@@ 105448
h. 105444
oning 105441
ailing 105415
promising 105408
oun@@ 105365
acted 105300
Night 105277
B. 105274
carefully 105265
Ly@@ 105242
extensive 105201
Finance 105147
voire 105144
Collins 105136
Arthur 105135
Sometimes 105078
plate 105065
ownership 105045
Amérique 105019
pan@@ 105019
star@@ 105017
partout 104997
output 104973
Kh@@ 104947
indice 104920
teaching 104913
établissement 104905
transaction 104875
inscrit 104866
Kenya 104849
fatal 104824
créé 104806
endroit 104799
obligation 104796
barrel 104789
Vancouver 104777
allemand 104772
SOURCE 104742
PR@@ 104725
Aaron 104715
guarantee 104695
privé 104695
detention 104684
auto 104670
meilleurs 104664
pay@@ 104651
ER@@ 104627
Emmanuel 104614
mum 104599
approached 104588
update 104586
rocket 104570
E. 104564
eling 104510
Pap@@ 104485
membership 104466
nationwide 104465
avion 104449
Parker 104370
Bien 104339
GDP 104339
Tigers 104336
coaches 104306
reasonable 104299
reveals 104299
Commons 104296
Actualités 104276
zero 104238
Point 104224
boyfriend 104219
towns 104176
ita 104170
introduction 104159
streak 104152
rounds 104135
constitution 104134
trials 104132
hiver 104112
securities 104104
missiles 104079
attract 104069
lands 104065
mou@@ 104035
Tottenham 104027
providers 104009
funeral 104001
Major 103988
recognition 103982
cont@@ 103968
gie 103921
sol@@ 103898
raid 103877
primarily 103847
unprecedented 103830
manifestants 103828
fortune 103820
devient 103807
Sher@@ 103803
Julie 103798
financiers 103777
aims 103770
ja 103755
bly 103712
Westminster 103699
achat 103687
sen@@ 103670
espoir 103665
fires 103616
Jeux 103612
testimony 103611
iting 103588
hotels 103564
smartphone 103512
contacted 103474
cream 103459
dizaines 103448
ups 103413
authors 103404
erie 103395
boom 103392
assurance 103389
rac@@ 103389
Take 103382
choices 103369
Danny 103357
Nor@@ 103321
AP@@ 103311
steel 103310
né 103291
ign@@ 103287
R. 103282
democratic 103193
Jr 103186
Utah 103181
gardien 103179
daughters 103143
spo@@ 103139
waves 103113
Be 103102
se-@@ 103099
dre@@ 103091
dying 103069
tank 103069
prospects 103063
commun 103026
cou@@ 103009
scr@@ 103008
ender 102980
Cet 102928
modest 102904
initiatives 102878
transactions 102852
île 102847
Online 102843
è@@ 102824
appelle 102819
handful 102759
Grant 102758
tweet 102727
suivre 102708
thus 102678
drinks 102666
don@@ 102651
atives 102645
euses 102629
Alsace 102554
Israël 102549
wed 102525
critique 102480
delays 102480
expanded 102453
anciens 102446
domaine 102444
pétrole 102424
foundation 102413
financing 102399
futures 102395
ation@@ 102393
blocks 102388
settle 102382
proportion 102361
canadienne 102355
fitness 102313
éducation 102312
mistakes 102302
Poland 102297
canadien 102287
perte 102278
Stuart 102270
pourront 102263
e-mail 102250
tendance 102218
Venezuela 102214
pursue 102202
admits 102183
lady 102181
Malaysia 102160
chinois 102156
CI@@ 102150
Robin 102126
luck 102101
Wisconsin 102097
Est 102071
pot 102058
Express 102050
mothers 102032
ballot 102026
petites 101988
wages 101964
AC 101962
structures 101943
usage 101941
consultant 101934
rie 101930
break@@ 101920
show@@ 101884
Whether 101881
syndicats 101861
gross 101813
appearances 101802
revolution 101781
Fal@@ 101777
Japon 101757
Latin 101747
Rom@@ 101736
écoles 101736
Shanghai 101735
pers 101735
Film 101719
Denver 101710
Tam@@ 101706
fication 101690
Zi@@ 101683
stroke 101659
ranks 101653
ona 101639
1989 101633
Arts 101615
Constitution 101615
eli@@ 101578
universities 101576
Hughes 101545
refugee 101516
are@@ 101512
Nasdaq 101508
consultation 101477
bonus 101471
covers 101471
representatives 101465
continent 101452
Fairfax 101418
vitesse 101409
1991 101406
hunt 101393
awareness 101392
odds 101379
Dimanche 101371
tag 101338
academic 101325
economies 101301
ORE 101259
shed 101248
new@@ 101238
pleine 101217
resolve 101209
McDonald 101194
examen 101193
Lev@@ 101168
somewhat 101079
ex 101069
celebrated 101067
warming 101062
illa 101056
partenaires 101039
tall 101038
stimulus 101031
bases 101004
prises 100945
grève 100942
crazy 100914
demain 100886
somewhere 100885
respectively 100858
Dou@@ 100854
anybody 100848
Canadien 100827
recording 100815
tool 100813
printemps 100777
snow@@ 100769
rush 100748
mé@@ 100713
tears 100687
portion 100683
sun@@ 100670
haute 100660
ren 100653
venu 100646
Cou@@ 100616
book@@ 100612
automne 100598
valuable 100581
6,000 100572
conseiller 100558
uck 100521
Win@@ 100498
ner@@ 100469
laisse 100453
Yahoo 100446
entr@@ 100426
premium 100375
searching 100351
oui 100338
Biden 100327
hidden 100303
terminé 100303
Place 100302
firing 100189
audiences 100178
coûts 100148
frame 100141
Lawrence 100130
représentants 100121
attempting 100108
sting 100105
ening 100064
bonnes 100048
dro@@ 99993
offrir 99977
On@@ 99966
steady 99963
aspects 99950
humanitarian 99942
TR@@ 99941
bankruptcy 99934
Get 99930
Inc. 99929
computers 99917
Ukrainian 99889
Murphy 99859
courage 99851
odd 99848
Division 99843
oms 99828
importe 99799
exclusive 99791
provider 99756
facile 99725
zation 99718
étrangères 99676
politician 99674
contributions 99668
téléphone 99629
professionnels 99607
everywhere 99588
riding 99586
Qaeda 99558
1980 99549
propriétaire 99545
Monaco 99492
essentially 99484
Alaska 99483
disappointing 99482
envie 99475
Charlotte 99439
medal 99397
bois 99391
Roo@@ 99385
Mun@@ 99376
tours 99375
kg 99360
ble@@ 99303
ged 99283
Award 99278
acquired 99270
flo@@ 99258
speaks 99230
bun@@ 99197
ager 99173
troubled 99133
Costa 99081
siège 99051
entraînement 99032
strange 99028
taught 99027
forward-looking 98997
directement 98970
Ass@@ 98968
conversations 98960
ess@@ 98960
insists 98960
croit 98875
faible 98873
Stone 98869
Ken 98819
timing 98790
unveiled 98790
su 98787
30-@@ 98772
entretien 98765
signe 98762
arguing 98760
automobile 98760
End 98751
describes 98751
asks 98745
trio 98708
numérique 98694
addressed 98651
améliorer 98588
establishment 98573
rues 98554
poursuivre 98529
solo 98502
ger@@ 98487
contraire 98438
stunning 98424
attracted 98415
Brazilian 98411
generated 98324
emp@@ 98304
ON@@ 98295
Thailand 98272
guest 98272
sign@@ 98257
tel@@ 98255
Trois 98227
Anna 98213
bet 98201
dropping 98201
burning 98172
or-@@ 98159
gen 98132
monitor 98101
sociétés 98048
procedures 98046
res 98030
tz 97986
Barry 97962
sy@@ 97943
Hills 97941
Ess@@ 97934
Civil 97914
usine 97890
moderate 97876
Dodgers 97855
événements 97848
socialiste 97842
condamné 97833
tin@@ 97760
racial 97730
35@@ 97727
personally 97716
CR@@ 97709
onne 97705
11-@@ 97697
landscape 97691
affordable 97666
bul@@ 97661
Wood 97652
volunteers 97646
rencontres 97644
ological 97628
investissements 97621
Alliance 97615
efficient 97611
remis 97602
alert 97584
useful 97555
resigned 97549
competing 97497
Harvey 97494
stressed 97452
vol 97440
Hel@@ 97439
popularity 97418
eter 97415
voitures 97360
sized 97355
downtown 97353
inches 97353
honneur 97348
hat 97346
hoo@@ 97277
ater 97260
windows 97229
titres 97205
constitutional 97162
Laura 97161
swing 97127
Leicester 97116
L.A. 97112
Lar@@ 97110
risen 97097
Coach 97078
Cardiff 97062
24@@ 97043
express 97040
tourism 97015
Tehran 96992
participate 96977
demeure 96964
BA 96928
arr@@ 96925
upper 96923
ays 96913
travailleurs 96891
aring 96886
recours 96866
tric@@ 96825
IT@@ 96794
plaisir 96772
Albert 96759
Affaires 96750
reprendre 96724
blessé 96716
suspicion 96682
spr@@ 96678
étrangers 96648
18-@@ 96646
adoption 96640
Susan 96637
arriver 96608
diabetes 96603
tué 96564
Mont@@ 96547
extérieur 96536
puisqu' 96518
L. 96492
zes 96489
stance 96474
retrouvé 96412
Lakers 96404
filles 96391
ouvrir 96358
equally 96350
rappelé 96349
ressources 96345
ame 96339
reserves 96321
portrait 96315
ate@@ 96312
Mah@@ 96295
peaceful 96292
FIFA 96275
cat@@ 96247
followers 96224
incredibly 96224
bone 96203
cli@@ 96203
Ltd 96174
bike 96172
cy@@ 96169
Oxford 96144
vise 96099
i-@@ 96098
Economic 96092
manifestation 96042
Kentucky 96023
context 96014
prochaines 96004
knocked 95994
Ty@@ 95980
feared 95978
anonymity 95934
PR 95919
aded 95892
Dubai 95886
Philippines 95878
Sup@@ 95832
AD@@ 95831
nights 95809
sharply 95784
aud 95773
See 95749
arrivé 95728
anyway 95717
memories 95716
quart 95716
Commonwealth 95715
Christine 95700
peux 95700
knife 95691
hip 95665
drone 95648
villages 95634
brutal 95632
employed 95631
Lou@@ 95622
Photograph 95618
Barclays 95617
Laden 95613
resulting 95601
taxpayers 95600
Noël 95545
earth 95545
spokesperson 95542
guidelines 95535
guards 95523
lettre 95515
Rodriguez 95511
flew 95506
counter 95497
Originally 95481
tran@@ 95445
Az@@ 95430
Yankees 95429
Agence 95426
anticipated 95419
Jessica 95397
expanding 95379
Oregon 95366
progression 95353
Ph@@ 95346
secured 95320
fie 95302
André 95273
buried 95249
Caroline 95248
pièce 95224
Juan 95220
chicken 95207
Masters 95200
médecins 95161
Black@@ 95148
Fillon 95128
CE@@ 95123
Conservatives 95112
acteur 95105
generate 95051
Rec@@ 95049
hauteur 95049
ect 95048
Ol@@ 95031
visiteurs 95013
Special 95008
Land@@ 95003
fate 95002
14-@@ 94971
45@@ 94961
temperature 94950
principe 94948
Dominique 94942
vowed 94940
teenage 94896
rier 94873
D. 94865
Simpson 94865
heart@@ 94856
ouverte 94855
Ron 94842
professeur 94827
augmenter 94818
attending 94816
solve 94813
high-profile 94801
université 94800
difficultés 94793
faudra 94782
oppose 94763
C. 94762
6,@@ 94755
maintained 94750
scrutiny 94743
Look 94692
inspiration 94682
pratique 94681
az 94650
breakfast 94644
introduce 94607
Roman 94603
OS 94601
tale 94600
Ban@@ 94595
flood 94594
artiste 94577
Adams 94559
clair 94531
fini 94531
walks 94522
Jerusalem 94494
Fédération 94486
lance 94469
Bruno 94459
soldats 94432
Nancy 94391
mauvais 94377
reli@@ 94371
aspect 94370
pregnancy 94316
singing 94313
populations 94310
resistance 94296
illi@@ 94289
bombs 94284
Turn@@ 94243
flooding 94242
ocean 94210
répondu 94195
correspondent 94167
fiction 94167
cœur 94159
mag@@ 94104
Swedish 94088
fighter 94082
tired 94082
protecting 94072
soci@@ 94068
attendant 94052
fishing 94025
politically 94013
operator 94009
Tories 94005
Capitol 93999
Star@@ 93990
taxi 93964
val@@ 93949
penser 93934
Commissioner 93905
ment@@ 93904
dar@@ 93901
concurrence 93877
cheaper 93866
14.@@ 93834
swimming 93826
quitter 93823
Mitt 93811
trips 93806
perfectly 93783
igh@@ 93774
branch 93772
auto@@ 93766
Sant@@ 93757
acte 93687
quer 93676
Seven 93673
deployed 93671
fur@@ 93652
fed 93639
Sav@@ 93577
bird 93572
sil@@ 93556
tre 93555
labour 93554
commence 93542
Face 93535
storage 93517
export 93514
entendu 93511
Writing 93497
connaît 93467
meal 93434
enjoying 93410
powered 93409
elec@@ 93393
prévue 93375
tape 93370
involve 93364
rythme 93343
lessons 93339
voulait 93338
lam@@ 93296
articles 93291
Until 93260
bling 93241
coaching 93236
eg@@ 93235
mairie 93230
peuple 93225
Cabinet 93190
Defence 93175
vouloir 93163
actifs 93159
traitement 93154
pped 93152
côtés 93148
my@@ 93047
église 93016
sav@@ 93010
pet 93005
P. 92998
stein 92986
Boo@@ 92974
favorable 92963
puisse 92961
violences 92953
ris@@ 92948
bottle 92925
lined 92907
Gro@@ 92894
investigated 92890
sporting 92867
delivering 92852
hosted 92835
airlines 92819
Keith 92817
alists 92815
pressed 92809
frustration 92801
Hay@@ 92791
Kurdish 92790
Affairs 92787
appeals 92770
Ob@@ 92737
ome 92737
boards 92681
Valls 92677
challenged 92669
notion 92667
perdre 92646
revient 92618
Cer@@ 92567
réaliser 92567
devastating 92563
anna 92550
rushed 92547
13.@@ 92531
130 92529
présidence 92527
dit-il 92510
Hunt 92505
attaques 92505
sexually 92493
Monde 92474
traded 92474
Safety 92470
tenter 92437
ennes 92383
statistics 92358
same-sex 92346
élevé 92335
rebounds 92326
prêts 92293
trapped 92261
ecting 92221
courant 92169
sel 92158
surely 92149
Dec@@ 92137
chest 92116
.org 92107
Netherlands 92107
over-@@ 92103
touchdown 92091
assume 92089
proven 92089
bailout 92072
manufacturers 92056
Sudan 92055
aéroport 92054
dated 92050
Mourinho 92010
smile 91993
gh 91985
squ@@ 91985
pat@@ 91981
warnings 91980
borders 91960
maintenance 91960
• 91948
color 91874
ultimate 91858
rises 91857
p-@@ 91856
pun@@ 91831
Harvard 91826
RT 91811
ag 91811
AN 91803
Ted 91793
soins 91782
wer 91768
attaquant 91765
affiche 91763
jugé 91752
San@@ 91733
innocent 91728
commit 91719
physique 91687
wai@@ 91679
Kings 91677
economists 91675
substance 91674
deny 91665
studied 91665
latter 91614
postes 91568
trail 91567
sheet 91563
defined 91555
nervous 91535
zy 91505
moon 91504
précédent 91498
ato 91495
3e 91474
conspiracy 91460
cin@@ 91454
Nobel 91449
lifestyle 91431
penalties 91423
Ten 91421
eligible 91374
ye@@ 91357
torture 91353
attentats 91347
Hou@@ 91337
Orleans 91297
blanc 91256
Ocean 91222
accueil 91210
8,000 91191
arrests 91186
arch@@ 91178
recommendations 91153
langue 91146
contains 91141
--@@ 91131
residential 91111
directrice 91075
agriculture 91035
Société 90994
nation@@ 90990
Dan@@ 90985
painting 90981
administrative 90978
compromise 90965
ar-@@ 90924
pub 90889
Ses 90888
identité 90882
hard-@@ 90873
lows 90850
utiliser 90848
accompanied 90808
tourist 90804
découvrir 90790
VI@@ 90785
surrounded 90785
intérêts 90778
refusé 90754
professionals 90753
Palin 90717
licence 90698
Theresa 90671
ini@@ 90669
phrase 90664
Sy@@ 90625
tal@@ 90607
noting 90566
tique 90549
urging 90538
Deputy 90535
Review 90530
disorder 90513
mod@@ 90504
célèbre 90502
longtime 90493
1000 90490
Senior 90480
command 90460
restore 90460
Lincoln 90415
feelings 90411
picking 90407
conf@@ 90371
Land 90370
Met@@ 90370
assist 90366
sits 90365
von 90361
aces 90360
développer 90344
montré 90303
Tennessee 90294
halt 90285
abo@@ 90283
anxiety 90268
virtually 90242
tables 90234
ique 90222
ambition 90198
The@@ 90178
resignation 90175
etc. 90166
ham@@ 90144
crossing 90118
AL 90117
6-2 90114
Later 90091
aya 90043
importants 89999
approche 89974
déficit 89953
cité 89925
Pas@@ 89880
ony 89868
prefer 89842
eff@@ 89841
collision 89822
personality 89819
Cannes 89816
Station 89780
pin@@ 89778
Medicare 89758
N.@@ 89750
chargé 89734
exact 89729
qualified 89721
pink 89718
fri@@ 89717
ich@@ 89702
finishing 89700
Ahmed 89697
montrer 89684
intentions 89673
listening 89670
pulling 89664
ignore 89640
outbreak 89633
breach 89631
screening 89619
Netflix 89617
futur 89607
offences 89603
humour 89596
seeks 89580
piste 89578
seed 89575
foods 89573
disabled 89554
liber@@ 89549
interviewed 89540
centers 89539
Douglas 89498
utilisation 89495
raw 89480
apps 89461
ur 89455
Davies 89438
crowds 89421
Nathan 89408
horses 89403
survivors 89398
Playing 89396
Theatre 89386
ll@@ 89367
tenté 89367
scolaire 89357
briefly 89348
concrete 89344
évolution 89341
ideal 89325
pupils 89315
tenue 89303
disappeared 89301
visant 89298
inch 89283
denies 89278
contribute 89258
boats 89245
operated 89234
equ@@ 89192
forecasts 89182
thin 89181
effets 89160
fundamental 89154
organized 89136
succeed 89123
careful 89102
électeurs 89093
governing 89083
cope 89062
Nevada 89061
clashes 89029
ins@@ 89023
medi@@ 89023
Town 89018
oll@@ 89006
Barbara 88996
ened 88978
cal 88970
explore 88931
noise 88913
households 88875
Goo@@ 88817
Wood@@ 88792
kh@@ 88782
prof@@ 88782
hanging 88775
restent 88752
playoff 88748
constantly 88735
rated 88733
contrats 88725
occur 88713
comparison 88701
narrow 88672
donations 88635
height 88625
ferme 88624
interim 88607
merely 88573
crackdown 88547
mom 88544
Erdogan 88542
black@@ 88499
headlines 88460
survival 88455
Book 88447
joke 88434
communes 88408
orange 88366
overcome 88317
référence 88291
27@@ 88289
faute 88287
basically 88276
Munich 88272
Community 88253
judgment 88253
60@@ 88235
somehow 88235
sudden 88227
sive 88206
Connecticut 88190
Margaret 88160
ular 88155
réduction 88143
Dean 88133
21@@ 88132
LI@@ 88105
comfort 88089
Related 88086
Austin 88078
defeated 88065
Reg@@ 88064
Kent 88056
Sunni 88027
podium 87962
urgent 87954
ty-@@ 87941
hommage 87938
sustainable 87935
Wells 87931
Lane 87908
nominated 87900
han 87888
indication 87888
Mon 87883
ow 87853
quarters 87843
cad@@ 87832
plea 87825
Virgin 87822
mail 87812
ae@@ 87811
entitled 87811
ET 87776
mel@@ 87759
ambitions 87756
Published 87749
ninth 87747
probablement 87712
Gor@@ 87699
Nu@@ 87670
Gates 87655
marge 87651
portes 87647
Commerce 87638
mené 87621
ais@@ 87606
eries 87587
participé 87558
pending 87552
mariage 87529
Have 87526
dizaine 87526
crack 87512
hol@@ 87509
offshore 87501
exp@@ 87490
Kil@@ 87484
Tran@@ 87450
eri@@ 87450
Tar@@ 87440
ambitious 87438
delighted 87405
carries 87401
versions 87393
ids 87391
realised 87388
Researchers 87382
short-term 87380
burden 87375
Yorkshire 87370
advocates 87370
entend 87369
touché 87355
qué 87349
wn 87309
tan@@ 87296
libéral 87286
yield 87264
diversity 87261
enemy 87236
Governor 87228
diseases 87207
totalement 87205
preferred 87200
rolling 87200
filing 87188
Turner 87170
ologists 87159
Airbus 87130
actuelle 87122
20th 87103
manifestations 87096
sessions 87088
16.@@ 87079
CS@@ 87067
regarded 87040
sous-@@ 87031
earning 87027
10,@@ 87020
Phillips 86999
Coll@@ 86995
eggs 86994
remettre 86988
of@@ 86972
Cancer 86962
Oliver 86950
iPad 86890
metronews 86889
fron@@ 86885
nes 86876
pit@@ 86873
worthy 86863
organisé 86856
joy 86820
ep 86817
lumière 86794
conscience 86777
borough 86769
unlike 86762
newspapers 86754
storms 86752
Stéphane 86743
invasion 86735
fault 86725
Rob@@ 86707
Ve@@ 86691
hopefully 86690
Broadway 86654
teur 86617
tellement 86614
ond@@ 86611
deemed 86603
Gray 86587
rapid 86573
sup@@ 86557
school@@ 86523
red@@ 86514
crossed 86489
pointing 86476
arriving 86456
Pyongyang 86436
graduate 86434
Ay@@ 86377
aka 86367
hur@@ 86337
Gran@@ 86317
ici@@ 86315
avantage 86314
impressed 86307
AI@@ 86297
DC 86291
intent 86282
Everton 86275
accessible 86198
gotten 86189
ops 86178
département 86177
exploration 86177
Kiev 86146
principaux 86135
Kal@@ 86118
bes@@ 86111
Obam@@ 86046
fs 86045
différence 86044
Tim@@ 86043
procedure 86034
agreements 86031
developments 86025
réfugiés 86023
Baker 86013
Bradley 85998
dominant 85990
cloud 85974
1.2 85972
lenders 85970
seemingly 85943
rapide 85906
tt 85898
locale 85883
escaped 85850
Sho@@ 85842
2e 85838
poses 85801
copy 85800
zi 85790
efficiency 85776
aur@@ 85775
cooking 85769
Amy 85765
pes 85760
recognized 85747
optimistic 85744
crédit 85728
oldest 85726
promoting 85710
pli@@ 85705
raises 85701
Pin@@ 85695
let@@ 85671
supporter 85654
promis 85636
Protection 85635
envers 85635
conséquences 85591
colour 85589
invested 85571
pompiers 85561
clock 85550
Taiwan 85544
protéger 85495
1960s 85494
celebration 85470
vague 85470
unexpected 85447
realise 85438
focusing 85437
tournée 85433
immense 85432
Mid@@ 85427
counter@@ 85414
admit 85411
retailer 85408
age@@ 85407
Myanmar 85403
operators 85396
Sheriff 85384
investing 85368
march 85349
chercheurs 85348
form@@ 85329
Gilles 85322
Nine 85310
devoir 85286
med 85275
dale 85266
Analysts 85262
attentat 85261
200@@ 85202
Xi 85194
organisme 85167
Rab@@ 85147
entente 85110
soil 85108
salt 85105
parquet 85102
Green@@ 85087
SA@@ 85086
3-1 85077
Québécois 85075
Kas@@ 85051
Stars 85046
advisers 85046
Il@@ 85032
involves 85027
embassy 85014
methods 85013
ports 84988
contr@@ 84976
Villa 84970
pattern 84964
7,000 84942
Belgium 84913
aming 84904
Garcia 84901
plainte 84899
repair 84898
slipped 84897
Did 84888
tips 84888
êtes 84882
Fu@@ 84868
collect 84831
Armstrong 84821
ancy 84808
crois 84774
commissioner 84767
kinds 84766
sor@@ 84757
ev 84718
associate 84713
bénéfice 84703
enn@@ 84680
Nation 84642
segment 84634
Plan 84608
supplémentaires 84590
Lebanon 84582
C-@@ 84552
Mol@@ 84551
poursuivi 84541
somme 84538
Pourquoi 84536
ency 84519
gun@@ 84507
Bond 84500
IR@@ 84495
heureux 84486
propres 84476
chy 84456
syndicat 84455
reverse 84435
bloc 84430
theater 84406
Shares 84368
CE 84353
A.@@ 84345
ences 84333
tter 84323
européennes 84319
allons 84312
ED 84294
décès 84283
Spurs 84275
travaille 84270
highlights 84250
Gun@@ 84246
honour 84242
aw 84237
letting 84235
mainstream 84230
Brésil 84208
1-1 84202
offense 84196
fruits 84191
ited 84163
hide 84161
Missouri 84157
highlighted 84155
adjoint 84154
Rice 84136
monetary 84134
Mari@@ 84129
.... 84108
Puis 84107
taille 84105
grant 84090
chercher 84089
pensions 84087
ners 84079
arrangements 84075
350 84069
proposé 84068
proceedings 84055
strict 84047
teenagers 84038
lifetime 84016
sted 84015
shi@@ 84014
GP 84013
objectifs 84012
Jerry 84011
besoins 83992
enable 83991
lat@@ 83982
sensible 83982
colleague 83980
reviews 83963
ali 83924
loose 83910
installation 83908
Colin 83905
disent 83873
Billy 83858
Hurricane 83857
ON 83841
forest 83839
Castro 83828
Aff@@ 83827
cible 83759
chocolate 83742
Jan 83709
FN 83707
script 83656
divers 83648
changé 83603
Maison 83584
Mali 83578
citizen 83575
theatre 83553
stops 83534
fier 83502
sie 83451
BP 83431
method 83429
permettant 83423
speaker 83409
tip 83399
complètement 83394
purchases 83386
trends 83367
scientist 83337
pièces 83333
Sa@@ 83332
Sn@@ 83327
triggered 83320
preliminary 83318
Bir@@ 83309
ero 83308
Speaker 83286
Stu@@ 83277
Much 83275
lou@@ 83268
Larry 83256
anniversaire 83243
Pic@@ 83225
auteurs 83197
pause 83191
literally 83173
Jean-@@ 83141
fines 83140
ankle 83138
Sub@@ 83123
Assembly 83101
forever 83099
épreuve 83077
ica 83070
sh 83068
water@@ 83066
Luis 83065
reflects 83061
CC 83047
œuvre 83042
F. 83013
petition 82978
wanting 82974
holidays 82947
rid 82929
Gingrich 82928
défenseur 82925
trafic 82917
Vol@@ 82908
homeless 82908
hedge 82905
Prosecutors 82896
Qu' 82886
generations 82886
iller 82879
interior 82874
condemned 82866
genuine 82853
periods 82853
Turquie 82830
trucks 82830
passant 82825
Aberdeen 82805
Sm@@ 82803
gue 82784
chambre 82780
pin 82772
Policy 82771
soutenir 82771
reserve 82758
9,@@ 82743
Sab@@ 82739
officielle 82734
impôt 82715
Snowden 82710
ignored 82701
échange 82690
checked 82689
Duncan 82684
devront 82664
Bow@@ 82660
expliquer 82650
garder 82633
changements 82626
ink@@ 82615
fies 82614
aboard 82611
improvements 82597
om 82594
Unfortunately 82593
Mai@@ 82591
clip 82576
battery 82571
Water 82556
connect 82551
doubled 82549
Mir@@ 82531
vieux 82499
Guard 82498
regardless 82493
thousand 82471
Libyan 82459
etti 82457
Forest 82420
Sc@@ 82413
swept 82409
Android 82399
statut 82397
painful 82391
ith 82390
Dès 82382
requested 82382
évidemment 82381
islands 82365
ly@@ 82347
argues 82339
punishment 82329
rolled 82323
locales 82315
cop@@ 82311
grass 82292
Moscou 82285
arrière 82283
studying 82280
repris 82277
questioning 82271
sé@@ 82266
s.com 82239
Marco 82214
vs. 82207
provinces 82204
rescued 82200
faite 82194
ix 82193
violations 82189
websites 82177
minds 82172
mar 82163
onn@@ 82161
versus 82139
deserve 82121
killings 82097
Victorian 82095
présents 82086
vic@@ 82042
boxes 82022
violation 82011
sions 82010
conclu 82005
satisfaction 81997
iter 81979
erson 81978
recognize 81978
difficulté 81976
rough 81973
sion 81972
entrer 81971
reflected 81969
26@@ 81959
1988 81957
fallait 81956
procédure 81953
ent-@@ 81931
accidents 81920
3-0 81918
eled 81906
30,000 81851
shore 81833
indicate 81800
Pro 81799
géant 81789
confirme 81783
accounting 81775
ois 81767
rum@@ 81740
stand@@ 81736
aker 81709
Irak 81699
repeat 81691
bientôt 81690
80@@ 81687
troubles 81686
ratio 81680
Lin@@ 81640
tactics 81609
Down 81603
posting 81603
electoral 81568
hiring 81564
FDA 81559
sex@@ 81559
lap 81538
Action 81528
13-@@ 81527
Marshall 81517
strengthen 81516
Sri 81508
organised 81507
relève 81507
Pendant 81493
innovative 81486
frère 81467
wise 81449
takeover 81416
entrepreneurs 81410
appearing 81406
keeper 81385
Renault 81381
wor@@ 81369
nose 81348
Morris 81345
tweets 81340
bâtiment 81334
closure 81311
seuls 81298
provincial 81291
provision 81287
incendie 81280
craft 81274
Stock 81272
photographer 81263
Ou@@ 81258
af 81241
Uni@@ 81236
iconic 81235
transportation 81226
mises 81216
polling 81188
legislative 81156
Norway 81136
dramatically 81133
explanation 81130
Ur@@ 81127
hopeful 81116
primaire 81108
register 81102
Eagles 81086
quitté 81085
Ma 81081
adversaire 81073
researcher 81073
Kr@@ 81064
budgets 81015
pire 81007
stri@@ 80982
tirs 80961
Tou@@ 80960
pride 80960
arian 80951
genetic 80945
Morning 80937
Out@@ 80936
vaccine 80930
nécessaires 80915
ambulance 80910
ING 80908
decent 80904
aver@@ 80903
wy@@ 80894
formally 80883
highlight 80868
opinions 80867
sufficient 80842
Blake 80799
égalité 80793
Staff 80775
difficulties 80775
harassment 80750
third-@@ 80748
pledge 80741
séries 80732
golden 80727
critiques 80721
Av@@ 80695
cruise 80647
venus 80647
abandon 80644
électorale 80643
civile 80635
28@@ 80622
Freedom 80614
Country 80605
McG@@ 80599
Lire 80582
suc@@ 80582
worries 80563
comeback 80547
gam@@ 80547
idées 80547
8,@@ 80512
Cairo 80486
certaine 80440
son@@ 80437
ro 80435
hill 80426
Wars 80412
ologie 80408
purchased 80408
milli@@ 80403
crews 80402
Thomson 80391
accuse 80364
Medicine 80346
Carl 80342
Has@@ 80334
carrier 80329
omb@@ 80304
Lynch 80266
utilisé 80264
Ci@@ 80256
attached 80254
apping 80253
IMF 80249
damaging 80245
default 80244
Ann 80238
scrutin 80224
flowers 80202
7,@@ 80198
path@@ 80197
contemporary 80170
70@@ 80159
conservatives 80152
termes 80128
plan@@ 80127
deeper 80057
Consumer 80045
françaises 80044
Part 80042
mystery 80035
américaines 80027
Kyle 80025
Rooney 80018
onner 80002
pos@@ 79954
Tech 79952
vacances 79919
quelqu' 79907
HIV 79901
partisans 79878
pro 79874
Sales 79856
wick 79839
encounter 79824
puissance 79821
parade 79820
amp@@ 79805
25-@@ 79801
tunnel 79796
horror 79780
Institut 79768
Jam@@ 79765
Palmer 79716
concerne 79710
operates 79704
dividend 79696
lecture 79696
Rogers 79693
C.@@ 79690
invite 79684
âgé 79684
15.@@ 79681
Tél 79674
bing 79666
som@@ 79651
cérémonie 79649
BST 79642
premiere 79626
Op@@ 79572
frontière 79571
10th 79547
sleeping 79541
ills 79533
Var@@ 79529
traveling 79509
treatments 79504
yo@@ 79499
tentative 79471
Secret 79461
graphic 79460
Hy@@ 79406
Mississippi 79383
Hawaii 79339
ora 79324
OR@@ 79322
qualification 79306
approve 79297
acceptable 79290
qualify 79278
bronze 79277
meals 79244
Garden 79233
cent@@ 79225
retain 79223
tels 79214
commencer 79205
filmed 79200
racist 79188
installed 79179
Line 79157
Non 79144
secondes 79141
-to-@@ 79122
autumn 79120
ys@@ 79118
oll 79112
ég@@ 79093
s.@@ 79072
FI@@ 79054
memorial 79054
theft 79025
établissements 79000
scared 78984
thick 78953
coll@@ 78937
announcing 78925
bowl 78912
trainer 78901
burned 78890
practical 78857
lis@@ 78834
brown 78815
under-@@ 78814
Control 78803
est-ce 78788
régulièrement 78782
donors 78775
défi 78741
Lopez 78733
ame@@ 78728
borrowing 78725
défendre 78704
aci@@ 78691
architecture 78671
ut 78660
charging 78653
valoir 78643
Cop@@ 78627
frustrated 78616
consommateurs 78594
oul@@ 78588
marine 78555
Bun@@ 78552
pape 78533
Ann@@ 78525
cannabis 78508
Systems 78504
transformation 78483
plo@@ 78467
Entertainment 78460
Sil@@ 78456
photo@@ 78454
Kingdom 78445
containing 78437
au-delà 78430
augmenté 78429
tracking 78427
Hum@@ 78426
firefighters 78426
résidence 78410
starring 78393
renewed 78388
dur 78359
bert 78353
li 78353
seven-@@ 78340
ECB 78337
launching 78333
surprisingly 78302
Emma 78289
36@@ 78286
ème 78285
ve-@@ 78282
prochains 78243
rez 78238
thor@@ 78233
tragic 78231
loves 78222
faux 78215
Walter 78207
Organization 78182
gle 78174
ités 78173
amp 78152
suits 78137
ès 78121
dy@@ 78105
Nicole 78093
vingtaine 78092
médecin 78074
MA 78066
scenario 78060
rend 78049
Hunter 78024
Johnny 78007
écran 78004
scope 77965
Girl 77956
aki 77948
fic@@ 77927
Lucas 77922
pole 77917
décisions 77914
Organisation 77895
3D 77862
te-@@ 77860
Manning 77853
realized 77850
syn@@ 77848
eck 77846
Pourtant 77823
edition 77822
hell 77822
paint 77819
cheese 77810
1986 77795
secrets 77792
achievement 77780
realize 77777
Sor@@ 77762
demonstrated 77762
consideration 77748
businessman 77689
shocking 77686
néanmoins 77664
permettra 77655
Bad@@ 77648
thr@@ 77648
bread 77642
strain 77631
Cohen 77627
électricité 77625
sectors 77618
Kremlin 77614
échec 77613
overhaul 77603
situé 77603
senators 77596
confirmation 77592
pul@@ 77554
fragile 77532
contacts 77521
Bennett 77511
Fri@@ 77511
Racing 77500
ranking 77491
visage 77491
capit@@ 77484
dealt 77473
sle@@ 77460
rebelles 77452
Tampa 77430
logement 77427
accurate 77412
LE@@ 77409
Investors 77391
subsequent 77384
17-@@ 77360
touched 77353
robust 77352
lifting 77342
ishing 77336
dispositif 77328
oni 77327
ums 77309
eaux 77299
ounce 77298
dancing 77294
rés 77291
ouest 77267
nurse 77238
Hai@@ 77229
aves 77194
describing 77193
cuisine 77180
ual 77175
photograph 77127
34@@ 77114
sélection 77114
PE@@ 77113
attendu 77113
criminals 77110
venues 77080
teurs 77068
Culture 77052
mener 77036
Américains 77030
globe 77027
by-@@ 77012
Berlusconi 77005
eight-@@ 76996
lit@@ 76987
confusion 76985
procureur 76947
opener 76931
Communications 76927
Sl@@ 76903
Ferrari 76891
lois 76867
lovely 76856
Mount 76848
Fla 76843
influential 76840
16-@@ 76827
couleurs 76826
quar@@ 76825
consistently 76824
hunting 76811
smartphones 76807
cra@@ 76802
ware 76799
.. 76782
Woman 76778
cru@@ 76768
til@@ 76761
exc@@ 76742
teammates 76742
Neu@@ 76728
Everything 76709
ay-@@ 76691
Sénat 76683
gars 76680
Tiger 76656
occupied 76652
diverse 76645
durable 76640
wheel 76622
hon@@ 76621
Unlike 76615
laugh 76612
shelter 76598
musée 76595
pri@@ 76575
lev@@ 76564
triple 76562
volumes 76551
fe 76535
Boris 76498
loaded 76493
avi@@ 76490
negotiate 76482
esse 76477
considerable 76448
uns 76447
ker@@ 76422
unity 76416
alling 76405
lab 76398
confié 76392
format 76387
objects 76386
assess 76382
représentant 76358
taxe 76315
ols 76305
Rachel 76303
pressing 76302
teens 76291
Winter 76277
submitted 76266
PIB 76259
files 76259
Fran@@ 76255
inal 76240
PSG 76233
1984 76203
principle 76189
ashes 76179
200,000 76134
ss 76128
Murdoch 76115
urge 76108
Forces 76105
gar 76099
aying 76090
ec 76089
proximité 76074
ry@@ 76073
Mis@@ 76070
eller 76068
climbed 76065
Li 76064
Benoît 76062
inner 76009
Colombia 75991
meets 75972
competitors 75957
dle 75955
organise 75953
alli@@ 75952
suggestion 75947
depth 75935
qualifying 75930
Bay@@ 75921
lic 75920
movements 75919
concours 75906
valued 75906
conclusions 75884
gather 75874
Nearly 75858
traders 75838
merger 75828
unfair 75828
Ale@@ 75814
license 75791
Was 75777
touche 75776
Res@@ 75775
respected 75765
speci@@ 75761
salaire 75759
rée 75725
fre@@ 75711
aines 75695
Wenger 75683
underground 75650
recul 75626
istic 75580
importantes 75579
Jews 75568
teeth 75560
trigger 75556
gged 75555
Tunisi@@ 75551
essentiel 75545
mandate 75533
catastrophe 75522
physically 75514
Pascal 75509
UR@@ 75455
rev@@ 75454
Through 75445
sued 75438
cinquième 75431
Dur@@ 75422
Sophie 75417
WA 75407
engagé 75405
Richmond 75394
Stur@@ 75370
Jesus 75366
tougher 75360
immune 75336
invitation 75306
Ashley 75304
vely 75298
spectacular 75252
tional 75243
islamique 75239
Thousands 75232
1979 75231
transferred 75229
ust 75226
Brady 75197
Federation 75195
Fred 75190
belt 75188
reads 75187
Bangladesh 75186
inmates 75182
Bayern 75159
ging 75157
ple@@ 75149
climat 75142
op 75103
aviation 75101
part@@ 75094
accepté 75065
predict 75048
Mandela 75043
Dav@@ 75039
jeunesse 75039
Arena 75024
burst 75020
privée 75020
handled 75012
isolated 74990
visa 74985
underlying 74974
NE@@ 74967
principles 74955
atif 74953
closest 74950
Todd 74948
loc@@ 74944
developers 74942
lignes 74939
resume 74928
Investment 74925
parks 74922
pies 74922
recognise 74919
Transport 74917
filming 74915
murdered 74898
emo@@ 74893
Bus@@ 74890
sum 74875
super-@@ 74871
mémoire 74869
Wor@@ 74856
reward 74838
Bishop 74833
Princess 74831
legitimate 74821
Intelligence 74808
Caribbean 74788
ball@@ 74788
rêve 74781
vol@@ 74772
frequent 74769
scénario 74766
wars 74759
stu@@ 74745
celebrities 74730
Rubio 74697
comm@@ 74696
choc 74686
Ir@@ 74654
Canadiens 74649
left-@@ 74633
travelled 74623
tured 74616
Mercedes 74615
ough 74611
warns 74600
top@@ 74592
virtual 74584
Markets 74583
bat@@ 74579
Scientists 74563
offset 74558
execution 74555
génération 74555
Should 74549
examine 74546
déclaration 74535
concentration 74530
Mack@@ 74519
ché 74509
ji 74505
propositions 74483
rom@@ 74481
lesson 74480
Orlando 74417
neighbors 74417
ter-@@ 74415
dig@@ 74404
gear 74401
dou@@ 74399
attorneys 74382
gym 74374
demonstrate 74367
Louise 74366
portée 74366
regret 74362
illegally 74360
Ward 74353
LONDON 74349
zo 74333
pure 74329
recalls 74320
pricing 74315
collectif 74314
stopping 74295
anne 74292
clairement 74282
ov@@ 74281
conservateur 74274
benchmark 74267
bitter 74262
cab@@ 74260
imposer 74245
SEC 74224
PO@@ 74222
Gh@@ 74220
editing 74214
painted 74209
talented 74176
remise 74173
Ky@@ 74152
ch-@@ 74151
rey 74120
ael 74117
n-@@ 74075
aliser 74053
adaptation 74008
retire 74005
tical 74004
pieds 73995
ensuring 73990
mauvaise 73981
RI@@ 73960
profiter 73956
holders 73954
vigueur 73954
1.3 73951
maisons 73947
celebrating 73944
stem 73930
Samedi 73923
Gen. 73920
Argentine 73909
jets 73899
jazz 73897
appreciate 73893
Finances 73889
spécialiste 73867
oner 73855
poli@@ 73830
acker 73829
hang 73822
ander 73794
hacking 73790
catégorie 73787
lane 73777
33@@ 73772
arme 73772
suspicious 73772
Bailey 73766
Royaume-Uni 73747
vessel 73722
cm 73716
for-@@ 73715
ot@@ 73690
van@@ 73689
balle 73686
climb 73677
extrême 73669
strongest 73664
1970 73657
CN@@ 73646
midnight 73632
enquêteurs 73609
Reagan 73603
engineer 73603
radic@@ 73595
samples 73590
loud 73569
excessive 73567
TH@@ 73548
obtain 73545
découverte 73534
assists 73530
Cole 73523
Trudeau 73520
cyber@@ 73519
Shane 73518
Work 73514
Angels 73511
element 73507
negotiating 73501
lancement 73489
alo@@ 73481
treating 73474
découvert 73469
maintenir 73458
recevoir 73417
finger 73413
bathroom 73412
legally 73411
chanson 73403
.co.uk 73398
Louisiana 73394
offence 73391
erreur 73380
messe 73375
ly-@@ 73342
delegates 73339
Raymond 73328
watchdog 73305
shaped 73288
Mrs. 73279
agir 73278
aks 73271
bold 73259
fore@@ 73255
olympique 73253
locals 73237
Alexandre 73227
assi@@ 73226
oring 73214
Sandy 73203
muscle 73193
duties 73191
vice-président 73187
Bak@@ 73165
feeding 73137
gy@@ 73136
Being 73134
depending 73128
détails 73125
Julia 73122
examined 73116
acc@@ 73097
creates 73097
Windows 73095
mm 73093
foule 73077
vainqueur 73061
Cash 73055
anymore 73055
ax@@ 73033
Chrysler 73023
Way 73022
History 73012
37@@ 73002
Bryant 72995
bra@@ 72993
Peace 72991
dish 72986
préparation 72981
perception 72978
connections 72966
implications 72958
teach 72940
conventional 72939
planète 72936
Field 72932
semi-@@ 72895
fastest 72884
mates 72879
answered 72874
narrative 72868
graves 72857
battu 72856
Around 72853
eager 72853
forum 72843
sophisticated 72838
Age 72822
Fair 72791
Malcolm 72787
unacceptable 72782
cook 72751
onal 72748
voices 72729
acking 72724
cocaine 72723
chip 72720
rejoindre 72718
ben@@ 72716
supérieur 72698
airports 72685
vit 72678
Ronaldo 72671
peers 72669
recognised 72665
classified 72653
voc@@ 72642
fame 72632
preparation 72609
bol@@ 72608
hum@@ 72608
soul 72592
discover 72579
140 72557
18.@@ 72550
Saint 72527
divisions 72507
essence 72504
streaming 72491
poser 72459
fusion 72413
vendre 72402
ails 72394
apology 72391
wound 72389
judicial 72388
soutenu 72381
retard 72374
2nd 72357
nommé 72338
travaillé 72338
Chase 72336
deli@@ 72335
wal@@ 72317
circle 72301
12,@@ 72295
Mac 72279
disputed 72277
goalkeeper 72271
grand@@ 72260
Franklin 72256
destroy 72249
rep@@ 72242
Chaque 72233
sérieux 72230
vocal 72218
démocratie 72199
youngest 72166
Cab@@ 72160
explosive 72138
500,000 72135
Money 72129
Does 72124
mere 72124
rage 72122
confrontation 72109
cake 72100
liens 72099
ential 72074
tiques 72068
Drug 72066
loyal 72058
goût 72054
symbol 72038
isation 72020
Dy@@ 72019
antly 72019
Dennis 72010
frozen 72000
coun@@ 71976
29@@ 71975
bizarre 71971
satisfied 71934
sorts 71923
supermarket 71922
compound 71918
Metro 71902
copies 71897
concerts 71876
hiding 71873
secteurs 71870
pilots 71868
err@@ 71861
aining 71852
profession 71850
Over@@ 71849
commis 71846
observed 71818
full-@@ 71812
Xavier 71798
Jets 71786
Stanford 71780
acheter 71753
select 71748
FT 71744
instruments 71732
channels 71727
exécutif 71724
cigarettes 71717
Sachs 71716
ajouter 71700
remembered 71697
fonctions 71696
capitaine 71689
object 71683
Ak@@ 71667
fermeture 71654
ceiling 71642
experiment 71629
emerge 71621
forth 71621
strip 71614
infected 71610
sponsored 71596
Lan@@ 71592
capabilities 71575
musulmans 71575
19.@@ 71573
regulator 71558
jacket 71552
Chavez 71544
construire 71543
PI@@ 71539
coastal 71534
solidarité 71524
connaissance 71490
arg@@ 71488
arrêter 71480
adjusted 71478
counsel 71456
Kardashian 71450
6-1 71436
ech 71426
absolute 71424
automatic 71423
outrage 71422
ae 71419
cross-@@ 71413
two-year 71405
sorti 71404
Abbas 71400
demonstrations 71399
gallery 71391
actively 71390
rookie 71374
illard 71366
column 71363
ared 71350
conservation 71349
tures 71342
disclosed 71334
BB@@ 71333
quelle 71330
radar 71321
Memorial 71316
salon 71316
transmission 71305
Kur@@ 71292
spin 71292
Thierry 71286
SI@@ 71278
Early 71275
Barr@@ 71273
Qui 71273
Samuel 71271
spotlight 71269
implement 71260
Shar@@ 71255
ste 71244
purposes 71243
Nazi 71231
000-@@ 71227
3.5 71211
11,@@ 71200
Metropolitan 71200
Med@@ 71198
dreams 71197
premi@@ 71194
ranging 71192
préparer 71165
Entre 71158
rhetoric 71153
Death 71149
Tower 71133
heritage 71131
Gil@@ 71129
bataille 71128
Sox 71116
Broncos 71110
workforce 71105
ao@@ 71097
harsh 71094
Ba@@ 71084
shake 71080
cancelled 71072
grateful 71056
aked 71055
uck@@ 71055
beneath 71053
recovering 71049
9,000 71041
Ali@@ 71036
Obviously 71031
wildlife 71022
subi 71007
NO@@ 71002
portant 70990
Ang@@ 70981
Bristol 70978
Baby 70977
obesity 70975
entes 70972
quake 70969
clinic 70962
menée 70962
placé 70958
discussing 70946
safely 70945
alize 70942
organiser 70938
sum@@ 70934
dossiers 70932
Gabriel 70925
waited 70904
highway 70888
testified 70863
airs 70847
110 70841
parlementaire 70833
économies 70828
xi@@ 70827
candidature 70821
low@@ 70816
districts 70810
Harrison 70797
Rudd 70797
overwhelming 70793
mess 70739
épouse 70734
praise 70733
aftermath 70732
1987 70711
shoppers 70710
excuse 70704
excess 70700
á@@ 70699
dubbed 70687
operational 70664
budgétaire 70658
slide 70654
attente 70649
ands 70648
warn 70634
eve 70631
Election 70618
battles 70618
documented 70617
agu@@ 70614
LOS 70611
tente 70607
double-@@ 70603
determination 70561
None 70560
tom@@ 70537
Somalia 70535
écart 70526
Toulouse 70498
processing 70490
immédiatement 70489
bande 70470
akes 70469
Liber@@ 70467
motivated 70467
mari 70464
Almost 70462
eta 70442
centaine 70408
demandes 70406
onné 70398
Delhi 70397
South@@ 70393
Bul@@ 70384
sondage 70382
marathon 70378
unrest 70373
Met 70362
reviewed 70359
embrace 70356
playoffs 70356
émissions 70344
subjects 70332
spell 70325
generous 70322
lesquels 70319
Relations 70303
geon 70302
credits 70288
partage 70270
ests 70268
Deutsche 70266
Cy@@ 70260
coupe 70257
17.@@ 70256
billionaire 70245
sentences 70243
Angleterre 70240
han@@ 70235
matched 70222
fleet 70221
hypo@@ 70206
debris 70194
Revenue 70193
Sciences 70173
meters 70171
poll@@ 70170
hair@@ 70159
dam@@ 70154
Rem@@ 70146
Fashion 70145
roots 70110
Mubarak 70104
Da@@ 70103
integrity 70093
prevented 70088
blu@@ 70085
slip 70065
dose 70063
moindre 70060
sco@@ 70055
signals 70043
stomach 70042
prompting 70020
allemande 70004
accueillir 69965
ester 69945
placement 69945
blind 69941
ano@@ 69938
warrant 69938
Mountain 69935
referee 69932
battling 69923
diesel 69920
rencontrer 69913
dressing 69894
forgotten 69891
extrêmement 69880
ison 69872
aling 69868
spectateurs 69864
Hun@@ 69860
priced 69852
champ 69844
massacre 69844
succession 69827
Knight 69799
wo@@ 69792
Islands 69766
Antoine 69742
requiring 69734
Jean-François 69728
Sti@@ 69728
sociales 69726
personnage 69696
trou@@ 69680
Ham 69676
ault 69656
oublier 69628
briefing 69623
dangers 69609
pocket 69598
comparable 69595
longest 69592
hostile 69591
Change 69582
Make 69572
sby 69559
occupation 69551
Rafael 69507
acres 69502
enregistré 69501
alarm 69498
oud 69496
employer 69490
caution 69466
fence 69452
apporter 69430
abused 69415
rencontré 69390
kn@@ 69387
yan 69383
policier 69377
1st 69374
fined 69372
gru@@ 69367
Heart 69363
org@@ 69363
Santé 69361
officiellement 69348
21st 69345
filiale 69342
tar@@ 69291
library 69286
add@@ 69276
ED@@ 69270
bits 69261
etta 69237
stabbed 69237
conduit 69228
tower 69221
belge 69219
ouvre 69209
patrimoine 69208
insurgents 69198
Glenn 69195
mortgages 69187
diplomats 69172
quarterly 69158
animaux 69136
full-time 69134
avoided 69089
treaty 69083
demi 69074
projected 69071
toxic 69071
Easter 69070
sand 69070
shareholder 69066
secours 69065
Bash@@ 69063
BO@@ 69058
appareil 69057
esp@@ 69042
five-year 69038
Holmes 69027
grabbed 69022
romantic 69004
Hezbollah 68996
Sherbrooke 68987
Etats 68979
blaze 68975
actes 68974
dining 68971
Boehner 68968
legend 68952
Oui 68934
Yves 68918
recherches 68915
converted 68891
Hart 68888
Industry 68887
grams 68886
measured 68885
Program 68881
5m 68874
pointe 68872
neur@@ 68870
offert 68867
ained 68866
-M@@ 68859
Brent 68856
Brit@@ 68853
Fisher 68853
wire 68852
atrice 68835
Brothers 68828
carpet 68803
Data 68784
renforcer 68773
depends 68763
alement 68760
pets 68734
régional 68734
Manager 68729
difficulty 68727
alization 68706
shame 68703
Hundreds 68680
struggles 68676
drones 68662
disposition 68657
lobby 68638
Child 68637
resign 68625
ü@@ 68622
Jun@@ 68613
sciences 68609
chronic 68578
fel@@ 68575
radiation 68572
battre 68567
panic 68566
plain 68562
grandmother 68560
assemblée 68556
horizon 68550
Nothing 68546
tan 68531
casualties 68512
Sanchez 68509
priorité 68506
bes 68501
self 68496
suppliers 68495
bled 68490
appealing 68487
Inside 68486
ballon 68486
orum 68476
principale 68472
wrapped 68461
Head 68456
Long@@ 68451
limite 68450
Ronald 68430
barrels 68425
Emirates 68419
que@@ 68416
SN@@ 68411
entrance 68400
inappropriate 68389
ingredients 68385
échanges 68359
Alzheimer 68333
reliable 68332
Tas@@ 68311
Bordeaux 68305
Private 68304
desert 68301
blessure 68286
logements 68286
suburb 68274
Bol@@ 68270
successor 68231
oli 68229
Stevens 68227
ight 68226
nowhere 68209
Syri@@ 68198
arrives 68189
Abdullah 68177
sweeping 68169
uri@@ 68169
cargo 68162
Potter 68146
Swansea 68145
Ban 68125
vic 68116
assembly 68108
Partners 68106
pilote 68099
cri@@ 68091
agg@@ 68090
Lor@@ 68087
residence 68078
withdraw 68078
inevitable 68076
snap 68076
Things 68072
sauce 68039
weakness 68039
medium 68028
neige 68026
trafficking 68024
tear 68018
Storm 68013
acquisitions 68000
desk 67990
esti@@ 67990
patterns 67986
Australie 67985
utility 67984
fold 67977
Brooks 67956
transports 67931
withdrawal 67928
Ouest 67925
nel 67925
productive 67901
alising 67894
topic 67889
ues 67889
équilibre 67885
annuel 67875
drilling 67874
removal 67865
Groupe 67836
worn 67836
rice 67821
beef 67813
180 67791
lasted 67790
ock 67790
chantier 67788
fierce 67787
Pat 67767
wounds 67758
mi 67746
bacteria 67737
G20 67730
Warriors 67722
Silva 67697
ik@@ 67697
Bernie 67692
pol@@ 67690
lasting 67686
meurtre 67686
amb@@ 67666
openly 67657
eas@@ 67651
strategies 67609
sert 67608
description 67605
suggestions 67601
Bour@@ 67597
loo@@ 67594
sacked 67585
Ah@@ 67582
stakes 67575
ania 67570
reluctant 67552
esses 67532
witnessed 67525
4e 67522
Saints 67522
Quelques 67518
Prize 67511
Honda 67507
leaked 67502
effectué 67485
free-@@ 67480
1.4 67477
fai@@ 67456
eur@@ 67448
Foster 67416
Mother 67412
ected 67403
Nigel 67395
tirer 67388
convince 67387
geste 67384
doubts 67380
seekers 67362
processes 67355
avocats 67343
Sin@@ 67328
dée 67327
financières 67322
protein 67322
Haiti 67304
Against 67300
progressive 67300
vécu 67290
decrease 67285
IP 67278
Frédéric 67267
agissait 67267
guaranteed 67266
campaigning 67251
educational 67246
1982 67242
chemicals 67237
Lab@@ 67234
fa@@ 67233
sells 67224
lip@@ 67223
bour@@ 67214
noms 67212
economics 67197
compare 67181
starter 67174
dor@@ 67154
annually 67148
Convention 67143
dock 67136
pic 67135
lo 67129
ous@@ 67127
Friends 67089
maintien 67080
accusation 67072
caractère 67052
agrees 67047
margins 67047
Call 67029
migration 67026
Julien 67013
dispose 67001
professionnel 66995
Russians 66984
restricted 66978
mus@@ 66976
gli@@ 66973
Cowboys 66970
thème 66970
revealing 66966
au-dessus 66957
Puerto 66956
hosting 66956
refusing 66951
rentrée 66934
medication 66930
Darren 66915
anda 66912
montée 66907
ati 66894
déplacement 66887
Os@@ 66883
chase 66879
statue 66872
afterwards 66862
pt 66854
sau@@ 66848
égard 66847
Forum 66844
naked 66825
discount 66818
gging 66786
bach 66779
Thi@@ 66770
drives 66746
tro 66731
shire 66728
kicking 66723
viral 66715
Kir@@ 66713
nécessité 66709
egg 66701
authorized 66700
complexe 66683
naturally 66681
Alice 66676
1985 66667
promoted 66661
organic 66642
PGA 66631
Victor 66628
educated 66620
Wo@@ 66615
Rad@@ 66609
pratiques 66607
mountains 66603
neighbours 66589
atta 66584
Finally 66577
vel@@ 66569
Tripoli 66565
cau@@ 66563
1.6 66556
bottles 66555
titled 66537
PDG 66522
then-@@ 66522
BR@@ 66512
iling 66510
lengthy 66495
sto@@ 66487
Story 66483
75@@ 66473
Hom@@ 66470
LO@@ 66468
g-@@ 66465
victories 66459
magic 66447
ill-@@ 66435
fare 66429
Istanbul 66409
easing 66408
soleil 66402
eth@@ 66388
ashing 66386
trophy 66362
ck@@ 66361
colère 66333
Jacob 66332
secondary 66322
Clegg 66315
cy 66310
Anyone 66302
bloody 66302
3-2 66288
1.1 66276
jihad@@ 66263
iled 66261
vingt 66245
Spring 66243
imports 66240
angle 66234
whis@@ 66220
privately 66219
outlets 66217
Christophe 66216
sisters 66214
Intérieur 66207
reminder 66196
Lau@@ 66181
Walsh 66174
offres 66170
chancellor 66166
Karl 66160
stic 66149
Dal@@ 66148
ires 66147
retrait 66138
Loc@@ 66136
equality 66128
Diana 66124
est-à-dire 66122
branches 66117
cry 66109
tra 66107
pou@@ 66102
cherche 66085
phénomène 66085
broadcaster 66083
envoyé 66078
Mobile 66057
révélé 66054
yl 66043
burg 66035
demonstrators 66018
Kon@@ 66008
transparency 65993
Morsi 65985
Within 65985
raids 65984
garage 65961
passée 65957
2019 65941
soutient 65932
fortement 65915
Officers 65908
t' 65908
roman 65901
dit@@ 65896
external 65894
lav@@ 65894
aving 65880
Hon@@ 65865
propriétaires 65855
Claire 65853
eks 65843
grab 65838
Ball@@ 65814
Neither 65811
tsunami 65807
entrevue 65806
conceded 65803
accusing 65789
auparavant 65777
nine-@@ 65765
TI@@ 65762
Rather 65760
tas@@ 65760
ME@@ 65756
Leur 65751
Bab@@ 65750
deciding 65749
maintaining 65748
spar@@ 65746
amed 65744
qualifié 65743
Airways 65726
majeur 65725
Austria 65723
outdoor 65723
Brother@@ 65720
ized 65718
ef 65713
én@@ 65712
psychological 65711
chant 65709
réformes 65697
SO@@ 65689
devons 65686
réalisateur 65681
E.@@ 65673
chanteur 65670
a-t-on 65649
constitue 65649
agan 65643
das 65641
evacuated 65640
Spencer 65623
Pékin 65611
conver@@ 65598
victoires 65596
Globe 65590
160 65583
SE 65563
entier 65550
acks 65548
VA 65547
Pictures 65544
Zimbabwe 65521
italien 65501
pan 65492
AG@@ 65488
amateurs 65488
tremendous 65487
Gilbert 65481
gunman 65472
Corée 65470
tis@@ 65462
occasionally 65458
hun@@ 65455
provisions 65455
ape 65451
staged 65451
motivation 65450
Sen@@ 65447
les@@ 65445
observers 65431
sty 65426
Nature 65425
downturn 65421
EST 65414
councils 65408
Jobs 65395
ounding 65388
Hugo 65385
sim@@ 65368
examples 65361
temporarily 65358
déposé 65354
fédérale 65354
atively 65353
preventing 65353
RO@@ 65349
Dame 65345
© 65339
Penn 65338
Eddie 65334
bunch 65331
Karen 65313
ä@@ 65313
prince 65309
responding 65305
ther 65278
riv@@ 65263
Hugh 65258
BCE 65241
Jean-Claude 65239
ole 65230
Experts 65210
oos 65202
Communist 65198
hel@@ 65197
animation 65185
tera 65185
conduite 65179
entrepreneur 65169
Wang 65161
diagnosis 65157
Galaxy 65149
Tem@@ 65145
Index 65135
damages 65132
Jake 65117
Messi 65115
piano 65091
II@@ 65086
critic 65080
vegetables 65074
bones 65055
monétaire 65054
Bobby 65036
Motors 65034
bus@@ 65020
Damascus 65014
wireless 65013
pers@@ 65006
ose 64996
drunk 64995
barre 64994
suburbs 64988
uniquement 64982
servir 64966
centr@@ 64965
TA 64964
fiscale 64964
CF@@ 64962
explaining 64961
relating 64950
Euro@@ 64945
FTSE 64944
métier 64927
50-@@ 64925
Griffin 64913
Lib 64901
Opposition 64896
pleasure 64886
tourisme 64881
tend@@ 64879
Key 64877
prescription 64873
bal 64858
single-@@ 64858
perceived 64856
dic 64855
lion 64846
Leeds 64838
onc@@ 64838
gent 64801
mines 64795
instruction 64785
Under@@ 64769
CO 64757
offenders 64746
silent 64744
Jean-Pierre 64726
quietly 64712
smo@@ 64697
impacts 64669
Cuban 64650
habits 64648
Pat@@ 64645
infections 64643
Herald 64642
Universal 64635
drame 64622
two-thirds 64613
proposer 64609
executed 64608
defendants 64606
mol@@ 64604
Del 64596
magnitude 64591
everyday 64589
chamber 64584
impôts 64580
dust 64579
berry 64572
Congressional 64569
restructuring 64568
Downing 64549
nez 64545
Table 64542
Ashes 64537
comprend 64536
Tre@@ 64507
Low@@ 64506
38@@ 64505
ei 64499
amateur 64490
camp@@ 64480
free@@ 64477
EPA 64472
HO@@ 64463
ç@@ 64448
tender 64437
Bet@@ 64412
lung 64411
bies 64401
Kam@@ 64394
extremists 64394
Mak@@ 64380
unité 64365
Jeffrey 64348
est-il 64347
Presse 64346
chansons 64337
hearts 64324
professionnelle 64320
Village 64310
loving 64310
stepping 64307
Di 64298
1983 64297
Gall@@ 64296
wa 64296
ffs 64293
Camp 64284
lib@@ 64270
Emergency 64251
Dylan 64245
Crime 64234
Boy 64233
preserve 64222
yields 64216
Nobody 64210
keys 64204
tués 64195
mac@@ 64193
episodes 64185
T. 64182
corn 64165
errors 64162
lif@@ 64152
shipping 64134
stop@@ 64128
HSBC 64117
traveled 64117
Banks 64115
Workers 64114
devenue 64106
asse 64103
0.5 64097
él@@ 64096
Pur@@ 64095
technologie 64060
dis 64052
í@@ 64047
gagne 64043
presents 64043
aching 64040
wards 64031
folks 64029
Heat 64025
eri 63978
mes@@ 63973
ero@@ 63972
producteurs 63968
Spe@@ 63956
Hudson 63947
advocate 63945
sin@@ 63937
analystes 63920
rell 63918
nor@@ 63897
Omar 63895
ading 63886
booked 63884
90@@ 63875
buses 63873
Bru@@ 63866
monter 63862
Belfast 63860
rappeler 63859
examination 63855
Patriots 63844
differently 63838
Julian 63801
balanced 63792
ci 63789
conducting 63776
Bulldogs 63775
mit@@ 63771
Delta 63766
Indi@@ 63751
devastated 63744
Aux 63728
breathing 63728
fle@@ 63723
visual 63710
Chambre 63709
ACT 63707
spaces 63702
Bulgaria 63695
priorities 63691
robbery 63688
Tel@@ 63679
landmark 63673
reconnaît 63671
torn 63647
Dam@@ 63636
Dick 63632
Shiite 63618
ayed 63604
Arctic 63583
resolved 63563
screens 63555
predecessor 63535
encing 63532
tal 63530
fol@@ 63524
uncertain 63524
AB@@ 63523
bears 63499
ho 63496
athlete 63451
audio 63434
rées 63428
Interior 63425
costly 63413
Gab@@ 63402
sauf 63401
topped 63395
1981 63393
25,000 63373
departments 63371
big-@@ 63369
peau 63359
pa 63352
DE@@ 63340
ern@@ 63338
CS 63327
notably 63317
tribal 63313
7-6 63303
Mets 63303
passagers 63301
café 63293
nonprofit 63290
terminal 63289
Clo@@ 63280
Mathieu 63280
aches 63278
Bio@@ 63274
Grande 63274
right-@@ 63269
compliance 63268
headline 63261
mont 63260
Wild 63255
ene@@ 63249
Mail@@ 63243
brave 63242
trace 63229
Volkswagen 63227
subsidies 63225
Cox 63214
difficiles 63184
dénoncé 63182
Alexis 63178
McConnell 63173
Wat@@ 63168
turmoil 63167
lancée 63160
sse 63158
thro@@ 63158
eson 63157
Rouge 63145
ashed 63145
sand@@ 63144
Beau@@ 63137
terrorisme 63137
partisan 63127
illes 63123
Xinhua 63117
ined 63117
racism 63109
organisée 63096
classique 63085
Martinez 63072
accommodation 63064
midfield 63064
spy 63061
strategist 63045
Norman 63042
helpful 63040
Cav@@ 63033
Inde 63031
naissance 63009
understands 63005
MI@@ 62986
empêcher 62980
ref@@ 62971
Marcus 62963
recettes 62963
ailed 62957
installations 62950
Girls 62947
aul@@ 62941
Vendredi 62938
audit 62937
Dieu 62931
réduit 62929
Future 62917
admission 62898
asting 62883
kin@@ 62871
Studies 62831
bomber 62830
financer 62826
empire 62820
forcément 62818
EN 62805
triumph 62803
nominations 62780
workplace 62760
robot 62759
Gérard 62751
déclarations 62737
liés 62722
Congo 62710
willingness 62710
Bach@@ 62703
crying 62694
aft 62693
chairs 62693
evil 62693
uniform 62686
doc@@ 62685
officiel 62674
déc@@ 62663
st-@@ 62662
engineers 62655
wet 62652
voté 62647
Bertrand 62636
Captain 62635
univers 62633
far@@ 62621
Scots 62618
hi 62618
Jusqu' 62617
BMW 62609
Income 62603
sheriff 62588
affects 62571
choosing 62554
albums 62551
clé 62549
nurses 62537
draws 62536
gas@@ 62536
Ze@@ 62530
Nar@@ 62525
pp 62504
Autre 62497
Please 62495
weighed 62495
listing 62487
requirement 62487
debts 62466
fights 62448
affecting 62437
a' 62435
Dom@@ 62408
comic 62395
cré@@ 62394
Tal@@ 62386
devoted 62382
Tyler 62379
Rel@@ 62357
blessures 62351
19th 62341
adopté 62333
10-year 62315
gaining 62312
tomber 62308
gener@@ 62296
yed 62289
cautious 62280
Défense 62275
ultra-@@ 62270
freeze 62253
but@@ 62249
appui 62248
mosque 62232
Golf 62225
foul 62220
Canal 62211
immobilier 62210
José 62200
sections 62199
spe@@ 62195
Dublin 62189
reception 62184
évoqué 62183
radi@@ 62176
alisé 62156
integration 62154
tian 62153
developer 62152
Dakota 62147
defendant 62140
Off 62137
celui-ci 62102
drought 62097
convaincre 62091
aventure 62084
FMI 62073
McCarthy 62071
Fur@@ 62070
principalement 62063
ele@@ 62048
inquest 62046
Ry@@ 62042
év@@ 62041
alia 62038
ambiance 62032
Oakland 62021
Bau@@ 62020
trailer 62019
as-@@ 62017
Est-ce 62011
disappointment 62007
Athens 62006
pass@@ 61986
déterminer 61981
cs 61971
Laval 61968
interdit 61958
Critics 61950
analy@@ 61948
immigrant 61941
wooden 61934
Thai 61899
profité 61899
ader 61897
Hull 61892
Cle@@ 61885
Medicaid 61885
Fernando 61875
revised 61872
presentation 61857
acti@@ 61855
engines 61855
seniors 61854
probable 61852
High@@ 61840
addiction 61837
acre 61836
assured 61834
volunteer 61833
gifts 61825
bancaire 61804
Water@@ 61800
Pit@@ 61792
investir 61792
clés 61782
demonstration 61782
buyer 61779
scientifiques 61775
Czech 61772
adopt 61770
formations 61769
sole 61766
schemes 61761
Kat@@ 61757
heels 61754
appealed 61751
publishing 61750
tif 61742
branded 61740
Overall 61737
sample 61735
sai@@ 61710
traditionally 61710
automatically 61706
Wallace 61701
crop 61691
Bull 61687
Tw@@ 61680
observe 61672
Kin@@ 61667
deliberately 61664
mother@@ 61658
Mass 61655
Cru@@ 61654
Mediterranean 61654
apprendre 61654
h-@@ 61646
subsequently 61637
Nav@@ 61633
Richardson 61626
cle@@ 61624
lab@@ 61620
bearing 61610
M.@@ 61608
lesquelles 61584
Marie-@@ 61580
eliminate 61580
inspection 61570
acknowledge 61555
'Brien 61552
crown 61551
Cho@@ 61543
worrying 61543
Yan@@ 61529
Building 61528
Powell 61523
removing 61520
awa 61509
mutual 61507
parlé 61495
Whatever 61491
Natural 61488
System 61475
Looking 61470
displayed 61453
échelle 61447
ambi@@ 61444
grey 61442
rocks 61439
restored 61426
rab@@ 61425
Environmental 61413
vacation 61410
disponible 61408
hear@@ 61404
permettent 61397
pressures 61397
phenomenon 61394
1967 61389
spare 61385
respecter 61384
Silver 61382
surplus 61382
al-Assad 61380
compl@@ 61372
prim@@ 61365
implemented 61357
indépendance 61356
renewable 61352
patrol 61346
démocratique 61342
Could 61340
Oval 61340
Conn@@ 61330
tées 61329
1,0@@ 61320
Fol@@ 61311
rel 61311
lake 61300
skill 61280
Helen 61278
bosses 61278
Southampton 61271
invité 61263
ampleur 61261
glace 61258
Luc 61257
repas 61255
Ran@@ 61234
tobacco 61227
Kabul 61225
Insurance 61214
deposits 61194
rein@@ 61178
UCLA 61175
hou@@ 61165
ret 61164
conscious 61163
depend 61147
présentation 61139
arrangement 61133
overtime 61130
vessels 61129
Vis@@ 61121
designs 61112
tem@@ 61111
calories 61106
chart 61091
ented 61090
fails 61090
cousin 61078
dirigeant 61072
Mill@@ 61058
zen 61037
not@@ 61033
ership 61028
exploded 61025
persuade 61022
Lanka 61012
inv@@ 61008
casting 60997
spreading 60988
outfit 60987
faites 60976
bombings 60968
grandfather 60964
Mason 60955
duc@@ 60952
NSA 60951
IM@@ 60946
Mae 60941
sty@@ 60939
engaging 60934
motor@@ 60926
arrondissement 60920
MO@@ 60918
Sunderland 60917
vaste 60907
vice-@@ 60907
Emily 60905
S.@@ 60901
Dev@@ 60900
intensive 60894
assumed 60893
québécoise 60889
tez 60870
addressing 60866
shell 60866
awful 60863
Pres@@ 60857
threaten 60849
GO@@ 60846
Military 60842
shaw 60842
Wel@@ 60839
Tommy 60833
misconduct 60828
Tan@@ 60825
prévenu 60822
lineup 60818
definition 60816
publiée 60809
chips 60806
provoqué 60806
equipped 60801
consent 60792
ange 60791
Never 60785
patience 60781
Alberta 60776
Portland 60775
onist 60766
Travel 60764
Liam 60757
is-@@ 60754
Spo@@ 60728
Ye@@ 60728
Asie 60717
humanity 60701
furniture 60697
Scar@@ 60695
Madison 60694
Oscars 60682
replacing 60676
-and-@@ 60672
inspire 60653
Adrian 60648
lining 60646
Att@@ 60643
taxpayer 60643
actionnaires 60642
ide 60641
citizenship 60639
sujets 60638
bankers 60630
boots 60625
exploit 60614
ecti@@ 60596
locks 60594
Wade 60592
law@@ 60586
produire 60584
helicopters 60583
she@@ 60581
bands 60576
potentiel 60573
Mou@@ 60571
libération 60569
Poor 60568
mers 60565
Ul@@ 60550
excitement 60548
los 60531
Didier 60529
concessions 60526
Nat@@ 60500
Arkansas 60497
riches 60493
shy 60493
manufacturer 60475
sley 60475
terroristes 60454
H. 60444
fundraising 60434
Sierra 60425
interdiction 60418
Reed 60417
pursuit 60415
Mand@@ 60414
Jr. 60399
doping 60393
1976 60392
trentaine 60374
Joel 60371
personnages 60371
semi-final 60371
Verizon 60366
integrated 60356
réaction 60347
18th 60342
intellectual 60330
designers 60320
EDT 60314
notable 60314
quartiers 60311
calendrier 60301
butter 60295
Ga@@ 60289
efficace 60281
Fox@@ 60268
Seoul 60263
Singh 60263
Ha@@ 60259
intelligent 60256
dynamic 60253
hop@@ 60249
choisir 60248
ito 60246
bureaux 60245
dragged 60245
hard@@ 60238
ori 60238
objets 60235
reconnaissance 60229
safer 60193
shortage 60193
Would 60186
située 60171
categories 60145
Based 60141
Chile 60120
gradually 60120
Gibson 60117
accent 60108
tune 60105
zoo 60096
uranium 60085
démarche 60080
tanks 60079
Using 60077
convictions 60074
partenariat 60065
jo 60062
Owen 60060
orn 60050
x-@@ 60050
checking 60049
Haram 60042
may@@ 60041
Eve 60040
positif 60038
roi 60034
troupes 60032
erous 60028
breath 60002
hike 59999
Gir@@ 59988
bullying 59987
relaxed 59984
CCTV 59975
IC@@ 59972
violated 59955
fire@@ 59952
tap 59943
absent 59916
13,@@ 59897
centre-ville 59893
tres 59890
sul@@ 59888
enseignement 59882
tourner 59879
commenté 59878
frappe 59874
alternatives 59868
spi@@ 59862
tableau 59850
référendum 59847
careers 59844
Members 59839
Beckham 59836
uncomfortable 59825
bad@@ 59821
recommend 59810
rental 59802
cigarette 59798
emotions 59798
AR 59797
Final 59797
neighboring 59791
dent 59773
Andrews 59772
.com.@@ 59768
gers 59765
tide 59757
Dead 59751
mentally 59725
Stade 59720
ö@@ 59719
commitments 59718
debates 59712
habitude 59710
Derek 59708
élève 59707
coat 59701
shootings 59697
cycling 59696
oversight 59693
basket 59689
efficacité 59686
Bad 59680
tiré 59673
fantasy 59654
Hussein 59636
declining 59636
ket 59630
Tesco 59628
glit@@ 59628
Derby 59625
actrice 59625
gasoline 59625
centuries 59619
Jean-Marc 59604
undermine 59604
Boko 59598
Pop@@ 59597
0.1 59594
Côté 59594
Century 59587
Corps 59585
mettant 59584
pont 59584
Denmark 59568
certainement 59568
viewing 59561
flows 59557
mur 59556
1,500 59553
oeuvres 59544
Lang@@ 59540
chen 59537
platforms 59530
credibility 59514
dered 59514
ounds 59508
Lloyd 59501
Belgian 59491
combats 59483
ought 59474
hub 59460
Bryan 59452
Electric 59451
freed 59450
Immigration 59448
enko 59437
estiment 59437
drops 59435
législatives 59430
Rodgers 59427
Doctors 59425
tee 59418
transit 59417
Shu@@ 59404
débats 59403
exchanges 59401
Mahmoud 59398
profitable 59370
singles 59366
crowded 59359
fondateur 59329
firmly 59320
papier 59316
vedette 59315
disclosure 59302
imagination 59295
voilà 59291
LNH 59289
passionate 59288
enterprise 59275
répond 59261
foo@@ 59233
accepting 59229
bia 59222
semblent 59222
Andre 59218
Hernandez 59215
internationales 59214
Arnold 59208
motor 59200
commandes 59199
11th 59194
Gol@@ 59194
Kel@@ 59193
tives 59188
chang@@ 59185
biens 59163
adverse 59149
re-election 59136
19-@@ 59134
releases 59117
sentencing 59112
aro 59103
Karzai 59096
apped 59095
erupted 59086
wan 59086
Toutefois 59074
pursuing 59072
Origin 59070
a.@@ 59055
TS 59052
juges 59048
presidents 59048
insist 59038
Brandon 59021
gérer 59013
power@@ 59008
prisons 59006
commodity 59004
lig@@ 59002
ately 58982
meaningful 58982
ANGELES 58980
JPMorgan 58976
bans 58971
hugely 58966
Anti-@@ 58952
Comp@@ 58950
jou@@ 58950
invités 58943
compelling 58925
Small 58913
Reynolds 58909
counterparts 58907
bulk 58900
migrant 58897
m. 58890
101 58886
stat@@ 58876
con 58874
Swift 58869
wit@@ 58861
Fonds 58860
Bruins 58858
Cincinnati 58857
oli@@ 58857
aria 58841
commissioned 58839
détention 58839
prennent 58826
tou@@ 58826
weaker 58823
G. 58817
ciel 58810
Christians 58809
co-founder 58806
infl@@ 58799
Ken@@ 58782
Morrison 58779
excellence 58779
Chez 58776
doubles 58764
ination 58759
Â 58746
Hen@@ 58743
talents 58720
Mitch 58711
éri@@ 58705
matinée 58685
Flight 58684
Nicholas 58684
flash 58662
Carson 58659
distributed 58659
LE 58640
Mardi 58634
jokes 58631
TO@@ 58625
gues 58624
infrastructures 58618
refuge 58590
hung 58579
Six@@ 58578
24-@@ 58577
ects 58568
kov 58564
Jar@@ 58558
Mosul 58555
news@@ 58553
intensity 58546
Durant 58539
Geneva 58532
corporations 58530
établir 58529
supérieure 58526
DS 58516
picks 58516
identification 58500
F1 58499
addresses 58486
sortant 58486
éré 58486
risky 58471
ID 58468
paintings 58460
traces 58450
Years 58446
15,000 58444
collègues 58432
diffusion 58407
réflexion 58406
Code 58398
placing 58386
composition 58384
contractors 58382
beloved 58381
z-@@ 58374
Colmar 58363
Transportation 58358
flags 58354
commissaire 58349
civils 58347
lighting 58341
breakthrough 58327
Andrea 58325
Les@@ 58325
rant 58316
tage 58301
125 58300
tha 58296
tum@@ 58282
1,3@@ 58278
Fair@@ 58275
Political 58275
hat@@ 58250
donated 58234
dirty 58218
lessly 58216
anonymous 58212
Katie 58210
vols 58205
exists 58186
studios 58176
totale 58176
ridiculous 58172
presenter 58171
far-@@ 58170
Cow@@ 58160
Hur@@ 58140
Big@@ 58132
broker 58127
formerly 58125
Climate 58115
slight 58115
printed 58105
engagements 58104
consulting 58103
glad 58101
CL@@ 58100
1,5 58092
Clippers 58091
opted 58086
Ok@@ 58082
conservateurs 58074
fonctionnement 58074
catching 58068
age-@@ 58054
20s 58052
fleeing 58032
poursuite 58031
ayer 57987
AA 57985
rait 57978
approaches 57965
kel 57956
severely 57956
réserve 57950
légèrement 57949
UBS 57931
oney 57929
Georges 57914
ive 57910
40,000 57907
Serge 57897
Light 57893
spectrum 57883
Jon@@ 57882
Cape 57880
mini-@@ 57872
possède 57869
rapporte 57866
Flynn 57858
responses 57855
Investigators 57846
mil@@ 57844
libéraux 57843
liver 57838
sacrifice 57827
horrible 57825
dia 57824
Kane 57818
arranged 57818
pen 57810
Duchess 57800
USC 57798
électrique 57797
enberg 57765
raped 57758
enthusiasm 57752
blocking 57747
pit 57743
frappé 57737
UK@@ 57729
boxing 57727
chapter 57721
explosives 57711
rat@@ 57667
Reports 57666
conseils 57663
Third 57661
frontières 57659
winger 57633
Maine 57630
Christ 57624
Hearts 57622
slowing 57621
Tak@@ 57611
Highway 57601
act@@ 57580
39@@ 57565
bow 57558
casino 57556
championships 57553
appels 57552
rav@@ 57543
throws 57538
flames 57532
ety 57529
flown 57514
governance 57512
olo 57512
matériel 57508
uprising 57501
rejoint 57475
cam@@ 57464
famously 57458
fingers 57447
vraie 57437
perd 57432
Kn@@ 57431
Guillaume 57422
ining 57415
permit 57407
Gallery 57406
tap@@ 57401
smooth 57399
tta 57392
reject 57391
mill@@ 57390
liquid 57381
Co-@@ 57377
venait 57364
jeans 57351
assaulted 57350
1.8 57349
comedian 57349
wr@@ 57344
Homeland 57340
450 57335
mad@@ 57333
Tax 57332
rain@@ 57329
gle@@ 57324
flexible 57314
Shakespeare 57313
three-year 57313
eh@@ 57306
button 57287
carriers 57281
Bell@@ 57277
orientation 57273
reck@@ 57270
bear@@ 57267
héros 57264
1960 57260
cure 57255
owed 57255
trick 57246
Environment 57236
boot 57232
conflicts 57220
deserves 57214
DE 57208
weigh 57208
Late 57201
frères 57196
gangs 57186
religieux 57168
dependent 57157
tire 57151
Panthers 57132
optimism 57126
akers 57117
mad 57113
screaming 57112
établi 57099
sealed 57082
aud@@ 57066
illo 57059
ried 57047
enjeu 57045
twin 57043
upgrade 57033
fortes 57027
Raiders 57024
counting 57022
0.2 57020
Die 57019
trait 57012
Resources 57008
Dum@@ 56997
ax 56992
Henderson 56980
bin@@ 56973
ric@@ 56969
Poutine 56968
searched 56963
adresse 56955
Amanda 56951
atu@@ 56948
ress 56939
posing 56928
grosse 56923
Abe 56907
alcool 56906
coupable 56904
habit 56903
celle-ci 56898
refer@@ 56897
cyber 56896
fi 56895
accounted 56888
lucrative 56886
net@@ 56879
opera 56867
N.Y. 56860
mo 56857
canceled 56854
jumping 56853
Couillard 56850
ide@@ 56849
near-@@ 56847
pants 56846
insurers 56834
40-@@ 56827
aga 56821
Vill@@ 56817
NHL 56813
com 56809
universal 56808
RBS 56805
pel@@ 56801
rings 56800
sportif 56783
disputes 56775
Flash 56769
bonuses 56766
Holdings 56764
leather 56757
autorité 56750
haul 56733
emphasis 56729
Hard@@ 56726
municipalité 56724
DJ 56718
separated 56711
item 56708
Cold 56706
Wit@@ 56701
300,000 56698
gel 56697
hin@@ 56693
DA 56688
blew 56688
formidable 56668
pel 56663
touristes 56659
saisons 56658
lobbying 56655
zu@@ 56652
shutdown 56637
controlling 56636
révolution 56632
salaires 56630
Eli@@ 56627
1.7 56625
filling 56620
heated 56616
batting 56612
cleaning 56612
aun@@ 56606
avenue 56604
int 56575
Hope 56572
dealers 56556
réussite 56547
Coo@@ 56532
quarts 56520
Ric@@ 56510
blown 56504
reminded 56496
kins 56487
Page 56484
arena 56474
Congrès 56455
1975 56442
Motor 56437
aye 56435
outcomes 56432
Law@@ 56430
HBO 56427
Kids 56410
attraction 56410
marry 56407
1950s 56397
e.@@ 56395
subsidiary 56393
44@@ 56391
mun@@ 56391
desperately 56385
ags 56382
volatile 56373
ares 56372
250,000 56361
spec@@ 56348
BNP 56336
Reds 56330
calendar 56328
disclose 56326
Spi@@ 56314
barriers 56311
Mach@@ 56310
compagnies 56304
Father 56299
dés 56295
marking 56295
20.@@ 56283
tops 56281
View 56279
viable 56275
Castle 56271
Representatives 56253
mur@@ 56253
exceptional 56252
Too 56251
Hitler 56244
Raj@@ 56244
Moon 56242
productivity 56240
stal@@ 56237
drag 56236
Bar 56234
Photo@@ 56233
manche 56233
considéré 56212
extremist 56211
resses 56209
Ev@@ 56197
repeal 56194
mobilisation 56177
Nik@@ 56147
Pon@@ 56139
Magic 56134
lar@@ 56126
approaching 56120
Empire 56113
fuite 56110
tait 56108
downs 56107
universe 56105
considers 56102
barrier 56098
Limited 56087
F-@@ 56084
chin 56083
ament 56041
17,@@ 56031
Sci@@ 56028
Again 56026
CD 56010
réel 56009
14,@@ 56002
jugement 55999
enf@@ 55980
set@@ 55980
open-@@ 55979
alis@@ 55977
John@@ 55962
Hassan 55961
Nissan 55960
onze 55959
DI@@ 55955
noire 55953
dur@@ 55942
Grace 55923
attentes 55922
oma 55920
ura 55920
inform@@ 55918
Richards 55914
din 55905
Lem@@ 55893
array 55892
steal 55882
pouvoirs 55880
NCAA 55876
heroes 55875
shu@@ 55873
tissue 55868
scientifique 55857
Brett 55827
weird 55824
Summer 55822
bott@@ 55818
foreigners 55815
objective 55813
telles 55804
St-@@ 55799
comply 55791
amélioration 55788
interventions 55788
bil@@ 55787
danse 55784
ulation 55780
regarder 55764
privés 55762
syrien 55754
marques 55750
neuro@@ 55738
enhance 55730
sauver 55729
fonctionnaires 55728
night@@ 55715
constaté 55712
midi 55704
Theater 55698
Gatineau 55675
bipartisan 55675
composer 55671
deposit 55670
Kenny 55668
55@@ 55665
flexibility 55661
riders 55657
ear 55653
masse 55625
minded 55623
1974 55620
Ellis 55620
21-@@ 55614
boosted 55612
ection 55611
cats 55588
est-@@ 55585
instructions 55579
swi@@ 55579
Vit@@ 55577
aliste 55574
advocacy 55568
Polish 55564
syndrome 55564
greenhouse 55515
incentives 55515
instrument 55512
Sébastien 55511
tail 55504
pil@@ 55501
réagi 55497
Television 55490
Fifa 55486
pertes 55484
Casey 55483
Mexique 55480
Between 55479
gene 55478
nursing 55473
pap@@ 55468
life-@@ 55464
dig 55461
Sing@@ 55459
ested 55450
ONG 55446
NYTimes.com 55444
oni@@ 55434
fais 55425
nul 55424
ek@@ 55422
mature 55420
year@@ 55420
Lille 55414
Henri 55408
Tab@@ 55408
beliefs 55406
qualifier 55404
poly@@ 55399
Shaw 55392
diplomat 55391
glasses 55389
énorme 55389
Butler 55385
GM@@ 55384
spectacles 55381
30pm 55378
Hob@@ 55378
cinema 55376
Lis@@ 55367
Greater 55356
respondents 55353
day@@ 55344
Lav@@ 55342
transparent 55337
culte 55309
detainees 55294
communicate 55281
ful@@ 55270
bite 55267
Joint 55260
Diane 55254
propaganda 55250
editorial 55249
justement 55248
évaluation 55245
wings 55244
4.5 55240
detectives 55240
1968 55219
charities 55213
slowdown 55202
smell 55201
Buffalo 55192
chasing 55182
Off@@ 55160
intends 55157
Ros@@ 55141
run@@ 55139
grants 55134
house@@ 55133
logo 55131
farms 55130
hearings 55127
Benghazi 55123
lee 55122
billets 55118
arly 55117
vaut 55115
Église 55108
ections 55102
realistic 55099
wishes 55097
ig 55095
Burns 55091
Holland 55082
attendance 55078
Border 55067
instances 55061
devaient 55057
lutter 55045
alerte 55042
gig@@ 55037
toilet 55027
collections 55008
luxe 54999
entourage 54982
08@@ 54979
transformed 54978
costume 54973
matching 54970
Linda 54966
react 54966
sourire 54965
médaille 54964
Inv@@ 54958
yuan 54945
enemies 54939
isi@@ 54936
divide 54935
well-known 54933
detected 54927
hand-@@ 54923
filet 54911
amende 54909
Camp@@ 54902
dehors 54887
sovereign 54878
shoulders 54872
complet 54865
participating 54858
voulons 54856
mé 54851
Formula 54840
Lim@@ 54835
thir@@ 54833
embarrassing 54829
crimin@@ 54828
teammate 54825
acquis 54824
sounded 54820
dist@@ 54812
amendment 54811
updates 54806
the-@@ 54800
Tribune 54797
100@@ 54792
railway 54791
partially 54788
neighborhoods 54784
sch 54783
beaches 54774
mut@@ 54773
CGT 54767
quée 54763
sne@@ 54738
Gas 54737
out-of-@@ 54734
dol@@ 54728
Agriculture 54701
Mohammad 54701
MS@@ 54700
1972 54687
adventure 54686
Tel 54680
Thatcher 54679
Sergio 54664
balles 54664
belles 54662
aping 54650
ial 54648
Hockey 54641
dons 54631
CDC 54630
Shell 54621
deserved 54619
Sullivan 54616
road@@ 54609
Robertson 54604
auquel 54597
publish 54595
Circuit 54592
components 54589
art@@ 54581
terroriste 54577
tail@@ 54574
Elysée 54554
calme 54553
ménages 54544
knock 54542
vet 54539
formula 54536
produces 54534
Ful@@ 54517
state-@@ 54517
homicide 54516
mounting 54512
lever 54505
genes 54502
holder 54500
organisateurs 54496
Pet@@ 54489
GB 54481
Rico 54480
distant 54479
runners 54476
Tremblay 54474
database 54474
NYSE 54470
indictment 54463
représentent 54450
I.@@ 54446
minim@@ 54439
framework 54433
accepter 54412
rares 54404
1973 54398
Et@@ 54394
artificial 54391
precisely 54385
rows 54385
aille 54379
indicates 54369
Sky@@ 54357
appareils 54353
lish 54350
flav@@ 54340
ank@@ 54330
prévisions 54327
supportive 54323
dangereux 54320
Outre 54313
sheer 54312
um-@@ 54310
flies 54306
caps 54299
chasse 54296
ort 54283
brut 54282
tioned 54268
Libye 54263
Cum@@ 54248
veto 54246
gouvernements 54242
liv@@ 54240
musicians 54238
disait 54236
détail 54228
insisté 54223
suburban 54219
availability 54215
Gam@@ 54214
factories 54213
inverse 54211
ph 54207
tense 54185
1977 54179
underway 54171
registration 54164
trice 54164
TM 54162
slowed 54159
Had@@ 54151
disappearance 54148
Wallabies 54143
bis@@ 54143
voluntary 54139
roll@@ 54128
aster 54126
gamme 54123
toys 54123
tted 54121
Freddie 54117
mond 54114
Jer@@ 54113
y' 54110
joked 54106
défaut 54098
complain 54076
cel@@ 54071
enseignants 54055
cartes 54053
disponibles 54053
extending 54051
advances 54050
reader 54047
joins 54043
climbing 54042
BS 54035
ajoutant 54018
suitable 54011
qués 54009
trouvait 54003
etc 53994
vérité 53986
0.3 53978
romance 53978
1m 53962
gunmen 53951
pac@@ 53942
seize 53939
glu@@ 53931
mani@@ 53927
municipales 53925
russes 53913
supplémentaire 53896
rallied 53895
zo@@ 53890
47@@ 53888
shifting 53887
statistiques 53885
Bernanke 53883
trouvent 53876
BC 53870
stupid 53869
iti@@ 53866
electrical 53860
shark 53860
multiples 53856
celebrates 53852
principales 53848
wind@@ 53846
circonstances 53845
mettent 53841
Roberto 53839
46@@ 53836
salaries 53835
Gaddafi 53828
dges 53828
overs 53811
sends 53807
surveyed 53807
runway 53799
DO@@ 53793
broadband 53793
Janet 53779
règlement 53771
unnecessary 53769
hungry 53768
regain 53765
Lat@@ 53757
stole 53755
crises 53751
saves 53747
témoins 53747
prisoner 53746
bullet 53726
tenure 53725
éli@@ 53719
petrol 53718
any@@ 53714
eng 53712
bubble 53689
substitute 53686
bias 53680
Has 53678
McIlroy 53676
backlash 53676
Eight 53675
passport 53674
programming 53667
Liberty 53661
Dol@@ 53659
logique 53659
Chuck 53657
yne 53653
exprimer 53649
collecting 53642
concerning 53616
DVD 53615
IA 53608
experiencing 53605
Heathrow 53601
betting 53598
régionale 53591
ui 53591
oners 53588
sni@@ 53583
Indians 53582
academy 53573
MH@@ 53558
disruption 53553
parfaitement 53551
was@@ 53551
Annual 53536
ago@@ 53530
insul@@ 53524
credible 53499
blonde 53475
meilleures 53474
define 53470
Rid@@ 53467
stealing 53459
releasing 53452
disability 53450
all-time 53435
Tea 53433
Jeudi 53428
1978 53424
mainland 53422
Campaign 53414
Victory 53413
confused 53396
Sheffield 53393
boutique 53387
travelers 53372
Swe@@ 53358
marquer 53357
curb 53354
year-olds 53352
gambling 53346
pho@@ 53338
15,@@ 53332
grip 53329
electronics 53321
ef@@ 53312
Tru@@ 53290
venant 53289
centre-@@ 53286
trusted 53284
rai@@ 53282
sondages 53275
fus@@ 53262
snapped 53260
Class 53259
pluie 53258
progrès 53253
laughing 53248
TVA 53240
pitched 53229
Cher@@ 53227
Rien 53224
.fr 53222
Pay@@ 53219
port@@ 53206
écrire 53200
Sharks 53198
medals 53197
stripped 53197
stones 53187
Heritage 53183
lice 53182
m-@@ 53179
ITV 53177
home-@@ 53175
cultures 53156
Lac@@ 53155
ethics 53153
Brendan 53140
surpris 53140
Rebecca 53135
reconstruction 53124
touch@@ 53114
tos 53093
celebrations 53091
Silicon 53081
Carney 53075
rebound 53051
P.@@ 53047
Crystal 53046
highs 53041
facilement 53039
liées 53038
QC 53033
al-Qaida 53030
kind@@ 53029
contenu 53028
precious 53026
obstacles 53024
organismes 53018
installer 53016
contractor 52989
voisins 52984
whist@@ 52975
verse 52973
évoque 52967
bra 52966
pile 52960
humain 52947
wrongdoing 52946
proving 52938
tropical 52935
imagin@@ 52926
Serena 52922
Mugabe 52921
publicity 52920
canc@@ 52914
friendship 52908
neighbor 52907
insight 52902
froid 52895
fast-@@ 52891
pêche 52883
alike 52875
Fame 52862
destinations 52844
Lambert 52836
sta 52834
notorious 52830
GE 52811
Coun@@ 52809
Bec@@ 52800
Ne 52800
networking 52788
happiness 52784
trauma 52777
alled 52775
comportement 52772
LLC 52762
thouse 52760
Essex 52753
stretched 52752
tracked 52749
Companies 52735
Top@@ 52733
Chin@@ 52732
proceeds 52732
maritime 52720
thum@@ 52710
tim@@ 52695
wondering 52691
Ear@@ 52689
Carey 52686
sooner 52685
Drew 52684
ced 52680
rushing 52678
imminent 52670
16,@@ 52667
fermé 52665
bonheur 52660
tipped 52658
fa 52657
mée 52655
ok 52645
din@@ 52635
colleges 52630
introducing 52629
chanteuse 52626
Armed 52624
Thanksgiving 52621
Ahmadinejad 52617
Dundee 52614
miracle 52610
projections 52608
Beverly 52605
considère 52601
pope 52598
poised 52588
AG 52582
incentive 52582
kilometres 52580
righ@@ 52579
Elliott 52578
val 52550
starred 52539
Arnaud 52536
scolaires 52535
t-il 52535
bility 52533
dez 52531
declare 52514
Pete 52508
Tonight 52507
espagnol 52494
jurors 52486
fitting 52480
Fir@@ 52478
riche 52476
directions 52471
kilometers 52461
salles 52461
Citigroup 52458
commentary 52457
creditors 52452
interne 52450
Norwegian 52431
slammed 52431
lover 52427
adultes 52425
inauguration 52424
Gul@@ 52423
Doug 52421
aises 52418
quest 52406
stays 52402
AIDS 52399
audi@@ 52387
government-@@ 52384
aired 52379
step@@ 52369
yr@@ 52368
portable 52357
EDF 52352
vide 52347
injection 52338
suprême 52334
sid@@ 52324
Son@@ 52319
lawsuits 52317
actualité 52314
soi 52312
René 52309
altogether 52304
annu@@ 52299
Es@@ 52296
Lind@@ 52295
PME 52291
Montreal 52285
Thanks 52279
Zoo 52278
artistic 52278
conserver 52277
homeowners 52266
ush 52264
Pom@@ 52252
HP 52250
batteries 52245
ord 52232
mandatory 52229
switched 52226
Vel@@ 52216
Fraser 52210
vir@@ 52209
Fun@@ 52199
Perez 52195
punch 52195
CI 52177
neg@@ 52177
rebuild 52163
iques 52153
partenaire 52147
intend 52142
aiming 52138
Classic 52132
Guantanamo 52126
dow@@ 52121
Ball 52119
cia 52114
resource 52108
ree 52091
plateau 52080
graphy 52075
suivant 52075
Pul@@ 52074
Eur@@ 52073
gaming 52070
whenever 52070
Fil@@ 52066
nier 52065
jet@@ 52042
12th 52037
drogue 52036
démission 52035
palais 52027
hailed 52021
launches 52012
ugly 52000
advisory 51999
Europa 51998
fal@@ 51991
surgeon 51987
enner 51985
prevention 51985
borrowers 51984
oral 51966
appetite 51956
Come 51955
Further 51955
wers 51937
Barnes 51923
U.S.-@@ 51888
igh 51887
gram 51884
psycho@@ 51884
uring 51881
1969 51879
magasins 51870
ène 51865
médicaments 51859
Everybody 51856
relate 51852
seeds 51851
Up@@ 51849
greatly 51846
reaches 51834
elaborate 51821
cross@@ 51816
reau 51812
mai@@ 51811
aï@@ 51805
mea 51805
Lionel 51804
Mulhouse 51803
Marcel 51801
ury 51788
48@@ 51786
pend@@ 51777
att 51771
Better 51755
blanche 51740
beds 51730
awaiting 51714
nec@@ 51713
random 51711
Mission 51710
ket@@ 51709
Sterling 51705
usi@@ 51699
Room 51690
engager 51690
Nas@@ 51684
rit@@ 51680
commonly 51678
moteur 51675
dom@@ 51667
joie 51651
essai 51650
précédente 51641
Sebastian 51637
lethal 51635
decisive 51632
lad@@ 51627
folk 51623
pizza 51610
slam 51608
foi 51605
essayer 51601
receives 51595
Prof 51591
revenge 51591
signer 51585
hyper@@ 51584
Current 51571
explosions 51570
® 51552
itation 51550
suffisamment 51545
Barcelone 51541
Gareth 51535
posé 51535
unfortunate 51530
Jenkins 51527
plac@@ 51521
certes 51517
speeches 51509
télé 51502
loyalty 51496
eter@@ 51487
justify 51487
unhappy 51479
urg@@ 51479
ato@@ 51471
juice 51471
flee 51467
ESPN 51465
Gonzalez 51464
dg@@ 51455
brow@@ 51451
touchdowns 51451
essentiellement 51447
northwest 51447
Yu@@ 51437
mit 51431
uncertainties 51423
aba 51421
leak 51416
twins 51409
Anti@@ 51408
revelations 51407
wel@@ 51404
lun@@ 51403
â@@ 51403
D.@@ 51399
od 51394
Trois-Rivières 51390
PS@@ 51386
Pistorius 51378
Cul@@ 51376
Embassy 51369
issent 51352
coins 51342
scandale 51342
recruit 51341
designated 51320
ih@@ 51317
humaine 51314
counties 51309
Born 51306
partager 51295
Comité 51288
capability 51276
reviewing 51276
Nixon 51268
casual 51264
Brun@@ 51254
Indonesian 51253
911 51250
failures 51249
securing 51244
apartments 51234
affiliate 51229
attackers 51225
kicks 51225
solide 51219
ound 51217
rank 51214
tenant 51214
ace@@ 51211
AV@@ 51206
globally 51193
riot 51189
enfance 51186
Shor@@ 51181
read@@ 51154
K. 51149
endorsed 51142
Play 51141
Mercredi 51135
united 51130
contributing 51128
counter-@@ 51125
milit@@ 51121
Aussie 51117
steep 51106
flooded 51104
hurricane 51096
spill 51096
Soleil 51090
Ven@@ 51090
poster 51084
King@@ 51065
Modern 51064
palace 51064
Bangkok 51056
Quatre 51056
abilities 51055
atr@@ 51046
hackers 51044
absolument 51041
douze 51039
pour@@ 51037
contre-@@ 51032
pless 51032
vs 51030
recipe 51027
informatique 51023
réalisation 51022
ard-@@ 51021
propriété 51019
Calgary 51018
assurances 51008
Chen 51005
shower 51004
Va 51002
donor 50996
dynamique 50994
scre@@ 50983
Fon@@ 50978
vin@@ 50974
commented 50968
Diamond 50966
pronounced 50958
coopération 50945
modèles 50938
ferry 50934
nuts 50930
outils 50929
0s 50923
mounted 50917
traits 50914
Lauren 50913
observation 50906
Parce 50896
Florence 50890
attitudes 50882
Player 50875
Drive 50871
IN 50868
ann 50866
attends 50854
ots 50853
Dark 50849
charter 50846
Iron 50845
roster 50830
derby 50829
extr@@ 50827
successive 50822
responsibilities 50796
organ 50795
eusement 50789
ova 50789
inging 50778
agricultural 50768
Hand@@ 50764
anim@@ 50757
750 50752
dishes 50749
publisher 50733
couleur 50732
boarding 50720
navy 50720
wickets 50719
Digital 50717
sensation 50708
apple 50704
bag@@ 50694
accountable 50692
complications 50688
enced 50684
souvenir 50676
Yesterday 50669
performers 50666
nightmare 50661
vois 50659
similarly 50658
Ari@@ 50656
shifted 50654
Lundi 50647
aut 50636
skipper 50630
tarifs 50625
toy 50615
Rock@@ 50608
glo@@ 50606
Gold@@ 50603
panels 50600
implementation 50588
atically 50586
parked 50584
allé 50580
artistique 50569
Luxembourg 50568
Là 50562
constate 50558
Cardinals 50557
ally-@@ 50551
pts 50546
épisode 50545
Cricket 50540
relevé 50532
eps 50531
displaced 50522
sponsors 50515
plunged 50512
counted 50511
short-@@ 50509
Help 50506
wary 50502
PQ 50496
Rail 50493
structural 50478
lock@@ 50474
musician 50473
Monica 50470
functions 50454
Parents 50446
Nokia 50440
maître 50427
Contact 50424
stratégique 50421
vivent 50418
Thr@@ 50413
Disease 50410
incomes 50405
respective 50405
Maurice 50399
SS 50394
murders 50388
Leon 50384
sub-@@ 50384
metre 50383
comb@@ 50378
loses 50377
saga 50375
mono@@ 50373
insisting 50372
prop 50366
awkward 50359
rég@@ 50356
threatens 50353
diff@@ 50351
foot@@ 50344
gin 50342
Students 50340
stamp 50339
norm@@ 50338
ida 50333
epic 50324
bidding 50315
anni@@ 50306
horrific 50306
Jesse 50289
Serbia 50284
Squ@@ 50278
Assistant 50267
sheets 50262
5e 50252
000@@ 50246
individus 50245
hunger 50234
atti@@ 50220
tally 50219
gol@@ 50215
ru 50215
faudrait 50213
axe 50212
ela 50203
Algérie 50197
Operation 50195
gies 50193
tackling 50192
flowing 50189
tening 50187
receiver 50182
commissions 50178
conserv@@ 50178
Amsterdam 50175
qualifications 50175
Opera 50166
chargée 50163
opposing 50156
Sex@@ 50152
finir 50152
cooked 50146
Santos 50137
conversion 50134
unchanged 50130
Cependant 50111
18,@@ 50107
greeted 50104
thrilled 50103
tte 50102
immeuble 50100
nets 50097
Joyce 50096
Montpellier 50096
iro 50094
Hungary 50091
écoute 50086
rallies 50085
affronter 50081
emotion 50080
Study 50076
Along 50073
asi@@ 50063
dealer 50058
Hammond 50057
Gas@@ 50056
gare 50053
apper 50047
adversaires 50042
disparition 50028
normes 50025
significance 50024
cocktail 50005
deployment 50000
hydro@@ 49998
traité 49996
Phil@@ 49992
revue 49990
Jean-Luc 49985
acquire 49983
exploring 49974
magazines 49974
hamstring 49964
duel 49946
shall 49945
Weather 49929
anxious 49925
Thank 49919
esh 49917
Till@@ 49908
pot@@ 49903
philosophy 49900
servi 49897
rear 49895
quinze 49893
Britons 49890
literature 49877
fêtes 49876
hot@@ 49876
indi@@ 49868
internationaux 49865
architect 49864
commentaires 49864
retreat 49849
tory 49843
Eu@@ 49841
trac@@ 49839
cha 49838
Creek 49829
lip 49827
twist 49824
rankings 49821
sens@@ 49820
codes 49814
coroner 49813
aut@@ 49808
démocrate 49804
inquiries 49793
annoncer 49789
perspectives 49785
Lloyds 49782
You@@ 49780
Montgomery 49776
expose 49770
Click 49746
Bouchard 49740
avoiding 49739
installé 49735
root 49730
slogan 49723
start-up 49713
isolation 49712
Rig@@ 49707
heating 49702
Ankara 49695
smiling 49695
lease 49680
Challenge 49678
Fukushima 49676
declaration 49668
stunned 49651
differ 49644
ologue 49638
sely 49638
MP@@ 49635
ellement 49635
naturel 49634
zu 49632
quent 49631
vins 49630
breakdown 49628
sixième 49621
Amnesty 49603
wicket 49593
rapporté 49588
Doc@@ 49569
skilled 49566
patch 49564
MS 49559
lean 49555
bie 49552
biological 49546
disant 49543
lender 49543
confronted 49542
Grande-Bretagne 49541
Marois 49534
enz@@ 49532
neutral 49531
Exp@@ 49528
packages 49521
Berry 49519
atten@@ 49513
margin@@ 49507
submit 49506
Van@@ 49505
spécial 49498
utilisateurs 49497
Hispanic 49492
Novak 49482
leaning 49476
sided 49469
oux 49457
oeil 49450
Rescue 49444
enhanced 49444
rh@@ 49443
shifts 49424
Luc@@ 49420
revoir 49417
Carr@@ 49416
isé 49415
inequality 49408
speakers 49407
amor@@ 49405
aled 49404
ousted 49402
financially 49400
Milwaukee 49399
lié 49399
compli@@ 49397
décédé 49390
Pel@@ 49385
Sem@@ 49382
Sig@@ 49382
compar@@ 49378
Isabelle 49377
routinely 49375
medic@@ 49374
niveaux 49374
dan 49372
Voilà 49369
barrage 49365
Eas@@ 49360
click 49352
pé@@ 49347
Vin@@ 49344
attributed 49344
character@@ 49339
limiter 49326
tiendra 49324
lers 49321
clientèle 49320
lism 49317
unemployed 49312
Joshua 49309
Think 49304
evolution 49304
legendary 49299
cot 49297
ea 49291
eraient 49280
liabilities 49279
nod 49274
liquidity 49261
shouting 49250
.C. 49246
northeast 49243
qualities 49240
donation 49239
Roland 49228
ingham 49214
kills 49204
arguably 49194
Bran@@ 49192
elle-même 49181
influenced 49179
mall 49176
Ashton 49173
sson 49164
Jackie 49159
asing 49145
assigned 49143
ilo@@ 49128
révèle 49116
naval 49115
ép@@ 49115
owski 49110
bowling 49106
publicité 49105
kle 49102
Inter 49099
J.@@ 49087
graduates 49084
delivers 49080
Salmond 49075
cancers 49074
chains 49068
65@@ 49045
fitted 49039
Yeah 49038
fir@@ 49031
Bra@@ 49026
Happy 49010
intimate 49001
Technologies 48997
0.4 48996
Will@@ 48996
capped 48993
hab@@ 48984
cadres 48980
criteria 48970
tâche 48969
class@@ 48966
complète 48960
Scot@@ 48957
transfert 48957
airstrikes 48955
enjeux 48955
Boys 48952
Stoke 48950
log@@ 48931
vêtements 48914
Residents 48908
règle 48907
Angel 48905
présentée 48900
Blacks 48891
Benedict 48881
proceed 48879
sing@@ 48878
focuses 48871
soumis 48868
hardest 48862
États 48854
slump 48853
achievements 48849
ister 48849
imper@@ 48841
caucus 48837
chan@@ 48834
kit@@ 48822
corrupt 48819
Play@@ 48814
detect 48803
spiritual 48802
edged 48794
sexy 48787
Newman 48782
Libération 48779
japonais 48773
dict@@ 48767
vendu 48763
2.2 48759
displays 48758
clôture 48757
dawn 48755
360 48752
suppression 48746
aurais 48736
arrestation 48735
uncovered 48727
prayers 48726
PL@@ 48716
retirer 48715
surprises 48713
altitude 48703
manqué 48699
PP 48692
four@@ 48686
mirror 48685
pirates 48683
Hil@@ 48681
kidnapping 48679
neutr@@ 48678
dementia 48676
effectuer 48670
Madonna 48667
aqu@@ 48666
justified 48665
tit@@ 48664
Kun@@ 48661
leverage 48660
goal@@ 48657
adh@@ 48654
Youn@@ 48650
clever 48649
icy 48644
spends 48622
Ruth 48609
vali@@ 48600
Aston 48597
2-year-old 48592
wives 48588
smashed 48586
poorly 48578
Knicks 48573
plates 48561
abe 48539
parlementaires 48537
achieving 48530
BT 48526
guided 48523
4-1 48517
BE@@ 48517
Monetary 48515
Nov@@ 48505
envoyer 48504
19,@@ 48497
systèmes 48476
vis 48475
supplier 48466
bénéficier 48463
confirmer 48462
ripped 48460
Meyer 48456
Paulo 48455
Buy 48454
Mess@@ 48448
threshold 48446
credited 48445
albeit 48437
cultiv@@ 48437
succeeded 48432
Maz@@ 48427
copper 48413
49@@ 48411
cesse 48410
vélo 48409
rette 48391
pump 48376
protective 48372
calculated 48371
boulevard 48363
discuter 48361
SNCF 48354
remporter 48354
signifie 48352
borne 48348
respectivement 48347
Memphis 48340
rupture 48336
dged 48334
hostage 48331
mouvements 48321
ê@@ 48320
remind 48319
N' 48308
Bieber 48306
Carlton 48304
fan@@ 48302
Crawford 48295
eva 48291
neighbour 48282
oping 48277
mansion 48274
gallon 48268
Operating 48262
conducteur 48262
fatigue 48254
ees 48249
dimension 48246
délai 48245
accordé 48239
accords 48235
expectation 48232
kie 48211
170 48209
lac 48207
sit@@ 48197
allant 48194
acceptance 48192
généralement 48183
flash@@ 48182
patrons 48181
Israelis 48176
ny@@ 48174
MC 48173
big@@ 48172
surveys 48170
excuses 48166
liner 48160
Jérôme 48158
occupe 48150
disturbing 48148
kit 48144
predic@@ 48143
Race 48142
Bit@@ 48138
bare 48136
raconté 48126
fié 48122
franc 48119
clam@@ 48118
classroom 48115
humains 48112
tation 48106
électronique 48103
hardware 48090
stabilité 48080
culturel 48079
Magazine 48072
rap 48072
deck 48069
personnalités 48062
vivant 48062
Schools 48061
13th 48056
asts 48056
grid 48054
Din@@ 48049
solely 48042
Queens 48040
Terre 48034
EC@@ 48012
icon 48009
Montana 48007
judged 48006
bed@@ 48000
costumes 47996
imposé 47994
cruci@@ 47986
FO@@ 47984
floating 47984
memorable 47979
promet 47977
reti@@ 47976
Pass@@ 47974
ady 47963
ronde 47946
embraced 47937
sponsor 47937
abus 47933
much-@@ 47933
person@@ 47933
Aw@@ 47926
dding 47925
tax@@ 47924
currencies 47916
uncle 47912
fascinating 47873
textes 47871
ema 47866
Very 47864
Direction 47862
guitar 47859
musiciens 47855
Sous 47846
ute 47844
Nathalie 47840
e-t-il 47832
actif 47825
per-@@ 47825
anning 47823
Hus@@ 47821
endured 47820
Moi 47818
Call@@ 47817
Hier 47803
unités 47792
Mick 47791
cabin 47783
fossil 47777
suffit 47774
rassemblement 47770
gonna 47768
sts 47768
seal 47767
bath 47765
00m 47763
unbeaten 47763
counterpart 47760
convincing 47743
importantly 47741
extradition 47740
Good@@ 47734
Hill@@ 47731
Library 47725
Lorsque 47724
Leonard 47722
Nashville 47710
probation 47707
Mills 47703
mand@@ 47697
apparaît 47692
bay 47692
inquiète 47692
beside 47690
Nos 47677
connue 47670
Nicola 47669
sièges 47655
crops 47653
2m 47652
voient 47645
fraude 47642
doublé 47637
Rory 47634
red-@@ 47632
ré 47628
Average 47624
refer 47624
mechanism 47610
tablets 47610
Lance 47608
Gra@@ 47606
possibles 47605
resist 47603
Bern@@ 47599
19-year-old 47591
furious 47578
pris@@ 47572
component 47562
sprint 47557
Liu 47556
e' 47552
Shel@@ 47537
ases 47536
voiced 47532
Germans 47531
43@@ 47527
spl@@ 47521
cann@@ 47519
dging 47519
Pauline 47518
illing 47518
Getting 47513
jam@@ 47507
Robbie 47501
commodities 47499
fallu 47498
Wy@@ 47488
touches 47479
Webb 47477
Area 47474
throat 47473
Bleus 47467
Voice 47457
réalisée 47446
sweep 47446
orbit 47444
recommendation 47444
Prevention 47443
courtroom 47438
1,4@@ 47431
sport@@ 47431
attendent 47430
fixé 47426
jum@@ 47426
floods 47422
dessus 47420
Soc@@ 47418
nom@@ 47408
Hin@@ 47406
Thur@@ 47403
grain 47396
memo 47382
Together 47376
suisse 47374
Rus@@ 47366
admitting 47364
dumped 47359
'Neill 47358
Président 47345
attirer 47342
slower 47342
omed 47318
ele 47302
olive 47293
occasional 47289
Timothy 47277
reductions 47277
Championnat 47262
barred 47258
formule 47252
montrent 47252
arabe 47251
Fro@@ 47245
Weinstein 47245
tenants 47241
southeast 47236
delegation 47233
atifs 47229
Reform 47226
1971 47219
pig@@ 47216
ardo 47214
boycott 47214
firme 47214
préféré 47209
Stakes 47199
Carroll 47191
dénonce 47191
speeds 47187
Ivan 47162
Af@@ 47157
pper 47146
substances 47144
Cob@@ 47142
tain 47141
exclusively 47137
viol@@ 47136
fournir 47130
LIRE 47125
evident 47123
TS@@ 47116
ethical 47114
GPS 47112
homer 47110
searches 47096
7.5 47089
1964 47088
whe@@ 47083
hr@@ 47081
vidéos 47063
planted 47059
yce 47059
esting 47051
issant 47051
diffusé 47033
header 47029
recruitment 47027
ature 47026
embar@@ 47013
CO2 47006
exprimé 47006
colours 47000
migr@@ 47000
lé@@ 46998
Master 46993
corporation 46993
diluted 46988
Bulls 46987
productions 46973
renowned 46959
touching 46958
Full 46955
éch@@ 46953
Farm 46951
shor@@ 46946
CD@@ 46945
ener 46945
aths 46942
Hilton 46941
sticking 46927
dirigé 46915
month-old 46915
sue 46908
AU@@ 46899
Chiefs 46896
miners 46896
pouvons 46893
prayer 46886
goo@@ 46885
iné 46885
pus 46879
100m 46871
likelihood 46870
Poll@@ 46863
Aviation 46862
shirts 46862
akh@@ 46859
outlined 46859
4-0 46856
clearing 46845
vary 46839
founding 46835
Tests 46832
swim 46831
1945 46829
shouted 46828
abuses 46827
disparu 46820
NY@@ 46815
lied 46806
à@@ 46804
Vir@@ 46803
Note 46798
scary 46793
Som@@ 46788
espérer 46786
pret@@ 46782
0-0 46780
transform 46780
FO 46771
Nor 46770
ridge 46769
OS@@ 46760
mic 46754
oxygen 46750
quet 46750
Ryder 46740
applying 46740
ple 46730
Saleh 46729
aus 46727
broadly 46720
mul@@ 46720
Side 46715
22-@@ 46713
Grey 46711
IL 46707
détenus 46695
lé 46695
shuttle 46693
spir@@ 46688
Radio-Canada 46686
Hot 46682
vit@@ 46677
2.3 46674
intégration 46667
gé 46666
dépôt 46659
youngsters 46651
ME 46650
hem 46640
Gay 46636
deb@@ 46633
â 46631
23-year-old 46618
E-@@ 46598
paiement 46597
Grâce 46593
handing 46593
Sex 46591
TE 46591
Wall@@ 46588
illon 46583
Impact 46582
elly 46582
Reading 46578
Less 46570
t-elle 46569
Follow 46566
creator 46566
nationally 46552
60-@@ 46549
ement@@ 46544
rumours 46538
ells 46537
Kor@@ 46536
Py@@ 46536
kets 46534
eliminated 46515
ola 46515
Broad@@ 46514
remplacer 46509
ein 46499
Vettel 46495
combine 46494
dure 46490
thriller 46487
litigation 46484
T-@@ 46477
Fab@@ 46473
négociation 46470
AUSSI 46465
bounce 46465
ental 46465
Lond@@ 46462
décider 46462
feedback 46462
Season 46461
literary 46456
brick 46455
alisée 46446
I-@@ 46445
frustrating 46432
representation 46428
Add 46426
concernés 46410
préciser 46405
muscles 46402
progressé 46400
electorate 46392
Bird 46386
oph@@ 46375
journalism 46374
Sis@@ 46365
forêt 46361
combattants 46360
ech@@ 46355
insurgency 46353
séjour 46346
refusal 46336
campaigners 46332
Shab@@ 46329
Kan@@ 46328
indigenous 46328
islamistes 46312
negotiated 46308
seeded 46308
Ou 46299
completion 46294
tery 46290
pipe 46289
hybrid 46283
Lun@@ 46276
Wal-Mart 46274
tat@@ 46272
clause 46263
declaring 46262
travaillent 46260
adequate 46252
Bahrain 46250
agression 46250
kidnapped 46249
precise 46238
Sus@@ 46237
Smart 46231
Doctor 46226
fortunes 46223
Marion 46222
Crédit 46216
halftime 46215
boundaries 46210
mild 46209
dem 46207
Columbus 46202
assister 46200
slo@@ 46193
régler 46186
makeup 46185
OM 46184
80s 46177
intervenir 46177
nam@@ 46169
eh 46157
cryp@@ 46150
mysterious 46150
contested 46146
doses 46140
persistent 46137
Records 46135
mentor 46135
identifying 46131
débuté 46124
prête 46120
cruel 46109
ombre 46109
trop@@ 46108
fourth-@@ 46107
Brighton 46103
NA@@ 46100
correc@@ 46094
donnent 46093
h00 46093
Net@@ 46091
cav@@ 46088
vari@@ 46087
churches 46081
alizing 46080
Charest 46062
22-year-old 46041
polémique 46041
Analysis 46039
Pays-Bas 46039
catholique 46037
envoy 46034
8e 46033
bran@@ 46032
mixture 46030
gardens 46017
reflecting 46017
confie 46014
fas@@ 46013
protections 46012
8-year-old 46005
20-year-old 45994
alan 45993
industriel 45993
communautés 45990
unfortunately 45990
Rep@@ 45976
assisted 45975
nettement 45966
quement 45958
eda 45954
peer 45946
constructeur 45944
fins 45944
orn@@ 45941
insider 45939
hydr@@ 45931
Figaro 45928
shar@@ 45927
Sandra 45921
dominate 45919
OT@@ 45914
parvenir 45911
Bear 45906
menaces 45902
foyer 45889
tively 45888
Toutes 45885
valuation 45877
Stop 45872
1,5@@ 45868
100-@@ 45866
turnout 45863
licensed 45858
ond 45856
bb@@ 45853
isse 45853
garçon 45846
heim 45845
heroin 45833
appoint 45828
Kyi 45826
appartement 45819
récente 45808
decreased 45799
autoroute 45794
signatures 45786
18-year-old 45781
Hopefully 45771
2-2 45770
6e 45767
FR@@ 45767
N.J. 45766
e-up 45765
institu@@ 45764
Lebanese 45760
chic 45760
queen 45760
robots 45760
wan@@ 45760
contents 45755
diverses 45750
donn@@ 45742
socialistes 45740
Stat@@ 45739
giants 45735
Observ@@ 45734
Danish 45728
oper@@ 45727
dite 45722
internationally 45703
patent 45698
epidemic 45692
flower 45691
surviving 45687
dresses 45680
Set 45675
'S 45673
NI@@ 45669
weighing 45669
Gilli@@ 45667
beauté 45663
Trafford 45655
monument 45655
ears 45649
ok@@ 45649
Tat@@ 45642
agn@@ 45642
Curtis 45635
7-5 45623
pain@@ 45621
band@@ 45620
rever@@ 45618
pockets 45607
ouv@@ 45606
morale 45601
meantime 45599
evacuation 45597
one-day 45591
math 45581
chaînes 45579
Musée 45575
17th 45573
3-year-old 45570
regulated 45568
rire 45568
labels 45567
Suu 45563
Sainte-@@ 45562
grandchildren 45560
dip 45559
TE@@ 45555
testify 45549
traditions 45545
Ellen 45539
lait 45533
Lennon 45528
républicain 45528
Reste 45520
sk 45519
bateau 45518
caring 45515
tasks 45512
reprend 45511
four-year 45510
savent 45499
coordination 45497
disciplinary 45495
spécialistes 45495
distinction 45491
soaring 45491
tends 45487
eut 45483
Keep 45481
priest 45479
revers 45474
2,5 45465
tombe 45464
stranded 45462
Patricia 45460
acious 45459
Co. 45457
grim 45456
guarantees 45454
souhaité 45452
sticks 45449
Pitt 45445
entièrement 45444
souhaitent 45436
bic 45431
Joan 45426
minimal 45426
supplied 45412
Fle@@ 45394
policing 45376
list@@ 45374
Mam@@ 45359
Regional 45355
ron@@ 45355
construit 45354
hn 45352
Hawks 45350
vintage 45346
Surrey 45343
ski@@ 45341
undergo 45341
practi@@ 45339
ress@@ 45339
yoga 45334
Kenneth 45318
s. 45316
tting 45301
mice 45290
bids 45289
Cable 45285
home@@ 45284
conception 45282
15th 45267
True 45265
ize 45263
nominees 45260
ull 45258
familiale 45257
pie 45243
ablement 45241
eb 45238
CAC 45231
inity 45231
lem@@ 45231
glimpse 45224
spacecraft 45222
côte 45220
stark 45214
forming 45209
runner 45209
boosting 45200
Mes@@ 45196
crow@@ 45185
Lucy 45181
l-@@ 45177
16th 45172
foster 45172
Talk 45169
ices 45168
Mondial 45165
inj@@ 45164
25-year-old 45157
Gross 45156
terminer 45146
wisdom 45145
conven@@ 45144
Aber@@ 45143
reçoit 45142
Jo 45126
historically 45115
Had 45098
oy@@ 45098
Foo@@ 45095
lu 45094
chem@@ 45092
Housing 45079
distress 45079
suppose 45076
CG 45073
congrès 45071
drafted 45067
Statistics 45066
conséquence 45064
resté 45062
missi@@ 45060
Éric 45052
one@@ 45044
learnt 45037
affirmant 45029
résolution 45027
eck@@ 45023
2.4 45019
tonne 45019
diving 45015
cliff 45014
hometown 45004
forthcoming 45000
Devils 44993
Vermont 44992
steadily 44972
rot 44970
killers 44962
Fans 44960
appointments 44957
buzz 44953
innocence 44949
All-Star 44948
UC 44942
bâtiments 44937
Mik@@ 44930
acid 44922
semestre 44921
Indianapolis 44915
Zimmerman 44915
Ny@@ 44911
Pré@@ 44911
ammunition 44911
urs 44909
H.@@ 44901
fits 44901
ey@@ 44890
particuliers 44890
demi-@@ 44886
Gur@@ 44883
ahl 44881
Cubs 44878
Left 44876
½ 44875
permits 44868
meter 44864
Toulon 44863
gesture 44862
maintains 44860
sible 44860
noon 44858
fabrication 44857
declines 44854
Sharon 44850
17-year-old 44847
récupérer 44845
Amendment 44841
manages 44836
21-year-old 44834
aly@@ 44832
Tesla 44828
Trent 44824
sellers 44823
èrent 44818
Fif@@ 44814
Players 44813
washed 44811
Chad 44809
municipale 44808
Def@@ 44797
trai@@ 44794
cit@@ 44788
privilege 44788
siblings 44786
prenant 44784
eness 44781
procédures 44780
olympiques 44778
élément 44773
chés 44772
Nov 44761
Carol 44756
policière 44756
tus 44753
Kosovo 44752
voulais 44746
Revolution 44743
offerings 44742
Pil@@ 44740
Hague 44738
erup@@ 44728
fares 44724
nut 44722
aggressively 44703
punished 44698
satellites 44696
t-on 44689
équivalent 44682
bis 44678
outing 44678
ener@@ 44672
aved 44669
gg 44669
grief 44653
endorsement 44648
festivals 44647
san@@ 44642
Stock@@ 44639
rides 44627
Ralph 44620
gala 44615
Riv@@ 44611
convaincu 44611
Maintenant 44596
Support 44594
cattle 44593
tube 44593
gor@@ 44577
sake 44569
itz 44565
excluding 44562
Mumbai 44557
vie@@ 44553
News@@ 44544
producteur 44544
monnaie 44543
grows 44541
prints 44536
journées 44535
whereas 44529
dignity 44517
ndlr 44514
dépit 44513
broad@@ 44512
porn 44510
provenance 44496
Travis 44493
Days 44491
24-year-old 44487
Stre@@ 44485
tisme 44483
Paris-@@ 44482
Coleman 44473
dity 44469
scare 44459
reconciliation 44456
completing 44451
eb@@ 44445
Rh@@ 44443
150,000 44435
Sec@@ 44433
layer 44433
Echos 44422
tar 44420
styles 44419
BD 44418
5-year-old 44412
prendra 44411
adul@@ 44408
continuent 44399
responsabilités 44394
uti@@ 44391
SAN 44384
dom 44381
God@@ 44377
story@@ 44377
dest 44375
surged 44373
pact 44372
militia 44368
collège 44366
een 44366
permitted 44363
hid 44353
prestigious 44346
Halloween 44344
Making 44344
Half 44338
entre@@ 44336
Américain 44332
reb@@ 44332
McLaren 44326
déclare 44326
trente 44317
reux 44313
gross@@ 44307
endless 44306
juridique 44301
compétences 44299
substantially 44297
fraction 44296
Down@@ 44293
dividends 44291
belong 44288
Porter 44277
rockets 44276
defenders 44274
champagne 44273
settlements 44273
confessed 44270
Sheikh 44266
misleading 44264
trav@@ 44258
contracted 44257
ku@@ 44256
goers 44254
Lt. 44248
annuelle 44246
Martine 44244
whi@@ 44243
Target 44239
Wembley 44236
exercises 44235
Lit@@ 44230
enabled 44224
EBITDA 44215
pistes 44209
MB@@ 44204
Arch@@ 44200
genuinely 44198
voisin 44198
Lehman 44197
sympathy 44192
ray 44190
Hannah 44188
shaking 44186
Soon 44184
Peu 44180
By@@ 44177
Dale 44176
alter 44176
convert 44176
décennies 44170
Rod@@ 44167
cite 44146
Criminal 44144
dian 44143
Beyond 44137
moderne 44135
trademark 44132
Common 44125
quo 44123
consortium 44119
relance 44113
Davidson 44111
Cel@@ 44100
ever-@@ 44083
farming 44065
puissent 44063
Grand@@ 44054
cancel 44052
legi@@ 44051
conce@@ 44048
dl@@ 44037
volet 44037
PI 44035
réunis 44035
sac 44035
sanction 44033
organizers 44032
observer 44028
lent 44027
alimentaire 44026
Low 44025
apo@@ 44018
Pierre-@@ 44015
ling@@ 44015
2,500 44014
habitat 44013
origin 44013
avancer 44004
Torres 44002
benefited 43994
14th 43968
Mo 43967
1963 43964
feld 43960
Ibrahim 43954
ceasefire 43954
Unit 43952
game-@@ 43951
stra 43949
facial 43948
grocery 43947
collectivités 43939
industriels 43931
passi@@ 43931
dées 43924
jersey 43924
powder 43922
Mass@@ 43916
PARIS 43913
AND 43912
sénateur 43900
hectares 43894
pouvant 43886
profound 43884
mène 43873
Battle 43872
Cornwall 43872
median 43869
Portuguese 43862
prepares 43861
Pelosi 43854
coéquipiers 43841
universitaire 43826
frag@@ 43825
demi-finale 43805
tricky 43805
laptop 43802
Us 43795
neighbouring 43795
9-year-old 43788
Blatter 43788
ester@@ 43788
Politics 43782
méthode 43781
How@@ 43777
ram 43772
accompagné 43770
Championships 43764
scal@@ 43761
grades 43757
Direc@@ 43749
Tra@@ 43743
cris@@ 43740
5bn 43732
jardin 43729
Ca@@ 43722
Vers 43717
Sha@@ 43705
stalled 43701
Bali 43692
Four@@ 43691
Kay@@ 43684
half-time 43684
reacted 43684
0.6 43683
Sussex 43683
rachat 43682
Laz@@ 43677
glory 43677
Photos 43674
stored 43666
rement 43664
bolster 43653
bell 43634
ballots 43619
Ple@@ 43617
sof@@ 43617
beaux 43616
Tu 43610
âgées 43609
PD@@ 43600
nerve 43595
Malaysian 43589
brush 43588
magasin 43578
regards 43577
withdrawn 43572
fif@@ 43567
wondered 43562
curious 43560
HI@@ 43558
Whe@@ 43554
Wolf 43552
Currently 43551
download 43546
analyses 43544
time-@@ 43543
firearms 43540
attacker 43536
cage 43530
extraordinaire 43529
Beatles 43519
disastrous 43517
Sessions 43507
anny 43507
imposing 43507
témoin 43503
elo@@ 43495
Panama 43485
Rat@@ 43482
Midlands 43480
chaud 43478
relais 43466
Marines 43460
spirits 43453
Alonso 43444
a-based 43442
unies 43439
backdrop 43438
Lindsay 43430
recruiting 43429
agences 43426
erreurs 43415
26-year-old 43413
Direct 43412
Haz@@ 43403
originaire 43402
televised 43389
adolescents 43388
line@@ 43388
verre 43388
opérateur 43387
RC 43382
boasts 43382
canadiens 43381
topics 43378
Saf@@ 43376
né@@ 43375
Melissa 43374
photographed 43373
Palm 43371
Estate 43362
sage 43354
Matthews 43353
précis 43353
tent@@ 43349
1bn 43331
contrary 43329
arians 43327
matières 43327
protester 43327
capacités 43326
inscrire 43323
minorities 43320
Très 43315
Stockholm 43306
4-year-old 43303
Ambassador 43302
relativement 43298
commanders 43294
encies 43292
lac@@ 43290
scorer 43288
forts 43286
premiums 43282
Hodgson 43280
cafe 43279
1.9 43276
Lords 43273
squeeze 43269
revive 43267
Economics 43266
mir@@ 43261
laying 43248
contention 43242
endra 43242
front-@@ 43239
Oct 43233
Esp@@ 43231
short@@ 43230
ious 43224
ppers 43216
contamination 43213
imagined 43211
conduire 43205
laboratory 43204
scu@@ 43204
opérateurs 43203
intéressant 43202
spéciale 43199
U-@@ 43196
ouvrage 43195
Taking 43193
pitcher 43193
boun@@ 43188
acked 43187
outil 43185
fet@@ 43179
jer@@ 43177
T.@@ 43176
dra@@ 43174
dévoilé 43174
banning 43165
élevés 43165
émotion 43161
Cai@@ 43157
incroyable 43157
oper 43155
mud 43154
accomplished 43145
Hopkins 43139
vocation 43134
dois 43124
al-Qaeda 43121
printing 43119
gates 43118
23-@@ 43112
demandent 43110
sno@@ 43109
bourg 43106
Wai@@ 43102
Ep@@ 43091
import 43091
armés 43089
believing 43083
composé 43082
instantly 43082
Sécurité 43078
maîtrise 43078
Snow 43068
sman 43066
fum@@ 43060
parisien 43058
kidney 43052
prévention 43049
lacked 43048
cinquantaine 43047
detective 43044
chen@@ 43037
effectifs 43034
77@@ 43031
spark 43028
novels 43027
disque 43025
onnés 43025
liability 43024
fixing 43018
conseillers 43014
forensic 43011
committing 43010
Shaun 43005
Beaucoup 43004
adopter 43001
Quel 43000
humili@@ 43000
Juventus 42999
shorter 42999
distinct 42998
examining 42996
eyed 42985
floors 42983
Cad@@ 42979
kiss 42978
réussir 42977
Medvedev 42970
3rd 42964
Roc@@ 42960
LA@@ 42958
eco@@ 42957
main@@ 42955
oh 42949
reflection 42949
hauts 42948
photography 42945
télé@@ 42945
aro@@ 42940
soared 42940
-in 42936
sez 42935
Suarez 42934
iri 42930
sten 42929
lement 42924
asser@@ 42923
harmful 42923
intervene 42919
certainty 42916
terrains 42911
fixture 42905
baisser 42903
contender 42901
small-@@ 42901
partial 42892
quinzaine 42890
diver@@ 42888
mérite 42885
assessed 42883
portent 42881
suspendu 42878
Rich 42873
ater@@ 42870
Rex 42865
Survey 42864
oming 42847
assassination 42844
tion-@@ 42844
bec@@ 42839
57@@ 42831
Slam 42824
biting 42818
vies 42813
nasty 42807
adop@@ 42798
sec 42796
direc@@ 42793
Environnement 42788
establishing 42781
motorists 42774
pre-season 42774
Boy@@ 42768
terres 42768
chinoise 42767
remembers 42767
essi@@ 42765
augh@@ 42752
swap 42752
Sau@@ 42739
decor@@ 42737
Qantas 42732
fasse 42732
Head@@ 42728
austérité 42725
Allan 42722
Madeleine 42720
fever 42718
scar@@ 42718
1,6@@ 42716
interference 42715
nationals 42715
Palais 42706
line-up 42706
it-@@ 42705
conclude 42704
restauration 42694
vers@@ 42692
southwest 42682
subjected 42672
Aucun 42670
man-@@ 42667
préfecture 42660
generating 42658
précisant 42652
Holder 42645
22.@@ 42642
psych@@ 42642
Bolton 42641
adapt 42639
résume 42632
tman 42629
Chal@@ 42628
lourd 42626
fur 42625
Back@@ 42624
Kaz@@ 42621
semblait 42621
Ice 42620
make-up 42620
thy 42615
seller 42613
temple 42609
passés 42605
Cron@@ 42604
Sep@@ 42603
Centers 42602
subtle 42599
Déjà 42598
superb 42588
Blanc 42585
annon 42582
décrit 42582
effectiveness 42582
confront 42580
métro 42576
équipements 42574
unnamed 42568
Près 42566
6.5 42565
reconnaître 42564
costing 42560
echoed 42559
rehabilitation 42559
Working 42552
estimant 42549
quitte 42543
scrap 42540
Corse 42538
Gregory 42532
Contr@@ 42529
rider 42527
Peterson 42526
Check 42524
paraly@@ 42521
Dog 42520
animated 42515
Archives 42514
superior 42512
clouds 42511
reu@@ 42509
milestone 42505
supervision 42499
Cyprus 42495
70s 42493
irrit@@ 42493
arti@@ 42492
indicating 42488
Hab@@ 42487
restera 42486
Youth 42479
aven 42474
ï@@ 42474
signes 42471
.-@@ 42469
Samantha 42468
tain@@ 42465
Nato 42464
wash 42462
Wildlife 42457
Prior 42453
withdrew 42453
opposants 42449
Rupert 42445
contenders 42444
honored 42444
Tour@@ 42442
combien 42441
constructed 42439
facture 42439
Ricky 42437
différent 42435
industrielle 42434
Urban 42426
28-@@ 42424
confidential 42420
Hayes 42412
aj 42406
Encore 42402
eland 42398
long@@ 42395
lor@@ 42394
Klein 42393
Few 42390
IPO 42382
Moody 42378
Dhabi 42377
fuels 42377
reactions 42377
mins 42373
Pac@@ 42372
brigade 42365
state-run 42364
lef@@ 42357
Prom@@ 42349
Moss 42347
ditch 42344
permettrait 42342
Légende 42341
encontre 42340
locally 42340
borrow 42338
dame 42338
Detective 42337
1965 42336
brains 42332
Industrial 42329
ption 42329
announces 42326
rangs 42325
lower-@@ 42323
autism 42314
Dim@@ 42307
secondaire 42301
Soci@@ 42298
Legal 42297
opt 42293
fortunate 42291
shield 42290
div@@ 42287
settling 42287
énergétique 42281
ouse 42267
lay@@ 42266
Fast 42259
bloo@@ 42256
lio 42256
undergoing 42248
Pedro 42247
1962 42245
7e 42245
tuition 42231
déf@@ 42228
complaining 42227
Johnston 42222
résistance 42214
2.6 42201
interactive 42199
écrivain 42198
refus 42187
Living 42173
exclusion 42172
listes 42172
wer@@ 42168
coordinator 42165
fried 42155
denying 42153
Fondation 42152
oured 42152
illé 42149
Farrell 42141
este 42128
pouring 42126
20,@@ 42125
Vie@@ 42125
revival 42121
timely 42121
adap@@ 42117
lovers 42104
quasiment 42104
Scho@@ 42102
Kom@@ 42092
Forbes 42089
Sport@@ 42084
booking 42079
laughed 42075
exactement 42074
Trav@@ 42071
aser 42070
transparence 42069
Jared 42067
gut 42065
repu@@ 42057
delicate 42049
pitches 42044
Penguins 42040
Sharapova 42040
halted 42040
Dad 42039
basement 42031
richest 42027
averaged 42023
Kit@@ 42022
Bible 42021
obstacle 42018
Churchill 42011
[...]
